{
    "schri@@": 5834,
    "Tech@@": 3859,
    "Krankheit": 3232,
    "anderswo": 2686,
    "sicherlich": 4537,
    "ars": 5403,
    "power@@": 7503,
    "kanern": 4732,
    "nte": 1653,
    "謑": 7632,
    "dra@@": 2539,
    "ę@@": 7598,
    "Selbst@@": 1302,
    "gehens@@": 4756,
    "promis@@": 6537,
    "pul@@": 6019,
    "Bürgern": 3778,
    "gets": 6502,
    "umfas@@": 2741,
    "natürlich": 503,
    "klare": 4824,
    "glei@@": 2852,
    "Schu@@": 6224,
    "Kompromis@@": 3178,
    "bedingt": 5625,
    "zeichnen": 4519,
    "frei": 3421,
    "gangen": 2924,
    "dro@@": 3059,
    "vermei@@": 3125,
    "Wechselkurs": 4763,
    "Te@@": 3840,
    "eign@@": 7513,
    "Leist@@": 7414,
    "jungen": 2864,
    "erhöhen": 1349,
    "tschaf@@": 6901,
    "pra@@": 6677,
    "н@@": 2585,
    "Min@@": 4051,
    "equi@@": 7475,
    "setzen": 550,
    "Amerikaner": 1045,
    "geleitet": 4783,
    "radik@@": 2391,
    "me": 608,
    "Est@@": 5026,
    "darum": 2002,
    "religi@@": 5613,
    "fri@@": 3569,
    "nun": 343,
    "kita": 7285,
    "weltweiten": 1074,
    "Wahlen": 1019,
    "ob@@": 1162,
    "Arbeitsmarkt": 4246,
    "verur@@": 1921,
    "stabi@@": 2930,
    "hr@@": 804,
    "Argentinien": 3383,
    "finanzielle": 1847,
    "stärken": 2193,
    "hilfe": 2665,
    "zunächst": 1475,
    "up": 6321,
    "kredi@@": 3674,
    "Verbrau@@": 6724,
    "gewesen": 1657,
    "doppelt": 4295,
    "ese": 5958,
    "Rak@@": 3353,
    "Not@@": 4220,
    "mangel@@": 2418,
    "Fehler": 1827,
    "werden": 33,
    "National@@": 2292,
    "aup@@": 7233,
    "eres": 1723,
    "Schwer@@": 3361,
    "sach@@": 5110,
    "behandelt": 4714,
    "Wohl@@": 2415,
    "apit@@": 6504,
    "鋓@@": 7539,
    "enden": 232,
    "Gel@@": 2087,
    "bereiten": 4372,
    "demon@@": 5271,
    "hel@@": 5358,
    "ätz@@": 3218,
    "ety": 7140,
    "bür@@": 2700,
    "thodo@@": 5669,
    "läufig": 4046,
    "Copenhagen": 6622,
    "bestimmten": 4497,
    "steuer@@": 4567,
    "dischen": 2317,
    "sth@@": 7184,
    "Briti@@": 7094,
    "heutigen": 1922,
    "Organisationen": 2463,
    "rück@@": 1339,
    "Bru@@": 2676,
    "struktur": 5099,
    "dern": 889,
    "hal@@": 537,
    "einst": 3001,
    "Noten@@": 3488,
    "sektor": 1612,
    "reich@@": 724,
    "later@@": 5651,
    "weiter@@": 2146,
    "losop@@": 5388,
    "199@@": 4310,
    "essive": 6448,
    "kre@@": 2189,
    "essi@@": 5856,
    "Zeit@@": 5310,
    "sorgung": 4799,
    "ehmen@@": 5467,
    "unwahrscheinlich": 3694,
    "erin": 4022,
    "lüs@@": 6786,
    "führ@@": 1959,
    "entspricht": 3698,
    "Camer@@": 6700,
    "Europ@@": 5965,
    "gew@@": 599,
    "lau@@": 1354,
    "nächste": 3056,
    "sieren": 645,
    "2012": 2670,
    "Kohlen@@": 2520,
    "daran": 924,
    "Bedeut@@": 6672,
    "formuli@@": 3687,
    "ence": 6363,
    "angemessen@@": 3261,
    "mot@@": 6567,
    "systems": 1987,
    "geprägt": 4826,
    "je": 1221,
    "tionsk@@": 4251,
    "intelli@@": 5673,
    "Vermö@@": 5224,
    "wandels": 7201,
    "erseits": 3590,
    "Э@@": 7591,
    "Gaza": 4151,
    "ep@@": 2252,
    "luss": 1329,
    "eben@@": 4104,
    "typ@@": 6611,
    "ledig@@": 7340,
    "super@@": 7334,
    "tritt": 1241,
    "R@@": 168,
    "shal@@": 2616,
    "ernsth@@": 6773,
    "î@@": 7564,
    "unds": 6949,
    "nar@@": 7226,
    "cy": 5950,
    "Fällen": 1985,
    "Chur@@": 6101,
    "Männer": 2621,
    "Innov@@": 5820,
    "werte": 4502,
    "adi@@": 3068,
    "ständnis": 6565,
    "ur@@": 286,
    "hingegen": 4754,
    "oni@@": 709,
    "au": 3193,
    "störung": 4476,
    "In": 4661,
    "seln": 2834,
    "schriften": 4878,
    "ologie": 2405,
    "kleine": 2597,
    "spap@@": 6848,
    "eh": 6364,
    "eting": 6681,
    "proz@@": 4154,
    "enz@@": 2126,
    "is": 860,
    "initi@@": 6217,
    "m@@": 133,
    "dürf@@": 5602,
    "Obamas": 2889,
    "ğ@@": 7547,
    "bekannt": 1787,
    "schen@@": 1584,
    "form@@": 1907,
    "gebung": 4589,
    "Partner@@": 5024,
    "trotz@@": 6932,
    "real": 5937,
    "ret@@": 3369,
    "Erwartungen": 3572,
    "kamp@@": 4844,
    "ak@@": 302,
    "ari@@": 603,
    "Schuld": 4219,
    "zogen": 2238,
    "noch": 82,
    "vili@@": 6306,
    "co@@": 5232,
    "rise": 5070,
    "vul@@": 7168,
    "ambi@@": 6203,
    "bia": 6620,
    "tou@@": 7276,
    "wirk@@": 743,
    "line": 5737,
    "bedroht": 4759,
    "atisti@@": 5370,
    "ce@@": 6940,
    "Geschäf@@": 5666,
    "Armee": 2595,
    "kräften": 3808,
    "reform": 4916,
    "Enga@@": 6391,
    "fälle": 2483,
    "rä@@": 825,
    "鋒@@": 7571,
    "ren@@": 2007,
    "ährung": 4797,
    "ute": 3939,
    "antwor@@": 3965,
    "Drittel": 2711,
    "bislang": 3975,
    "tex@@": 6166,
    "play": 7279,
    "prin@@": 5322,
    "siert": 772,
    "zweite": 2046,
    "ken@@": 1872,
    "Oper@@": 5156,
    "staatlicher": 3867,
    "our": 5270,
    "scher": 193,
    "dy": 6062,
    "Brüssel": 4620,
    "к@@": 4393,
    "akzeptieren": 2847,
    "durch": 58,
    "ł@@": 7180,
    "gegensei@@": 3067,
    "sehen": 606,
    "eingeschrän@@": 3880,
    "grafi@@": 4238,
    "senken": 2489,
    "täts@@": 2679,
    "gezogen": 3544,
    "nungs@@": 1845,
    "Rahmen": 1112,
    "Entwicklungsländer": 1769,
    "sidenten": 3126,
    "est": 4319,
    "rei@@": 319,
    "eines": 129,
    "strebt": 4290,
    "Hum@@": 4855,
    "beginn@@": 4715,
    "nam": 7248,
    "i@@": 173,
    "Japan@@": 5634,
    "op": 7504,
    "selbst@@": 4004,
    "2016": 5375,
    "desto": 4255,
    "engen": 5008,
    "ven@@": 2751,
    "relative": 6215,
    "viele": 190,
    "jun@@": 6377,
    "Regierung@@": 5572,
    "Wissen@@": 4628,
    "funktioniert": 3287,
    "are@@": 5924,
    "bi": 6669,
    "äl@@": 854,
    "Bil@@": 1568,
    "investieren": 2383,
    "kro@@": 4389,
    "patri@@": 6334,
    "Sache": 2806,
    "sky": 6419,
    "defini@@": 5417,
    "re@@": 162,
    "scho@@": 3105,
    "fare": 7444,
    "schlag": 2514,
    "K@@": 88,
    "via": 7075,
    "Chri@@": 4412,
    "at": 664,
    "Anhän@@": 6294,
    "no": 6833,
    "reagieren": 2591,
    "folgte": 4590,
    "zone": 5386,
    "Stra@@": 1738,
    "Form": 1140,
    "ø@@": 7563,
    "schwäch@@": 2413,
    "japanische": 3784,
    "Innovationen": 3979,
    "deri@@": 6750,
    "nten": 1607,
    "Schicks@@": 6777,
    "Wettbewer@@": 5640,
    "In@@": 281,
    "NG@@": 5747,
    "ods": 6143,
    "fami@@": 6150,
    "194@@": 3205,
    "sichtlich": 5201,
    "potenzi@@": 1182,
    "will@@": 3621,
    "life": 7505,
    "hen@@": 5482,
    "lungen": 1119,
    "ε@@": 7561,
    "ti@@": 171,
    "с@@": 3415,
    "herrsch@@": 2200,
    "PP": 5776,
    "Le": 5628,
    "dabei": 359,
    "derartiger": 4736,
    "legen": 595,
    "France": 6996,
    "esp@@": 6054,
    "tief": 3269,
    "sup@@": 6574,
    "Energi@@": 989,
    "sport": 5890,
    "Bre@@": 5919,
    "Fatah": 5873,
    "C": 1508,
    "äre": 885,
    "strukturel@@": 3574,
    "ft": 311,
    "Palästin@@": 2410,
    "stehende": 2359,
    "erhöh@@": 2143,
    "fa@@": 1954,
    "wan": 6999,
    "entwick@@": 5836,
    "wind": 6556,
    "Princeton": 5887,
    "gesam@@": 5007,
    "geraten": 3241,
    "ining": 7023,
    "einzige": 1189,
    "10": 1411,
    "Fern@@": 3034,
    "Schlüssel@@": 4258,
    "bare": 841,
    "solange": 3191,
    "teilen": 1307,
    "kes@@": 7065,
    "mittlerweile": 4071,
    "Preis@@": 1497,
    "wachsende": 2478,
    "wendung": 1678,
    "Namen": 3402,
    ",": 4,
    "Parteien": 1048,
    "anhaltende": 4659,
    "tete": 483,
    "zige": 4728,
    "behaup@@": 5521,
    "drück@@": 1689,
    "ys": 3330,
    "keiten": 5699,
    "geschaffen": 2524,
    "tende": 3152,
    "Bildung": 1337,
    "ado@@": 6001,
    "humanit@@": 4508,
    "vez": 6519,
    "las@@": 941,
    "nö@@": 2563,
    "besondere": 5562,
    "natür@@": 2330,
    "dürften": 4809,
    "ter@@": 241,
    "sind": 40,
    "zusam@@": 6635,
    "weil": 301,
    "sicher": 1277,
    "mor@@": 2070,
    "lit@@": 1274,
    "ju@@": 5315,
    "alem": 3995,
    "Szen@@": 3176,
    "Jan@@": 6542,
    "grund@@": 3147,
    "Terroristen": 3295,
    "May": 7028,
    "tä@@": 740,
    "schlim@@": 6132,
    "darf": 1994,
    "stellungen": 4068,
    "lig": 4228,
    "reti@@": 5754,
    "bestimmen": 4528,
    "any": 7026,
    "etwas": 557,
    "regional": 7102,
    "wider@@": 881,
    "simi@@": 6157,
    "Sor@@": 6506,
    "25": 1826,
    "ausgesetzt": 2765,
    "ehi@@": 6938,
    "Vol@@": 2368,
    "Libyen": 3954,
    "ya": 6118,
    "te": 44,
    "ś@@": 7562,
    "human@@": 6820,
    "organis@@": 5034,
    "des@@": 4105,
    "Dynamik": 3770,
    "fe@@": 2202,
    "gnisse": 5266,
    "vermutlich": 2960,
    "fung": 973,
    "7@@": 1474,
    "Partner": 3387,
    "enen": 923,
    "adi": 7450,
    "partner": 6926,
    "wirklich": 1024,
    "gn@@": 4608,
    "hohen": 1191,
    "Leistungs@@": 5342,
    "Menschenrechts@@": 3628,
    "ata": 6467,
    "aria": 6164,
    "Dollar": 264,
    "zusätz@@": 3620,
    "zurück@@": 529,
    "trieben": 1807,
    "prosp@@": 7119,
    "ham@@": 6170,
    "größ@@": 1732,
    "stration": 5648,
    "G": 2041,
    "Tages@@": 4296,
    "Keynes": 5351,
    "Front": 4871,
    "hä@@": 4048,
    "tran@@": 5967,
    "dieses": 276,
    "sell": 6925,
    "assung": 4529,
    "herrscht": 3120,
    "dru@@": 2691,
    "Umgang": 4595,
    "75": 5406,
    "back": 6513,
    "seine": 131,
    "meisten": 375,
    "stände": 1975,
    "sym@@": 6704,
    "initiative": 7253,
    "tem@@": 6102,
    "wirtschaft": 1704,
    "鰊@@": 7570,
    "Griechenland": 932,
    "sichts": 7185,
    "it": 3637,
    "zer@@": 1250,
    "gungen": 1883,
    "ю": 6857,
    "min@@": 1323,
    "laut": 1456,
    "freilich": 2981,
    "water": 7423,
    "bungen": 3993,
    "ues": 7465,
    "blei@@": 3650,
    "lu@@": 1308,
    "ok": 7135,
    "bereit@@": 3533,
    "õ": 7603,
    "standard": 5152,
    "muli@@": 5366,
    "stell@@": 1344,
    "schwer": 1272,
    "mehr@@": 1431,
    "Tatsache": 879,
    "Grund": 515,
    "go@@": 3727,
    "stör@@": 5118,
    "kaum": 806,
    "Che@@": 2028,
    "Ausgaben": 980,
    "ff@@": 547,
    "loss": 5423,
    "igten": 5192,
    "Mis@@": 1534,
    "Lo@@": 2104,
    "Christi@@": 7092,
    "200@@": 6165,
    "tern@@": 2723,
    "sicherungs@@": 4019,
    "verhin@@": 6407,
    "großer": 1717,
    "He@@": 3668,
    "Wohlstand": 1688,
    "k": 317,
    "rapi@@": 5442,
    "Umfeld": 3582,
    "rhetori@@": 6914,
    "scheinen": 1598,
    "Dienstleistungen": 2043,
    "untergraben": 2662,
    "finanzi@@": 1072,
    "barri@@": 6458,
    "üst@@": 1683,
    "Lösungen": 2411,
    "Zivili@@": 3837,
    "fron@@": 5071,
    "Ergebnisse": 1919,
    "Wissen": 4010,
    "heb@@": 4478,
    "Zahlen": 4615,
    "cht@@": 561,
    "г": 7646,
    "wid@@": 5408,
    "̈": 7649,
    "ump@@": 5117,
    "ends": 6161,
    "X@@": 4788,
    "fer@@": 539,
    "ui": 7275,
    "Res@@": 1437,
    "Ste@@": 5872,
    "ursprüng@@": 3325,
    "ary": 6696,
    "fäl@@": 1022,
    "Wirk@@": 5216,
    "Kom@@": 931,
    "Ziel@@": 4135,
    "vi@@": 477,
    "völlig": 2109,
    "prot@@": 6080,
    "nor@@": 3783,
    "X": 6977,
    "zügi@@": 4248,
    "Japans": 2286,
    "timi@@": 5609,
    "à": 6764,
    "Faktoren": 2370,
    "Wasser": 3014,
    "zusammen@@": 816,
    "größte": 1218,
    "Problems": 4616,
    "gestiegen": 2934,
    "staatliche": 1444,
    "Sou@@": 6897,
    "Ur@@": 793,
    "bedarf": 1934,
    "dep@@": 7345,
    "pet@@": 3144,
    "eigen@@": 2407,
    "fini@@": 5674,
    "fel@@": 3360,
    "autonom@@": 6683,
    "Subventionen": 4035,
    "freien": 1644,
    "usual": 7169,
    "erheb@@": 3558,
    "sensus": 6575,
    "gmati@@": 6149,
    "gegenwärtigen": 2716,
    "palästinensischen": 2673,
    "voll": 1806,
    "innen": 3684,
    "pass@@": 6104,
    "Bill": 5694,
    "wenden": 1288,
    "ös@@": 2244,
    "yer": 6688,
    "and@@": 519,
    "tung": 257,
    "Aufmerksamkeit": 1974,
    "ladi@@": 6864,
    "unterschiedliche": 3866,
    "ligi@@": 7438,
    "ständigen": 3317,
    "Gs": 6753,
    "Ok@@": 6964,
    "lipp@@": 6718,
    "gi@@": 312,
    "tests": 6717,
    "<unk>": 1,
    "Zins@@": 1983,
    "Tro@@": 4962,
    "Gegenteil": 2634,
    "sowje@@": 3161,
    "Wes@@": 4594,
    "beschränkt": 3580,
    "amerika": 5682,
    "globale": 602,
    "bens@@": 5974,
    "cor@@": 7126,
    "schläge": 1433,
    "hen": 577,
    "spo@@": 7132,
    "Lohn@@": 3700,
    "遲": 7627,
    "beding@@": 3447,
    "Chanc@@": 6572,
    "ges": 869,
    "terung": 2827,
    "bas@@": 6526,
    "lei@@": 418,
    "lück@@": 2738,
    "thro@@": 6563,
    "ändern": 1690,
    "ja": 2036,
    "Terror": 4850,
    "verschiedenen": 2343,
    "Partei@@": 3800,
    "fig@@": 6042,
    "tiv@@": 4819,
    "exten@@": 7474,
    "oritäten": 4688,
    "private": 1962,
    "Absch@@": 2287,
    "tigungs@@": 5863,
    "derartige": 835,
    "Washing@@": 6825,
    "pe@@": 2374,
    "steuern": 3554,
    "gewähr@@": 3057,
    "Federal": 3680,
    "Druck": 1005,
    "Muslime": 3583,
    "behör@@": 7291,
    "Gü@@": 5197,
    "indischen": 4254,
    "ua": 6651,
    "erste": 1021,
    "trifft": 4749,
    "nation@@": 5476,
    "bestand": 3743,
    "Kol@@": 1348,
    "Spiel@@": 2450,
    "stattdessen": 1961,
    "spricht": 3284,
    "dagegen": 2196,
    "gewinnen": 1640,
    "Frankreich": 662,
    "dal@@": 6973,
    "füh@@": 3659,
    "tell": 7099,
    "Saudi": 2071,
    "wa": 5822,
    "inte@@": 6547,
    "achten": 4034,
    "Ereignisse": 3431,
    "Kon@@": 321,
    "lichte": 3930,
    "man@@": 953,
    "deren": 424,
    "aya": 6942,
    "indem": 451,
    "hi@@": 1069,
    "nis": 1356,
    "treter": 5277,
    "Bank": 1190,
    "boli@@": 6941,
    "Joh@@": 5850,
    "abgesch@@": 4760,
    "erst": 714,
    "kleinen": 2600,
    "aro@@": 5676,
    "sor@@": 779,
    "märkten": 1951,
    "ingt": 2580,
    "bevorzu@@": 4883,
    "perf@@": 5558,
    "EU": 153,
    "ächlich": 6482,
    "dische": 3602,
    "Religion": 4647,
    "ve": 5016,
    "BIP": 463,
    "jeder": 960,
    "Arbeiter": 4232,
    "ber": 1071,
    "rigi@@": 5637,
    "Kommuni@@": 2267,
    "qui@@": 4969,
    "Bestimmungen": 4746,
    "lern": 2305,
    "erinnern": 4849,
    "vorgesch@@": 2677,
    "Gemein@@": 1546,
    "Atlanti@@": 6013,
    "phi@@": 5855,
    "reiben": 1784,
    "che": 387,
    "Universi@@": 3412,
    "11": 5432,
    "verabschie@@": 4210,
    "Gipf@@": 5107,
    "demokratischen": 1797,
    "Gebiet": 4857,
    "Unterstütz@@": 5394,
    "ang": 690,
    "asing": 7407,
    "einf@@": 1276,
    "bezieh@@": 3040,
    "ini": 6209,
    "kurzfristi@@": 2077,
    "Frieden": 1429,
    "intervention": 7080,
    "le@@": 218,
    "Einwander@@": 2842,
    "ple@@": 5531,
    "Reserve": 3850,
    "unden": 902,
    "ario": 3349,
    "Liber@@": 2178,
    "licherweise": 1708,
    "echnologi@@": 4370,
    "eht": 5064,
    "WF": 6930,
    "ã": 7659,
    "schätz@@": 1623,
    "Unternehmen@@": 5126,
    "Arbeits@@": 726,
    "denten": 6824,
    "zuvor": 2404,
    "plat@@": 4895,
    "Zahl": 1260,
    "Auf@@": 246,
    "wand@@": 1871,
    "gh": 5661,
    "hier@@": 1828,
    "18": 4934,
    "Mon@@": 1362,
    "wächst": 4394,
    "Sau@@": 5497,
    "wahren": 2987,
    "licht": 1211,
    "einsetzen": 4613,
    "geber": 2251,
    "bert": 6588,
    "san@@": 5141,
    "u@@": 249,
    "November": 3032,
    "aller": 640,
    "ation": 383,
    "staatlichen": 1380,
    "Russlands": 1042,
    "fällig": 3990,
    "momentan": 1841,
    "å@@": 7608,
    "Strategien": 1764,
    "cle": 7378,
    "überhaupt": 1637,
    "Steuer@@": 510,
    "top": 7466,
    "angem": 4716,
    "NA@@": 5563,
    "die": 5,
    "Wider@@": 1998,
    "Inform@@": 3535,
    "tren@@": 4706,
    "ech": 6503,
    "Wil@@": 3373,
    "norm@@": 3209,
    "book": 6618,
    "Indonesien": 4276,
    "aus": 49,
    "building": 7483,
    "Staats-": 3822,
    "einander@@": 2684,
    "Einführung": 2237,
    "favor@@": 6854,
    "tweise": 4127,
    "kom@@": 865,
    "my@@": 6665,
    "Atomwaffen": 3703,
    "wehr@@": 3642,
    "ich@@": 1609,
    "ch@@": 160,
    "bur@@": 4904,
    "Vereinbar@@": 2888,
    "stärker": 1125,
    "kani@@": 5506,
    "achtet": 3290,
    "À": 7663,
    "journali@@": 7228,
    "wert@@": 3652,
    "ürz@@": 2661,
    "onen": 1706,
    "Klimawandel": 1393,
    "bl@@": 2395,
    "£": 7543,
    "Union": 601,
    "muss": 207,
    "affen": 7143,
    "ages": 5296,
    "ßnahmen": 7272,
    "gesetz@@": 1325,
    "genau@@": 4755,
    "ß": 872,
    "einkommen": 3729,
    "ior": 7314,
    "früheren": 3334,
    "mechanis@@": 5477,
    "Umsetzung": 2358,
    "dable": 7447,
    "innovation": 7509,
    "Kontin@@": 4854,
    "hafte": 2830,
    "nis@@": 3506,
    "reichen": 580,
    "prim@@": 5895,
    "Konsum": 4193,
    "Buch": 4309,
    "tlich": 1023,
    "kla@@": 3469,
    "ta@@": 671,
    "zäh@@": 1887,
    "Т@@": 7527,
    "mach@@": 5253,
    "behalten": 2867,
    "Med@@": 5502,
    "ausreichend": 3559,
    "unmittel@@": 4002,
    "Ó@@": 7611,
    "extrem@@": 6837,
    "ol": 5458,
    "oz@@": 7171,
    "Erfahrung": 2833,
    "IWF": 812,
    "lam@@": 5698,
    "Stelle": 3030,
    "Russland": 308,
    "zes": 3160,
    "Währungsunion": 3838,
    "ät": 2713,
    "asser": 5720,
    "B": 1981,
    "yne@@": 5830,
    "Zeitpunkt": 2136,
    "land": 703,
    "fik@@": 5144,
    "uri@@": 5714,
    "ush@@": 7096,
    "Kri@@": 2560,
    "Bedrohung": 1397,
    "mittel@@": 1201,
    "views": 6913,
    "Gewal@@": 4941,
    "zen@@": 4999,
    "option": 7172,
    "vel@@": 6509,
    "wo@@": 2353,
    "Liby@@": 6156,
    "2030": 5218,
    "erfolg@@": 1342,
    "Haushal@@": 4856,
    "eher": 945,
    "Wahr@@": 4740,
    "ð@@": 7657,
    "Technologie": 2291,
    "tür@@": 3596,
    "Herrschaft": 3966,
    "fossi@@": 2973,
    "migration": 6335,
    "integration": 7155,
    "Gefüh@@": 5405,
    "ak": 6028,
    "aut": 3487,
    "Nieder@@": 1192,
    "signi@@": 5376,
    "ler@@": 1291,
    "sätze": 2373,
    "verwendet": 3566,
    "Moskau": 4833,
    "Koh@@": 2130,
    "ut@@": 447,
    "starke": 1956,
    "steig@@": 6402,
    "Ordnung": 2205,
    "gegangen": 3168,
    "Washington": 2145,
    "ähi@@": 7237,
    "such": 6858,
    "Gewinne": 3923,
    "sat@@": 3220,
    "Republik": 3617,
    "undes@@": 6950,
    "weile": 7419,
    "ka": 3952,
    "pe": 6499,
    "druck": 2356,
    "zentr@@": 2398,
    "ehemali@@": 5675,
    "sowie": 403,
    "beschäf@@": 2162,
    "Engli@@": 6369,
    "Fehl@@": 3236,
    "Bedürf@@": 3536,
    "Sicherheitsrat": 4531,
    "kürz@@": 3273,
    "hervor": 4085,
    "ra": 5687,
    "banon": 7232,
    "Integration": 1507,
    "ting": 6967,
    "offizi@@": 4447,
    "zip": 6246,
    "Experten": 2994,
    "Gefän@@": 4324,
    "entschei@@": 4463,
    "ausschließlich": 4784,
    "Marktes": 4486,
    "j": 5804,
    "Investitionen": 440,
    "glaubwür@@": 4572,
    "Mach@@": 2959,
    "beizu@@": 2357,
    "去@@": 7639,
    "werfen": 3142,
    "dest": 7514,
    "Gener@@": 5574,
    "ändert": 3206,
    "Mark@@": 3413,
    "wies": 4142,
    "ärkten": 6703,
    "enab@@": 6172,
    "ph@@": 2529,
    "öffentlichen": 582,
    "Al@@": 751,
    "wirksam": 4652,
    "konzentrieren": 2081,
    "ären": 1099,
    "sun@@": 3377,
    "Werte": 1742,
    "swerte": 5864,
    "ces": 6539,
    "Nation": 4038,
    "gten": 954,
    "₂": 7545,
    "bleibt": 711,
    "tent@@": 5715,
    "Lu@@": 1842,
    "60": 2033,
    "under": 5151,
    "ete": 2322,
    "Fiskal@@": 4095,
    "möglich": 921,
    "denen": 267,
    "alized": 7518,
    "handeln": 1515,
    "zen": 663,
    "gleich": 1869,
    "identi@@": 5391,
    "Osten": 858,
    "wan@@": 5364,
    "drei": 486,
    "Bushs": 4858,
    "6": 786,
    "dene": 3039,
    "Senkung": 4147,
    "Welth@@": 4676,
    "Fähigkeiten": 3382,
    "ò": 7605,
    "verbessern": 1414,
    "Bor@@": 5451,
    "Wahl": 1180,
    "Hilfe": 1207,
    "Lat@@": 7053,
    "Qaeda": 6826,
    "entweder": 2619,
    "cro@@": 6173,
    "heiten": 710,
    "Kim": 5132,
    "ch": 391,
    "Gericht": 4260,
    "medi@@": 5368,
    "lich": 206,
    "vermeiden": 2089,
    "Rent@@": 6086,
    "stei@@": 1749,
    "ot@@": 462,
    "ans": 878,
    "Miss@@": 3757,
    "müssen": 149,
    "wal@@": 4968,
    "Weltbank": 1884,
    "bedeut@@": 978,
    "taus@@": 3682,
    "App@@": 5596,
    "Inte@@": 5178,
    "verein@@": 2678,
    "sinken": 4877,
    "Arbeitslosen@@": 4175,
    "fern": 2214,
    "parti@@": 6987,
    "reif@@": 5321,
    "ning": 6970,
    "fragen": 1283,
    "Dialo@@": 3946,
    "woll@@": 4473,
    "Kur@@": 1805,
    "bank@@": 1916,
    "bewegen": 2776,
    "ace": 6856,
    "resol@@": 7277,
    "öpf@@": 4702,
    "verständlich": 5679,
    "Truppen": 2967,
    "Ost@@": 2103,
    "üb@@": 4583,
    "che@@": 6319,
    "systemati@@": 5781,
    "fak@@": 4404,
    "tt": 3986,
    "Betei@@": 6796,
    "bon@@": 6960,
    "ket@@": 4234,
    "tau@@": 4536,
    "niedriger": 3773,
    "Eini@@": 5702,
    "Merkel": 4485,
    "ail@@": 5618,
    "jek@@": 5615,
    "jährigen": 3711,
    "kann": 112,
    "err@@": 1154,
    "Überein@@": 2436,
    "tions": 6562,
    "verstehen": 1893,
    "1,@@": 1359,
    "Con@@": 3956,
    "dessen": 632,
    "sischen": 1817,
    "el": 560,
    "em@@": 454,
    "negativen": 4821,
    "Indiens": 3298,
    "stin@@": 5525,
    "elen": 1347,
    "Projek@@": 5340,
    "gun": 7342,
    "mals": 5040,
    "Se@@": 1745,
    "W": 6366,
    "Ölpreise": 3843,
    "Ide@@": 2314,
    "Flü@@": 5918,
    "sion": 877,
    "Regime": 1385,
    "Frage": 452,
    "ot": 6098,
    "Notwendigkeit": 1850,
    "teil@@": 722,
    "ord@@": 707,
    "derartigen": 3029,
    "−": 6333,
    "jenen": 3293,
    "das": 13,
    "Vene@@": 7128,
    "zei@@": 630,
    "graben": 6501,
    "stoßen": 4443,
    "Flüchtlinge": 2349,
    "abhängig": 2626,
    "flus@@": 4610,
    "Mom@@": 6494,
    "000": 3704,
    "smo@@": 6625,
    "dar": 1541,
    "11.": 4681,
    "Amt": 2654,
    "outs": 7120,
    "mul@@": 7283,
    "begrün@@": 3847,
    "glichen": 1726,
    "ession": 6738,
    "beste": 3049,
    "Bekämpfung": 2500,
    "Einsatz": 1886,
    "dou@@": 7046,
    "kün@@": 1017,
    "°": 6594,
    "0er": 1033,
    "geschä@@": 3087,
    "Städte": 3733,
    "serv@@": 5400,
    "он@@": 6415,
    "Imp@@": 2464,
    "Bern@@": 5741,
    "0.@@": 7029,
    "iland": 6437,
    "infolgedessen": 3675,
    "sh": 6214,
    "&apos;": 2401,
    "2000": 2433,
    "inzwischen": 1511,
    "ads": 5652,
    "arm": 5870,
    "Herausforder@@": 6885,
    "Führer": 1662,
    "gingen": 3854,
    "Fo@@": 3279,
    "stor@@": 6017,
    "鋍@@": 7556,
    "weiterhin": 638,
    "right": 7017,
    "uss": 1204,
    "Führungs@@": 1505,
    "ls": 1591,
    "Öl": 2187,
    "bau": 1560,
    "tar@@": 6067,
    "hauptsächlich": 3066,
    "Parlament": 2253,
    "konnten": 1702,
    "Inflations@@": 2248,
    "ul": 6534,
    "apital": 5710,
    "Verbraucher": 3678,
    "set": 6860,
    "Hamas": 2061,
    "Au@@": 898,
    "ücksich@@": 6181,
    "vität": 1613,
    "flu@@": 3018,
    "Mah@@": 4853,
    "Konflikte": 2561,
    "gangs": 4557,
    "Angst": 1517,
    "Initiative": 2849,
    "ne": 576,
    "set@@": 6510,
    "permanent": 7104,
    "gegenwär@@": 6882,
    "2011": 2545,
    "Zusammen@@": 1755,
    "¥": 7497,
    "bai@@": 6589,
    "eller": 1016,
    "Zwi@@": 6656,
    "ories": 7390,
    "Agen@@": 6508,
    "end@@": 1559,
    "eim@@": 6229,
    "überzeu@@": 4326,
    "ktat@@": 6446,
    "le": 291,
    "üro@@": 5440,
    "Nachbar@@": 4375,
    "bewer@@": 1800,
    "tempor@@": 6612,
    "2002": 4223,
    "gem@@": 1592,
    "Energie@@": 1459,
    "gungs@@": 4479,
    "Sen@@": 1999,
    "tor": 2680,
    "quote": 2256,
    "dren": 7477,
    "he@@": 636,
    "Projekt": 4320,
    "Politi@@": 4964,
    "Ad@@": 5431,
    "lien@@": 3960,
    "kin@@": 5452,
    "stag@@": 5220,
    "vitäts@@": 6767,
    "geh@@": 588,
    "verantwortlich": 1931,
    "ih@@": 6851,
    "Deut@@": 3903,
    "ers": 1018,
    "neue": 243,
    "ig@@": 969,
    "strategischen": 3539,
    "wachsen@@": 3816,
    "mis@@": 1834,
    "zent@@": 1986,
    "netz@@": 4448,
    "schefs": 6385,
    "Regierungs@@": 974,
    "hö@@": 6004,
    "Folge": 1625,
    "Eigen@@": 1410,
    "Woche": 3796,
    "ermöglichen": 1777,
    "usi@@": 6452,
    "franzö@@": 5816,
    "aci@@": 6842,
    "Ausmaß": 1630,
    "lie@@": 461,
    "ï@@": 7535,
    "dient": 2644,
    "Kamp@@": 3829,
    "steigenden": 3555,
    "1991": 5353,
    "schafts@@": 2812,
    "sei": 579,
    "zus@@": 1556,
    "cial": 6760,
    "bin": 2613,
    "wech@@": 2117,
    "be": 472,
    "Wiederauf@@": 3351,
    "sam": 4330,
    "selten": 4431,
    "pp@@": 2468,
    "Li@@": 1082,
    "relati@@": 6831,
    "Freiheit": 1588,
    "Bereich": 801,
    "鋖@@": 7586,
    "simple": 6730,
    "sistance": 7221,
    "Anrei@@": 3771,
    "w@@": 200,
    "jede": 1463,
    "Krank@@": 5105,
    "Untern@@": 3374,
    "Rück@@": 725,
    "bene": 5043,
    "erklären": 2567,
    "zahlreiche": 4775,
    "uns@@": 6889,
    "-": 15,
    "früher": 2699,
    "Fol@@": 4699,
    "heute": 252,
    "195@@": 4311,
    "fte": 1199,
    "ehmer": 4131,
    "arabischen": 1491,
    "É": 7582,
    "Kosten": 508,
    "gleich@@": 940,
    "Israelis": 4275,
    "ück@@": 1212,
    "Schwei@@": 3616,
    "chang@@": 7347,
    "stand": 525,
    "II": 6117,
    "fahr@@": 1519,
    "2.@@": 5644,
    "hr": 4020,
    "в": 6245,
    "E@@": 169,
    "atastrophe": 6722,
    "ws": 5592,
    "di@@": 296,
    "bers": 6792,
    "Mor@@": 2129,
    "Sin@@": 6223,
    "Erdoğan": 6030,
    "republi@@": 3540,
    "entr@@": 5349,
    "Portugal": 5257,
    "länder": 1176,
    "Dollars": 4185,
    "spiri@@": 5251,
    "Merk@@": 5025,
    "c": 1751,
    "mismus": 3127,
    "Mexi@@": 5941,
    "schwung": 2737,
    "uner@@": 2629,
    "rat@@": 5845,
    "Bl@@": 3299,
    "Monetary": 7453,
    "Russen": 3744,
    "rus": 5504,
    "jet@@": 6412,
    "ermöglicht": 2872,
    "els": 2559,
    "Netz@@": 3062,
    "Bud@@": 5190,
    "Staaten": 285,
    "hoffen": 3408,
    "essen": 1044,
    "fällt": 2674,
    "gin@@": 5876,
    "labor": 7507,
    "Car@@": 4245,
    "ll": 5262,
    "Wert": 918,
    "wissenschaftlichen": 4313,
    "Gesamt@@": 2377,
    "Krä@@": 5642,
    "ong@@": 6628,
    "Her@@": 780,
    "volle": 2283,
    "kra@@": 3164,
    "äch@@": 1040,
    "soli@@": 2467,
    "erzeu@@": 2950,
    "servi@@": 7059,
    "müsste": 3507,
    "yle": 7357,
    "ç@@": 6182,
    "sama": 6473,
    "psych@@": 4331,
    "ty@@": 6561,
    "­": 7167,
    "gelegt": 1866,
    "griech@@": 4418,
    "großen": 458,
    "üche": 2986,
    "esen": 1581,
    "Initi@@": 7321,
    "hat": 47,
    "grenz@@": 2016,
    "vier": 1235,
    "та@@": 6702,
    "gnis": 3258,
    "apazitäten": 3171,
    "п": 7588,
    "zü@@": 2108,
    "typi@@": 5344,
    "Besch@@": 4383,
    "Venezuela": 5464,
    "Zi@@": 3225,
    "Tim@@": 5731,
    "Macht": 382,
    "Pa@@": 4037,
    "skepti@@": 5908,
    "Gesetz": 2403,
    "bildung": 3084,
    "stitu@@": 4777,
    "go": 5130,
    "niemals": 3940,
    "diger": 3898,
    "Maße": 4273,
    "asses": 6540,
    "Forschung": 1945,
    "change": 6959,
    "Währ@@": 6008,
    "onds": 5923,
    "so@@": 578,
    "read@@": 7388,
    "egal": 3789,
    "vergangen@@": 6050,
    "Cor@@": 5454,
    "gestellt": 689,
    "neuer": 1492,
    "anzen": 1551,
    "lers": 6158,
    "organisation": 4779,
    "beein@@": 2886,
    "wichtig": 1224,
    "Fin@@": 5446,
    "Vereinten": 1816,
    "Lie@@": 2905,
    "enge": 5221,
    "heu@@": 3314,
    "Or@@": 1733,
    "viron@@": 7325,
    "Parlament@@": 3885,
    "leider": 2331,
    "Platz": 2532,
    "erwar@@": 3614,
    "einigen": 1115,
    "automati@@": 5214,
    "sätz@@": 4284,
    "stan": 6800,
    "Konkurren@@": 4617,
    "Kinder@@": 4123,
    "gend": 844,
    "Fl@@": 4887,
    "Anpass@@": 4027,
    "tem": 1576,
    "dungs@@": 2325,
    "vernünf@@": 2767,
    "Fest@@": 4380,
    "du@@": 2084,
    "feld": 3786,
    "einiger": 4130,
    "ols": 6892,
    "Jahrzehnt": 2014,
    "nahezu": 3870,
    "sicherheit": 4069,
    "entwickelte": 4369,
    "Ser@@": 5051,
    "dennoch": 1171,
    "benen": 2614,
    "ен@@": 5966,
    "Fortschritte": 1583,
    "palästinen@@": 4202,
    "alität": 1600,
    "arabische": 4374,
    "Jahrzehnten": 1499,
    "dialo@@": 7159,
    "stak@@": 7035,
    "mili@@": 7039,
    "stärkt": 6023,
    "Köni@@": 5291,
    "europäische": 798,
    "beruht": 3201,
    "ance": 3677,
    "stra@@": 843,
    "sible": 6663,
    "air@@": 5255,
    "Jean": 5905,
    "ins": 581,
    "nie@@": 6106,
    "twen@@": 6876,
    "genau": 718,
    "lität": 2166,
    "zählen": 3950,
    "militärische": 1932,
    "hätte": 546,
    "st": 164,
    "problem": 5079,
    "com@@": 6839,
    "schwächen": 4800,
    "gesellschaft@@": 2423,
    "insbesondere": 497,
    "dere": 4592,
    "Generationen": 4379,
    "klär@@": 3845,
    "Sarkozy": 4171,
    "Bur@@": 5713,
    "Meinungs@@": 4468,
    "ent@@": 124,
    "technologi@@": 1812,
    "nat@@": 6196,
    "gewöhnlich": 4292,
    "Wäh@@": 3122,
    "dings": 6919,
    "strukturi@@": 2988,
    "schrän@@": 3115,
    "bewaff@@": 4215,
    "kun@@": 1699,
    "tet@@": 6131,
    "verteilung": 4015,
    "mali@@": 6216,
    "f@@": 90,
    "tra": 6535,
    "Immobilien@@": 3101,
    "Rett@@": 3307,
    "gend@@": 2602,
    "vier@@": 3491,
    "Bemüh@@": 5788,
    "letz@@": 1340,
    "zudem": 797,
    "ena": 6758,
    "steigern": 2983,
    "bende": 3603,
    "medizini@@": 3077,
    "kos": 5159,
    "+": 6529,
    "wi@@": 585,
    "Flüchtlin@@": 5096,
    "digkeit": 4451,
    "zunehmend": 927,
    "entgegen@@": 2936,
    "fangen": 2308,
    "ko": 3223,
    "stütz@@": 3418,
    "verbun@@": 3705,
    "Priv@@": 3735,
    "Monaten": 2235,
    "industri@@": 3542,
    "Thailand": 5857,
    "September": 1756,
    "unser@@": 2714,
    "plan": 5793,
    "-@@": 1081,
    "geln": 1707,
    "mark": 7284,
    "quanti@@": 6968,
    "wohl": 912,
    "IC@@": 4770,
    "Zer@@": 2242,
    "Lebens@@": 963,
    "Mc@@": 5081,
    "Nahen": 1102,
    "Trade": 6752,
    "efs": 6606,
    "ö@@": 255,
    "</s>": 3,
    "führt": 776,
    "aktuellen": 1303,
    "internationale": 558,
    "Klim@@": 3679,
    "immer": 179,
    "kil@@": 7043,
    "Phi@@": 4930,
    "fahren": 1718,
    "Gu@@": 2102,
    "zehn": 997,
    "ist": 14,
    "utz": 6798,
    "Rei@@": 723,
    "Hö@@": 3244,
    "macht": 620,
    "passiert": 4525,
    "außerhalb": 2259,
    "zahl@@": 1757,
    "mm@@": 984,
    "ther@@": 6039,
    "sigkeit": 6705,
    "ante": 3626,
    "ische": 1331,
    "Mao": 6047,
    "jedem": 2170,
    "res@@": 2211,
    "tion@@": 1155,
    "Grund@@": 871,
    "kenn@@": 2392,
    "opo@@": 5435,
    "uro@@": 5751,
    "transatlanti@@": 5831,
    "Schw@@": 1205,
    "amas": 7088,
    "Produkte": 3340,
    "wat@@": 6845,
    "Pot@@": 6812,
    "einander": 1318,
    "bot@@": 5226,
    "C@@": 251,
    "nationali@@": 3919,
    "Rahmen@@": 3242,
    "bat@@": 6076,
    "Billionen": 2243,
    "divi@@": 7084,
    "deut@@": 1364,
    "Kore@@": 6495,
    "Leistung": 4172,
    "risi@@": 3892,
    "Antwor@@": 5842,
    "50": 904,
    "umzusetzen": 4112,
    "Tai@@": 6272,
    "demi@@": 4421,
    "manchen": 4227,
    "enth@@": 1952,
    "Schwellen@@": 3699,
    "Konsu@@": 3388,
    "wurden": 222,
    "tie@@": 4340,
    "fort@@": 1912,
    "Zw@@": 1692,
    "demographi@@": 6365,
    "Präsidentschaft": 4832,
    "ders": 5680,
    "Religi@@": 5517,
    "dies": 117,
    "U@@": 1041,
    "Republikaner": 4356,
    "brauchen": 1236,
    "Vertrag": 3003,
    "vice": 7000,
    "bus@@": 7448,
    "ene": 1716,
    "verstärk@@": 4875,
    "kehr": 4189,
    "ession@@": 6069,
    "eign": 7141,
    "supp@@": 7428,
    "†": 7643,
    "stie@@": 2488,
    "angem@@": 5469,
    "zugr@@": 6518,
    "Ober@@": 2075,
    "liches": 782,
    "ero@@": 6772,
    "Wahrschein@@": 7049,
    "Ph@@": 5509,
    "mmungen": 6278,
    "wie": 39,
    "möchte": 3391,
    "hist@@": 5660,
    "Industri@@": 2622,
    "Cha@@": 6179,
    "ste": 227,
    "glauben": 1330,
    "ere@@": 4191,
    "Mann": 3227,
    "präsent@@": 4731,
    "krisen": 4804,
    "addi@@": 7410,
    "sischer": 2736,
    "Zuge": 4498,
    "will": 1571,
    "nen@@": 1210,
    "(": 75,
    "leihen": 4694,
    "nahe": 2507,
    "ferenz": 5084,
    "Sah@@": 5721,
    "kommt": 672,
    "Militär@@": 1026,
    "fest@@": 719,
    "Sei@@": 6305,
    "Dinge": 2197,
    "Sie@@": 2484,
    "Realität": 2451,
    "Refor@@": 5256,
    "ern": 152,
    "ury": 7384,
    "emp@@": 1127,
    "halt": 2836,
    "Jer@@": 5633,
    "uro": 7359,
    "tl@@": 2688,
    "Ö": 7567,
    "Char@@": 2221,
    "einfach": 609,
    "Gesellschaften": 2106,
    "Xi": 5985,
    "brechen": 2134,
    "del": 5774,
    "zer": 5473,
    "Souverän@@": 6908,
    "Strategie": 892,
    "Unsicherheit": 3004,
    "besten": 1831,
    "wer": 1502,
    "к": 7114,
    "merz@@": 7020,
    "arch": 6514,
    "Anspruch": 4471,
    "erzielt": 4450,
    "ts@@": 338,
    "ken": 292,
    "18@@": 2749,
    "erie": 3422,
    "versi@@": 5033,
    "clear": 7259,
    "esses": 3920,
    "ließen": 2549,
    "wählen": 4705,
    "Po@@": 1552,
    "Landes": 392,
    "gesamten": 1776,
    "rechten": 4144,
    "weis": 3282,
    "sing": 7431,
    "problems": 6891,
    "16@@": 5455,
    "Was@@": 7349,
    "mt": 2479,
    "Bla@@": 6634,
    "est@@": 1370,
    "essen@@": 3192,
    "materi@@": 5448,
    "son@@": 2380,
    "schied": 5245,
    "sische": 1759,
    "Forderungen": 3266,
    "ere": 258,
    "drängt": 4268,
    "fund@@": 7124,
    "unger": 3586,
    "wel@@": 987,
    "Mul@@": 5059,
    "get@@": 3752,
    "Krisen": 3195,
    "Gi@@": 5186,
    "lec@@": 6880,
    "ein": 27,
    "alt": 3061,
    "fassen": 4574,
    "ignor@@": 7440,
    "lä@@": 3249,
    "Schuld@@": 2748,
    "º@@": 7095,
    "1994": 5821,
    "ness": 6323,
    "2003": 3537,
    "imple@@": 7439,
    "Vermögen@@": 2441,
    "genheit": 3819,
    "barer": 2526,
    "fo@@": 5755,
    "führende": 2804,
    "up@@": 3958,
    "lan@@": 1531,
    "197@@": 1440,
    "Kommunismus": 4598,
    "Kredi@@": 1896,
    "redu@@": 3807,
    "ku@@": 2610,
    "urities": 7033,
    "denken": 1195,
    "Jour@@": 6188,
    "hil@@": 2898,
    "eci@@": 7446,
    "Ch@@": 2044,
    "günsti@@": 3696,
    "zur@@": 3433,
    "у@@": 5530,
    "greif@@": 2190,
    "griff": 3095,
    "spit@@": 6353,
    "anhalten@@": 3060,
    "siden@@": 5753,
    "Reihe": 1793,
    "Brexit": 3322,
    "Woh@@": 1675,
    "deb@@": 5745,
    "Struktur@@": 3296,
    "Immobili@@": 6980,
    "rates": 5001,
    "bot": 1658,
    "herr@@": 2281,
    "staatlichkeit": 4504,
    "ek": 6720,
    "ell@@": 1490,
    "openha@@": 7036,
    "30": 1293,
    "bo@@": 1394,
    "hin@@": 397,
    "from": 7473,
    "eben": 3013,
    "behaupten": 2769,
    "Eli@@": 3813,
    "swer@@": 3143,
    "helfen": 1001,
    "om@@": 493,
    "Arbeitsplätzen": 4361,
    "Ägypten": 1930,
    "Sicherheits@@": 666,
    "rek@@": 6051,
    "findet": 2901,
    "überzeugt": 4177,
    "übersch@@": 1164,
    "10@@": 5335,
    "Bedenken": 4564,
    "Regier@@": 7112,
    "Beam@@": 3670,
    "Ebola": 5852,
    "л@@": 5385,
    "University": 5897,
    "â@@": 7610,
    "ligen": 1750,
    "ме@@": 6781,
    "ow@@": 6485,
    "weden": 5172,
    "ency": 7254,
    "≤": 7641,
    "Reform": 2633,
    "•": 6998,
    "sp@@": 284,
    "slow@@": 6601,
    "realen": 3483,
    "verb@@": 1469,
    "Sozi@@": 2947,
    "argument": 6961,
    "gering": 4510,
    "aliforni@@": 5470,
    "schlimmer": 3378,
    "Bevölkerung": 739,
    "B@@": 113,
    "heißt": 2234,
    "steht": 436,
    "Engagement": 3267,
    "Schwierigkeiten": 2092,
    "Landwirtschaft": 3841,
    "ökonomischen": 3416,
    "tom@@": 5557,
    "pat@@": 6521,
    "peace": 7366,
    "Ausnahme": 4079,
    "Fre@@": 1918,
    "plau@@": 6040,
    "fundament@@": 5483,
    "shing": 7223,
    "po@@": 1290,
    "bio@@": 5450,
    "spruch": 4947,
    "beit": 6855,
    "ädchen": 7200,
    "Kin@@": 2796,
    "produ@@": 1503,
    "breitung": 6099,
    "Konsequ@@": 6610,
    "abi@@": 4483,
    "angesichts": 421,
    "seh@@": 1573,
    "Staatsanleihen": 2968,
    "ä": 7566,
    "agen": 4076,
    "akzep@@": 2902,
    "wirtschaftlichen": 410,
    "lah": 5005,
    "~": 7665,
    "international": 5205,
    "Sit@@": 2476,
    "Par@@": 1352,
    "beträch@@": 2885,
    "Land": 194,
    "Maßnahmen": 434,
    "entwickeln": 1292,
    "spiel@@": 1772,
    "potential": 7433,
    "sch@@": 64,
    "ständige": 3844,
    "Japan": 496,
    "T": 2496,
    "stro@@": 6417,
    "weltweite": 2477,
    "sehr": 372,
    "Security": 6843,
    "konkur@@": 4527,
    "ament": 5331,
    "en@@": 85,
    "Opfer": 2059,
    "bon": 7085,
    "ffizienz": 4696,
    "х@@": 7054,
    "Juden": 4793,
    "ap@@": 1169,
    "rate": 1596,
    "gezeigt": 2457,
    "Stim@@": 3571,
    "kul@@": 1648,
    "alten": 770,
    "Produktivitäts@@": 3978,
    "zentrale": 3113,
    "Hälfte": 1441,
    "lich@@": 658,
    "ж": 7589,
    "part": 6644,
    "voraus@@": 3565,
    "ett@@": 2706,
    "weiger@@": 3925,
    "Nutzen": 1804,
    "viel": 283,
    "kraten": 3274,
    "haften": 2803,
    "Jah@@": 2772,
    "sa@@": 2663,
    "stoff@@": 1740,
    "darüber": 545,
    "har@@": 845,
    "ел@@": 6476,
    "preise": 1747,
    "黮@@": 7619,
    "dige": 2153,
    "fragi@@": 6171,
    "stri@@": 1172,
    "wandel@@": 3010,
    "Stärkung": 3915,
    "S": 1575,
    "glau@@": 1773,
    "ther": 6286,
    "Kindern": 3091,
    "Regulierung": 3042,
    "prochen": 5355,
    "schaft": 485,
    "destabili@@": 5586,
    "nete": 1317,
    "met@@": 6324,
    "tleren": 3229,
    "ali@@": 333,
    "ki": 5957,
    "solcher": 3927,
    "ktu@@": 5265,
    "gar@@": 1715,
    "tika": 5771,
    "plötz@@": 3505,
    "chts@@": 3790,
    "wis@@": 5668,
    "glie@@": 4419,
    "Zukunft": 554,
    "o": 254,
    "sphäre": 4113,
    "Waffen": 2462,
    "tors": 4299,
    "nomin@@": 5782,
    "a": 217,
    "budgets": 6739,
    "ution": 5646,
    "elt": 479,
    "wenig": 605,
    "defin@@": 3811,
    "sä@@": 2556,
    "Friedens@@": 1597,
    "ф@@": 7072,
    "‎": 7587,
    "ausländi@@": 5227,
    "Einfl@@": 4679,
    "ask": 7486,
    "Sy@@": 3149,
    "Amts@@": 4747,
    "15@@": 5678,
    "unser": 2110,
    "treffen": 1271,
    "pri@@": 3634,
    "invest@@": 6905,
    "business": 7260,
    "größten": 946,
    "Wasser@@": 2604,
    "ersten": 654,
    "ams": 5445,
    "lebens@@": 3111,
    "ue": 5760,
    "lie": 6411,
    "kraft": 1562,
    "Muslim": 6899,
    "24": 5695,
    "orie": 4928,
    "sprechen": 1367,
    "国@@": 7638,
    "Pati@@": 6331,
    "Todes@@": 2431,
    "Streit@@": 3720,
    "Mal": 1450,
    "Annahme": 3441,
    "Verpflichtungen": 3849,
    "akti@@": 1796,
    "uli@@": 5343,
    "nachhal@@": 1449,
    "eigenen": 501,
    "Staat@@": 2542,
    "Teilen": 2204,
    "äts@@": 2843,
    "bark@@": 6670,
    "Königreich": 3243,
    "refor@@": 4709,
    "volution@@": 5844,
    "Verständnis": 3858,
    "Fir@@": 5087,
    "I": 3033,
    "rel@@": 3708,
    "Büro@@": 3190,
    "d": 253,
    "schlimm@@": 3343,
    "mögliche": 4098,
    "bestehenden": 3532,
    "hau@@": 3210,
    "inien": 2793,
    "Kre@@": 2192,
    "sche": 107,
    "Kräfte": 2667,
    "machen": 356,
    "Einnahmen": 3669,
    "jähri@@": 4007,
    "wah@@": 4280,
    "pi@@": 1110,
    "<pad>": 0,
    "ffek@@": 5041,
    "un": 5513,
    "zutage": 3971,
    "Frie@@": 5606,
    "tatsächlich": 273,
    "alismus": 1128,
    "expor@@": 4697,
    "zahlen": 1618,
    "Lon@@": 6126,
    "tet": 235,
    "om": 2730,
    "res": 2169,
    "dari": 7192,
    "letzt": 6300,
    "Frankreichs": 4360,
    "!": 3247,
    "Verhalten": 2340,
    "ä@@": 188,
    "fordert": 2509,
    "cot@@": 7068,
    "Gesetz@@": 2179,
    "ativen": 785,
    "ć@@": 7458,
    "wahl": 3073,
    "retten": 3116,
    "demo@@": 5009,
    "ffent@@": 6867,
    "a@@": 262,
    "Zugang": 1319,
    "4,@@": 5014,
    "1980er": 3761,
    "losigkeit": 3106,
    "Irland": 4744,
    "ente": 1007,
    "gni@@": 3025,
    "sek@@": 3154,
    "Deutschland": 460,
    "Herausforderung": 1315,
    "frü@@": 4286,
    "verfügt": 2094,
    "März": 3917,
    "Lib@@": 7454,
    "überwinden": 4139,
    "ehmern": 4827,
    "legal": 6937,
    "Austra@@": 4772,
    "politik": 402,
    "ör@@": 531,
    "鋜@@": 7538,
    "anti": 6339,
    "los": 999,
    "Chancen": 2364,
    "Kommun@@": 5930,
    "Yu@@": 6355,
    "mel@@": 3086,
    "Minister": 5595,
    "ti": 4666,
    "ordnung": 1901,
    "Op@@": 1246,
    "ympi@@": 6765,
    "igte": 3897,
    "mini@@": 4553,
    "seinem": 753,
    "ori@@": 859,
    "schätzen": 4211,
    "All@@": 2140,
    "vorhan@@": 3283,
    "tra@@": 468,
    "CI@@": 5952,
    "nachdem": 929,
    "richt": 6420,
    "Kosovo": 3465,
    "die@@": 6379,
    "ô@@": 7271,
    "Augu@@": 7323,
    "par@@": 1009,
    "alen": 309,
    "musste": 3636,
    "Ш@@": 7572,
    "Fälle": 4836,
    "Mechan@@": 3518,
    "internationalen": 509,
    "aber": 51,
    "industrie": 4900,
    "erhebliche": 4591,
    "Zun@@": 7048,
    "Wahrscheinlichkeit": 2887,
    "anderer": 850,
    "valent": 6595,
    "teure": 5039,
    "ser@@": 822,
    "Entscheidungs@@": 4277,
    "Refer@@": 3216,
    "run@@": 5814,
    "Außenpolitik": 2465,
    "hier": 1185,
    "geld@@": 3038,
    "arbeiten": 916,
    "zunehmen@@": 2750,
    "Aktien@@": 1874,
    "je@@": 2011,
    "lag": 2201,
    "ly": 6114,
    "Economic": 6650,
    "My@@": 5501,
    "wohl@@": 5292,
    "sein": 81,
    "Reak@@": 4184,
    "So@@": 3562,
    "legisl@@": 6991,
    "ung@@": 376,
    "ever@@": 5153,
    "evi@@": 6457,
    "wissenschaft@@": 3985,
    "Sektor": 1824,
    "V": 5797,
    "gelöst": 2125,
    "ßen": 851,
    "end": 346,
    "Hin@@": 3054,
    "way": 7422,
    "Invest@@": 4208,
    "Effek@@": 2268,
    "krank@@": 2785,
    "weiß": 2778,
    "gress": 6805,
    "ent": 1262,
    "Gesetze": 3234,
    "setzungen": 3654,
    "minist@@": 4988,
    "leistungs@@": 3740,
    "domin@@": 6474,
    "gewöhn@@": 3437,
    "ай@@": 7199,
    "allen": 691,
    "Me@@": 1259,
    "führer": 2753,
    "quo@@": 5415,
    "s@@": 84,
    "kte": 939,
    "lkamp@@": 6318,
    "Malay@@": 6900,
    "hatte": 409,
    "wahr@@": 1375,
    "ack": 6045,
    "lines": 7437,
    "sm@@": 3624,
    "zweifellos": 4327,
    "Leistungsbilanz@@": 3701,
    "sph@@": 6183,
    "verschm@@": 4199,
    "o@@": 184,
    "zwungen": 6517,
    "zin": 4197,
    "Tre@@": 5998,
    "Bürger": 832,
    "einhei@@": 3200,
    "Präsidenten": 701,
    "Führ@@": 2588,
    "Putins": 1978,
    "Ant@@": 6686,
    "ania": 6648,
    "Kombin@@": 7354,
    "1@@": 842,
    "Verantwor@@": 4791,
    "mand@@": 7064,
    "Bu@@": 2279,
    "Geri@@": 1790,
    "erhöht": 2323,
    "bran@@": 5544,
    "öffentlicher": 4140,
    "ank": 2409,
    "str@@": 810,
    "gewicht": 5326,
    "syn@@": 6207,
    "äß@@": 4186,
    "Nachfrage": 1206,
    "xim@@": 6313,
    "not": 6546,
    "wendet": 4474,
    "wiederum": 2628,
    "sich@@": 495,
    "propor@@": 6264,
    "reiche": 1853,
    "begann": 2615,
    "198@@": 2659,
    "acher": 3795,
    "Vladimir": 7110,
    "Ki@@": 5311,
    "angeht": 3459,
    "Î@@": 7612,
    "Epi@@": 3982,
    "Korruption": 1672,
    "auto@@": 6282,
    "unmöglich": 2372,
    "Paris": 2247,
    "wach@@": 2429,
    "ala": 5926,
    "sechs": 2297,
    "ismus": 775,
    "Tri@@": 3499,
    "behörden": 2525,
    "Auswirkungen": 574,
    "unzureich@@": 4520,
    "Kat@@": 4039,
    "Bri@@": 3724,
    "poll@@": 7306,
    "ech@@": 856,
    "pos@@": 6879,
    "Schaden": 3688,
    "sollten": 282,
    "setz@@": 2288,
    "haltung": 1679,
    "bra@@": 1406,
    "moni@@": 5803,
    "Gesellschaft": 861,
    "aben": 5927,
    "鰀@@": 7623,
    "Hand@@": 2758,
    "liegt": 507,
    "ständen": 5854,
    "stabil@@": 4096,
    "valu@@": 7301,
    "größeren": 2124,
    "krie@@": 1402,
    "da": 209,
    "shment": 5955,
    "Ken@@": 4949,
    "Verhäl@@": 5631,
    "ports": 6818,
    "outh": 7434,
    "fen": 340,
    "spr@@": 1215,
    "schuldung": 1971,
    "gef@@": 669,
    "Falle": 2442,
    "Fil@@": 4488,
    "schieden": 5457,
    "Pol@@": 4766,
    "zwei": 329,
    "Zinssätze": 1820,
    "seinen": 432,
    "allerdings": 305,
    "rump@@": 4730,
    "phy@@": 5947,
    "schnell": 1200,
    "Hilfs@@": 3064,
    "Bezieh@@": 7525,
    "kel": 2932,
    "é": 5313,
    "haup@@": 7156,
    "ri@@": 261,
    "freiheit": 4087,
    "Nord@@": 2037,
    "Mexico": 7488,
    "Gegen@@": 1028,
    "teile": 2982,
    "Regierungschefs": 3069,
    "ding@@": 6617,
    "Wladimir": 4049,
    "70": 3093,
    "den@@": 315,
    "lien": 2624,
    "somit": 2165,
    "М@@": 7528,
    "Terror@@": 2756,
    "ant": 2814,
    "ihre": 71,
    "schung": 1255,
    "Syst@@": 5858,
    "zum": 121,
    "groß": 2414,
    "de": 166,
    "ase": 1753,
    "Interventionen": 4835,
    "bein@@": 5023,
    "mission": 5526,
    "britische": 2003,
    "Entscheidungen": 1234,
    "Europe": 7294,
    "Wachstums": 2191,
    "fang@@": 3661,
    "und": 8,
    "ehmen": 2964,
    "Diktat@@": 3112,
    "hei@@": 527,
    "außen@@": 4480,
    "fristi@@": 3486,
    "Atl@@": 7236,
    "nde": 2997,
    "Mangel": 3044,
    "EC@@": 6794,
    "hunder@@": 2167,
    "Wege": 3439,
    "Wert@@": 6085,
    "dex": 5131,
    "eng": 3718,
    "sions": 7203,
    "alition": 6751,
    "sagen": 744,
    "führten": 1963,
    "ll@@": 972,
    "Kritik": 3519,
    "ú@@": 6744,
    "mü@@": 1940,
    "let": 7206,
    "dies@@": 2965,
    "terr@@": 6729,
    "Pri@@": 2027,
    "erreichen": 769,
    "nern": 3303,
    "sten": 99,
    "Veränderung": 4011,
    "enzen": 1052,
    "eff@@": 6709,
    "Franz@@": 4907,
    "German": 7522,
    "Bas@@": 5211,
    "Febru@@": 5210,
    "haupt": 6771,
    "red": 7118,
    "davon": 448,
    "get": 6168,
    "russischen": 1142,
    "gewich@@": 4671,
    "plans": 7245,
    "wichtiger": 1714,
    "AR@@": 4986,
    "乐@@": 7640,
    "andererseits": 4134,
    "Fortsch@@": 5209,
    "wür@@": 1390,
    "Reform@@": 3916,
    "ra@@": 332,
    "EZB": 1227,
    "mensch@@": 5091,
    "vari@@": 6342,
    "könnten": 336,
    "Vermögenswerte": 4240,
    "religiösen": 4044,
    "enei": 5996,
    "trie@@": 3180,
    "l@@": 154,
    "Jahres": 1244,
    "ärm@@": 5441,
    "Ausland": 1925,
    "Leben": 549,
    "auch": 43,
    "spra@@": 2761,
    "trau@@": 2607,
    "gemein@@": 1320,
    "glück@@": 3685,
    "Arbeitsp@@": 7492,
    "car@@": 6075,
    "traum": 6015,
    "historischen": 4300,
    "ommen": 2360,
    "isol@@": 7251,
    "bewältigen": 3212,
    "pragmati@@": 5802,
    "denke": 4576,
    "satz@@": 4915,
    "afrika": 2913,
    "schulden": 4456,
    "ach@@": 405,
    "Ne@@": 2073,
    "Gas@@": 4124,
    "Verring@@": 7381,
    "unterstützen": 1059,
    "ba@@": 2012,
    "ators": 6684,
    "tsin@@": 4798,
    "Ende": 469,
    "stischen": 524,
    "Wettbewerbsfähigkeit": 2816,
    "cut": 7401,
    "lea@@": 6645,
    "Vorteile": 1537,
    "2009": 1779,
    "Stat@@": 6505,
    "gerungen": 4116,
    "gra@@": 1166,
    "absor@@": 6761,
    "gele@@": 3251,
    "lisierung": 3222,
    "atten@@": 6238,
    "NATO": 1464,
    "Premier@@": 5627,
    "Minder@@": 2261,
    "angel": 6962,
    "Grenzen": 1055,
    "ersch@@": 1482,
    "Beru@@": 4339,
    "ah@@": 696,
    "Massen@@": 2823,
    "Beschäftigungs@@": 3760,
    "men@@": 684,
    "23": 6048,
    "Tsch@@": 3020,
    "ender": 683,
    "Sinne": 4550,
    "beschrän@@": 2203,
    "trans@@": 4923,
    "än@@": 526,
    "iere": 4670,
    "ze": 805,
    "gibt": 198,
    "sla@@": 6409,
    "ã@@": 6982,
    "ases": 7086,
    "cing": 6667,
    "verage": 7463,
    "Ungleich@@": 2777,
    "Fund@@": 4298,
    "Irak": 535,
    "tausende": 4820,
    "Dro@@": 3189,
    "Argum@@": 5589,
    "besu@@": 3426,
    "auer": 2419,
    "ability": 6976,
    "ir@@": 456,
    "pens@@": 7280,
    "ben@@": 647,
    "itable": 7312,
    "US@@": 4948,
    "äd@@": 6551,
    "regime": 6316,
    "ow": 5614,
    "job": 7469,
    "D@@": 115,
    "stä@@": 3366,
    "that": 7331,
    "beru@@": 1345,
    "sträger": 5539,
    "Wah@@": 4514,
    "yn@@": 4946,
    "abzu@@": 766,
    "ar@@": 191,
    "dann": 381,
    "ors": 5505,
    "Treib@@": 4334,
    "relev@@": 5601,
    "vorher@@": 2185,
    "Höhe": 1473,
    "zah@@": 2068,
    "krieg": 2630,
    "bezahlen": 3546,
    "afrikanischen": 3476,
    "verstärken": 3693,
    "willi@@": 4328,
    "produktion": 3358,
    "de@@": 307,
    "dam@@": 2831,
    "Bran@@": 3983,
    "dien": 5983,
    "Technologi@@": 6002,
    "tivi@@": 2808,
    "Erholung": 1435,
    "gang@@": 2935,
    "vit@@": 6558,
    "È@@": 7661,
    "ate@@": 6077,
    "Besu@@": 3341,
    "los@@": 2915,
    "resul@@": 5278,
    "flü@@": 4129,
    "ys@@": 6139,
    "Demo@@": 6312,
    "Â": 7417,
    "tive": 968,
    "stischer": 2702,
    "Analy@@": 2583,
    "üben": 3949,
    "län@@": 1297,
    "ara": 5522,
    "ungsp@@": 2249,
    "lt": 1748,
    "Gri@@": 5189,
    "rechter@@": 4539,
    "ani@@": 795,
    "1995": 5894,
    "us@@": 480,
    "Unru@@": 4257,
    "eine": 16,
    "Bet@@": 966,
    "Löhne": 3862,
    "ople": 7061,
    "Chance": 1730,
    "dem@@": 4675,
    "tert": 1783,
    "A@@": 159,
    "tom": 6427,
    "Beding@@": 6414,
    "Denk@@": 4426,
    "Anstieg": 1778,
    "erkannt": 2571,
    "veröffent@@": 2536,
    "chs": 1786,
    "Tag@@": 7013,
    "Sie": 1458,
    "Europa": 176,
    "gemä@@": 7082,
    "he": 1309,
    "#": 708,
    "Kontinent": 4064,
    "Arti@@": 4889,
    "unity": 7182,
    "H": 5605,
    "Welt@@": 567,
    "for": 5593,
    "ig": 3524,
    "dis@@": 2038,
    "Lag@@": 5361,
    "El@@": 2995,
    "handel@@": 2321,
    "osen": 4540,
    "Blair": 5420,
    "Д@@": 7496,
    "Deutschlands": 3552,
    "ru@@": 598,
    "therap@@": 5610,
    "hänom@@": 4805,
    "Leben@@": 2519,
    "Gesam@@": 3150,
    "ots": 6934,
    "mobili@@": 5498,
    "emen": 4625,
    "anischen": 991,
    "Über@@": 341,
    "NA": 5748,
    "S@@": 97,
    "Bereichen": 1555,
    "kam": 1209,
    "chan@@": 7379,
    "Wachstum": 334,
    "Staats@@": 551,
    "н": 7297,
    "krise": 1063,
    "dem": 34,
    "abkommen": 2144,
    "progno@@": 4970,
    "Richtung": 947,
    "llt": 3610,
    "China": 155,
    "Akti@@": 2703,
    "entfernt": 3992,
    "kri@@": 4156,
    "lige": 2480,
    "з@@": 5779,
    "rop@@": 6308,
    "braucht": 1092,
    "Musharra@@": 6793,
    "erheblich": 3224,
    "sagte": 3633,
    "ab@@": 94,
    "Terrorismus": 1620,
    "enorm@@": 7207,
    "aner": 3921,
    "Rech@@": 2361,
    "säm@@": 4388,
    "Be@@": 151,
    "Kultur": 2324,
    "hielt": 2802,
    "relevant": 5900,
    "lauf@@": 4449,
    "aps": 6202,
    "pro": 907,
    "lös@@": 3941,
    "35": 5199,
    "une@@": 5163,
    "Ukraine": 1285,
    "region@@": 5252,
    "problemati@@": 5578,
    "lief": 6235,
    "wen@@": 1147,
    "Mär@@": 6658,
    "schon": 487,
    "bs@@": 2386,
    "einnahmen": 3942,
    "Burma": 6191,
    "В@@": 7560,
    "agne": 6044,
    "after": 5463,
    "gerech@@": 1876,
    "zierung": 5953,
    "鋑@@": 7626,
    "mitteln": 2523,
    "Willen": 4789,
    "zieh@@": 1652,
    "cs": 5167,
    "der": 7,
    "intel@@": 4994,
    "kurz@@": 4843,
    "Botschaft": 3246,
    "separ@@": 6394,
    "Schwellenländern": 3755,
    "beha@@": 6512,
    "drängen": 4214,
    "betei@@": 5545,
    "ре@@": 6285,
    "Veränderungen": 1425,
    "З@@": 7593,
    "Sch@@": 123,
    "mer@@": 909,
    "stoffen": 4523,
    "ermög@@": 5195,
    "stabilität": 4082,
    "halten": 331,
    "ca@@": 5892,
    "IM@@": 7267,
    "Banken": 474,
    "Poli@@": 1870,
    "equ@@": 5093,
    "zipi@@": 4264,
    "läu@@": 3155,
    "ast@@": 1163,
    "ake": 7193,
    "erle@@": 3874,
    "Gesundheit": 1838,
    "Ren@@": 5785,
    "japanischen": 2681,
    "cr@@": 7209,
    "gegeben": 1792,
    "unterdessen": 4385,
    "lo@@": 1051,
    "è": 7565,
    "erb@@": 6397,
    "ko@@": 734,
    "ines": 6349,
    "DP": 5769,
    "Council": 6827,
    "sal@@": 6445,
    "milit@@": 5367,
    "erfordern": 3697,
    "Mod@@": 3901,
    "е": 5538,
    "Y@@": 1454,
    "zunehmende": 3749,
    "wo": 373,
    "einmal": 594,
    "uli": 7183,
    "Я@@": 7270,
    "staaten": 1141,
    "Wandel": 1823,
    "Tu@@": 4921,
    "kei@@": 6159,
    "thek@@": 6564,
    "Gebieten": 4771,
    "Migranten": 4306,
    "е@@": 3957,
    "Br@@": 4222,
    "stellte": 1953,
    "denk@@": 4033,
    "tari@@": 7057,
    "satz": 1813,
    "ils": 6788,
    "Notenbank": 4499,
    "blin@@": 6237,
    "abri@@": 5155,
    "Priorität": 3884,
    "stands": 5068,
    "ASEAN": 5656,
    "drin@@": 5042,
    "ice": 7396,
    "werk@@": 3877,
    "verantwor@@": 2826,
    "=": 7537,
    "klear@@": 4993,
    "tei": 4566,
    "profession@@": 6103,
    "steu@@": 5399,
    "Pr@@": 2492,
    "gender": 2601,
    "heraus": 4236,
    "mieren": 3146,
    "erstens": 2347,
    "spar@@": 1220,
    "wa@@": 2695,
    "ath": 6740,
    "dlich": 1173,
    "Um@@": 445,
    "fördern": 1265,
    "Musharraf": 5860,
    "vielleicht": 476,
    "tieren": 1273,
    "chine@@": 5010,
    "älfte": 6745,
    "inflation": 6695,
    "altung": 2241,
    "aid": 6963,
    "Sieg": 2594,
    "ungen": 96,
    "zur": 65,
    "regi@@": 1470,
    "BR@@": 5229,
    "ermor@@": 4544,
    "Nov@@": 7027,
    "Ho@@": 5547,
    "Vietnam": 5382,
    "nach": 79,
    "ande": 3460,
    "sident@@": 6878,
    "$": 3823,
    "rug": 4801,
    "programme": 2877,
    "Än@@": 2547,
    "Innovation": 3362,
    "ship": 6933,
    "Natur": 3375,
    "Ökonom@@": 7030,
    "ümm@@": 3831,
    "möglichkeiten": 4570,
    "Holl@@": 5524,
    "B.": 3009,
    "moralische": 4841,
    "am@@": 366,
    "wertung": 1631,
    "Rec@@": 6404,
    "wohlhab@@": 4395,
    "Mo@@": 1000,
    "ster@@": 1148,
    "Gem@@": 5757,
    "Sorge": 3922,
    "mer": 813,
    "Ü@@": 5512,
    "tiert": 836,
    "geschlossen": 2266,
    "began@@": 5484,
    "tion": 467,
    "ader": 7262,
    "Lockerung": 3070,
    "Gläubiger": 4138,
    "tal": 4913,
    "Б@@": 7647,
    "mobi@@": 4842,
    "wissen": 949,
    "flation": 6680,
    "organi@@": 3271,
    "stimmt": 4444,
    "Kop@@": 6136,
    "mod@@": 5129,
    "Frem@@": 3875,
    "ay": 6174,
    "schwieri@@": 2506,
    "iert": 1626,
    "Direk@@": 3280,
    "des": 19,
    "manchmal": 2280,
    "eingesetzt": 3276,
    "ou@@": 1075,
    "spiel": 4163,
    "chroni@@": 5380,
    "anien": 4513,
    "lagen": 587,
    "plu@@": 6538,
    "Malaria": 4122,
    "erende": 1266,
    "siv": 4083,
    "Schlüs@@": 5339,
    "ski": 5421,
    "strengungen": 7077,
    "sogar": 337,
    "erwarten": 2394,
    "Gruppen": 1479,
    "Bel@@": 1698,
    "lediglich": 792,
    "Erei@@": 5179,
    "ander": 6329,
    "M@@": 128,
    "depen@@": 6554,
    "Proto@@": 5374,
    "geschehen": 3438,
    "Gläubi@@": 5082,
    "anzö@@": 6580,
    "grundle@@": 3347,
    "team": 7076,
    "Beitrag": 3342,
    "Geheim@@": 3722,
    "weiteren": 1379,
    "met": 6279,
    "Öffentlichkeit": 1294,
    "р@@": 3815,
    "Rechte": 2072,
    "Euro@@": 1915,
    "thei@@": 5921,
    "meine": 2641,
    "Serbi@@": 4646,
    "justi@@": 7008,
    "sonst": 4778,
    "nung": 505,
    "Syri@@": 5073,
    "umul@@": 6543,
    "dom@@": 7256,
    "lok@@": 5055,
    "ange@@": 322,
    "do": 5690,
    "sachen": 2329,
    "Korea": 5819,
    "gelt": 5231,
    "verse": 6226,
    "Gespräche": 3967,
    "ffer": 6615,
    "Neu@@": 887,
    "deu@@": 2208,
    "Moh@@": 5428,
    "Durchschnit@@": 3174,
    "bank": 3108,
    "ale": 278,
    "sters": 6859,
    "Hi@@": 4377,
    "Rah@@": 7265,
    "time": 6297,
    "investitionen": 4031,
    "bestehen": 1615,
    "Verhandlungen": 1514,
    "hol@@": 1799,
    "stärksten": 4429,
    "wiederholt": 4428,
    "Stur@@": 3935,
    "Zentralbank": 1520,
    "kungen": 4992,
    "droht": 5056,
    "damp@@": 7479,
    "Europäer": 1645,
    "last": 5263,
    "gegrün@@": 4862,
    "鋘@@": 7493,
    "Pra@@": 1910,
    "Zunahme": 4866,
    "boom": 6144,
    "Aktion@@": 4176,
    "ir": 5616,
    "ab": 593,
    "Gef@@": 4633,
    "ater": 1744,
    "ore": 5019,
    "bes@@": 1256,
    "IMF": 6871,
    "Westens": 3996,
    "Politiker": 543,
    "unter@@": 224,
    "Firmen": 1669,
    "Befürwor@@": 4795,
    "Vereinigten": 532,
    "fehlt": 3793,
    "Verfassungs@@": 3109,
    "kol@@": 1495,
    "regierung": 2978,
    "Methoden": 4768,
    "ș@@": 7594,
    "Rede": 4093,
    "Jahrhundert": 1448,
    "gleichen": 1179,
    "bish@@": 5756,
    "Intervention": 4040,
    "ausgedrückt": 4626,
    "dig@@": 1184,
    "Millenni@@": 5529,
    "Stimmen": 3138,
    "ehm@@": 3028,
    "sse": 1530,
    "Solidar@@": 6541,
    "pal@@": 6435,
    "klang": 6756,
    "tut": 4585,
    "steigt": 3074,
    "kehrt": 3710,
    "Belast@@": 4325,
    "Brü@@": 6180,
    "diesel@@": 4060,
    "cat@@": 7402,
    "Wähler": 1593,
    "ani": 5663,
    "jüngsten": 1282,
    "Asi@@": 5575,
    "es@@": 293,
    "Berlusconi": 5770,
    "nology": 7225,
    "wieri@@": 6472,
    "Ju@@": 1810,
    "handel": 4607,
    "Tha@@": 6330,
    "bles": 6920,
    "stabili@@": 4876,
    "Rechts@@": 1407,
    "elt@@": 5207,
    "Paul": 5350,
    "sierung": 829,
    "läs@@": 5968,
    "Indien": 564,
    "pati@@": 6904,
    "no@@": 1673,
    "Regionen": 2040,
    "führte": 1002,
    "llen": 1927,
    "Menschen": 135,
    "Behörden": 1890,
    "cu@@": 6449,
    "bli@@": 2284,
    "dah@@": 3881,
    "schwieriger": 4178,
    "jetzt": 393,
    "Finanzierung": 1936,
    "Strei@@": 5554,
    "Janu@@": 6441,
    "п@@": 3573,
    "ähri@@": 7056,
    "front": 6971,
    "lang@@": 1150,
    "ill@@": 6026,
    "val@@": 6462,
    "praktisch": 2869,
    "Produktion": 1668,
    "Beri@@": 3016,
    "profitieren": 1760,
    "General": 5275,
    "Zweifel": 3194,
    "fän@@": 2705,
    "Perspek@@": 4345,
    "17@@": 5447,
    "addafi": 6007,
    "fers": 6361,
    "Fuß@@": 4174,
    "zuzu@@": 3905,
    "Fortschritt": 2363,
    "Grenze": 3355,
    "abhängi@@": 5961,
    "International": 6009,
    "8@@": 1270,
    "Saddam": 4811,
    "entscheidender": 3472,
    "view": 6059,
    "⅞": 7642,
    "ches": 3156,
    "genen": 1727,
    "situation": 5717,
    "schützen": 1798,
    "ﬂ@@": 7615,
    "wiederhol@@": 5121,
    "ziehen": 592,
    "lokale": 4366,
    "einige": 396,
    "desig@@": 7400,
    "Dien@@": 4745,
    "gan@@": 3485,
    "gewichte": 4509,
    "rieb": 3806,
    "sorgen": 1280,
    "dürfte": 1968,
    "kischen": 3313,
    "Pakistan": 1676,
    "unilater@@": 6213,
    "leisten": 1580,
    "&amp;": 360,
    "Great": 7071,
    "Spe@@": 4406,
    "Kreml": 3315,
    "erfüllen": 4072,
    "europäischen": 431,
    "Groß@@": 1358,
    "Wachstums@@": 895,
    "Juli": 4053,
    "tur": 5122,
    "qu@@": 928,
    "Myanmar": 6046,
    "riffen": 4029,
    "Pre@@": 5573,
    "Mat@@": 4581,
    "Lösung": 771,
    "Sicht": 2817,
    "umfassenden": 4225,
    "--@@": 6460,
    "Pu@@": 4409,
    "bri@@": 3676,
    "tions@@": 1181,
    "th@@": 511,
    "Wirtschafts@@": 303,
    "Themen": 3157,
    "kräf@@": 4526,
    "cken": 838,
    "aten": 650,
    "Beteili@@": 4065,
    "2004": 3159,
    "schließlich": 705,
    "gelten": 4091,
    "renn@@": 6227,
    "Behand@@": 5654,
    "Ressourcen": 993,
    "Anreize": 2528,
    "neuen": 344,
    "ó@@": 6296,
    "erklärte": 2951,
    "sin@@": 682,
    "ma": 1837,
    "Der": 4382,
    "dadurch": 1183,
    "liens": 4213,
    "YORK": 2495,
    "richtige": 3647,
    "dur@@": 5939,
    "Gefahren": 4648,
    "änder@@": 3595,
    "mier@@": 5491,
    "tnis": 3802,
    "Ö@@": 1124,
    "³": 7664,
    "our@@": 6803,
    "Glau@@": 2416,
    "expansion": 7139,
    "wär@@": 2379,
    "rep@@": 7364,
    "Verbrauch@@": 3561,
    "selben": 2696,
    "alle@@": 5371,
    "Diskus@@": 4974,
    "extreme": 5460,
    "inf@@": 6605,
    "kas": 2586,
    "spielen": 1388,
    "ess@@": 2024,
    "haben": 50,
    "gkeit": 763,
    "ator": 4960,
    "russische": 1606,
    "erer": 1405,
    "modell": 4780,
    "Hillary": 5931,
    "schen": 108,
    "folgen": 1691,
    "Dynami@@": 7415,
    "mechan@@": 5658,
    "zwi@@": 6064,
    "pak@@": 5123,
    "ст@@": 5149,
    "enheit": 3136,
    "col@@": 7210,
    "schlu@@": 4568,
    "ß@@": 670,
    "hielten": 3961,
    "haupts@@": 7123,
    "rolle": 4432,
    "provin@@": 6890,
    "Middle": 7353,
    "boten": 2866,
    "wirkungen": 6078,
    "bit@@": 2938,
    "Verfahren": 4120,
    "etri@@": 5826,
    "ingen": 1447,
    "verringern": 1604,
    "reibt": 3576,
    "steuer": 3597,
    "Latein@@": 5693,
    "Ira@@": 4359,
    "don@@": 6199,
    "can": 7380,
    "verab@@": 4953,
    "alist": 6258,
    "symboli@@": 5999,
    "lektu@@": 3379,
    "lichem": 3344,
    "did@@": 4995,
    "Minist@@": 5915,
    "Studie": 3306,
    "teri@@": 2474,
    "Einheit": 3887,
    "CE@@": 6190,
    "fac@@": 7175,
    "İ@@": 7653,
    "b@@": 127,
    "Konsens": 3071,
    "sollte": 216,
    "ob": 369,
    "aktiv": 4547,
    "kur@@": 1080,
    "gering@@": 1941,
    "gkeiten": 5124,
    "ones": 6348,
    "Brüs@@": 7093,
    "Wahlkamp@@": 3262,
    "Л@@": 7457,
    "plus": 6346,
    "dynami@@": 4371,
    "entsprech@@": 2675,
    "Forschungs@@": 3245,
    "lauf": 4641,
    "ran@@": 5336,
    "seines": 1149,
    "ble": 5500,
    "ro": 6263,
    "risk@@": 5519,
    "hält": 1238,
    "Unabhängi@@": 6175,
    "Gest@@": 4886,
    "Aufgabe": 1946,
    "ste@@": 2101,
    "dau@@": 1867,
    "seits": 5330,
    "ems": 6568,
    "ash@@": 5746,
    "deshalb": 1299,
    "um@@": 201,
    "zz@@": 6014,
    "etzen": 2963,
    "sourcen": 5936,
    "wesen": 2163,
    "IP@@": 5733,
    "Konferenz": 3955,
    "va": 5792,
    "ahu": 5665,
    "gessen": 4609,
    "Beginn": 2137,
    "verlassen": 2245,
    "K": 6242,
    "Indi@@": 2576,
    "kraft@@": 2998,
    "reise": 3493,
    "dustri@@": 5309,
    "Vision": 2919,
    "en": 37,
    "digit@@": 4882,
    "vil@@": 6406,
    "robu@@": 5744,
    "beeinflus@@": 5120,
    "cho@@": 6774,
    "wichtigsten": 1725,
    "geg@@": 6597,
    "V@@": 426,
    "öffentlich": 3641,
    "Beijing": 7235,
    "1970": 6497,
    "Arbeitskräfte": 3748,
    "Südkorea": 3172,
    "Europäischen": 667,
    "Währungsfonds": 2946,
    "power": 7305,
    "nahe@@": 6769,
    "Globalisierung": 1310,
    "Anhänger": 4042,
    "Super@@": 4660,
    "Dra@@": 5148,
    "syst@@": 7058,
    "esse": 3649,
    "aus@@": 86,
    "arabi@@": 6257,
    "anze": 6107,
    "ländi@@": 4460,
    "anges@@": 2984,
    "reich": 1802,
    "städ@@": 3312,
    "allgemeinen": 4146,
    "äi@@": 6072,
    "En@@": 1106,
    "utzung": 3521,
    "Demokratien": 2940,
    "Thak@@": 5911,
    "israelischen": 2779,
    "bang": 7516,
    "ards": 4786,
    "Verbin@@": 5986,
    "Ökonomien": 4001,
    "Kontrolle": 957,
    "zentri@@": 6637,
    "territori@@": 5706,
    "l": 304,
    "Män@@": 4078,
    "Programm": 2342,
    "system@@": 4442,
    "edri@@": 7066,
    "sing@@": 7149,
    "Mexiko": 2362,
    "Internationalen": 2427,
    "richtung": 2515,
    "andel@@": 1913,
    "Tru@@": 4973,
    "auf": 20,
    "2014": 2883,
    "zeich@@": 1937,
    "Meinung": 2031,
    "in": 9,
    "sten@@": 5219,
    "Schicksal": 3976,
    "integri@@": 4145,
    "jo@@": 6804,
    "aga@@": 6921,
    "religiö@@": 6372,
    "ъ@@": 7645,
    "Kranken@@": 4562,
    "sni@@": 6662,
    "cker": 5579,
    "City": 6138,
    "kämpfen": 3695,
    "鲞@@": 7620,
    "große": 471,
    "punkte": 4879,
    "lic@@": 6387,
    "tenden": 2487,
    "Stu@@": 3214,
    "1998": 5170,
    "黵@@": 7568,
    "rom": 3368,
    "start": 6814,
    "mehrere": 2271,
    "16": 5276,
    "näch@@": 5490,
    "Chávez": 5588,
    "med": 6989,
    "й@@": 7356,
    "vin@@": 6966,
    "fürwor@@": 5287,
    "wirtschaften": 5686,
    "reformen": 4932,
    "HA@@": 5916,
    "eigerung": 5119,
    "ön@@": 3619,
    "ss": 6031,
    "alization": 7449,
    "Sanktionen": 2226,
    "keiner": 3896,
    "Jahrzehnte": 2093,
    "Bürger@@": 1832,
    "überrasch@@": 4224,
    "ie": 1146,
    "europäi@@": 3787,
    "ss@@": 4143,
    "erforderlich": 1700,
    "Finanzsystem": 4487,
    "enter@@": 5869,
    "Instru@@": 2209,
    "Sarkoz@@": 6240,
    "voller": 4281,
    "schnit@@": 5165,
    "entral@@": 6061,
    "Pap@@": 3511,
    "ruption": 7362,
    "priv@@": 4291,
    "woh@@": 1572,
    "ber@@": 306,
    "Präsident@@": 5138,
    "auen": 1527,
    "kal@@": 4554,
    "Ku@@": 4957,
    "sional": 7133,
    "tigten": 2452,
    "anderen": 196,
    "Angri@@": 5430,
    "kulturel@@": 2229,
    "tige": 370,
    "Einzel@@": 2131,
    "beson@@": 5188,
    "tische": 1306,
    "ted": 7332,
    "N@@": 234,
    "ey": 5499,
    "net": 1159,
    "imp@@": 5584,
    "ihren": 244,
    "fas@@": 3019,
    "Gefahr": 1077,
    "wes@@": 1378,
    "soll": 787,
    "zwar": 443,
    "eng@@": 1641,
    "do@@": 1697,
    "sta@@": 852,
    "möglicherweise": 814,
    "ritten": 2001,
    "Anzeichen": 3671,
    "I@@": 323,
    "9": 1013,
    "begeg@@": 4559,
    "stärkere": 4776,
    "histori@@": 3304,
    "Den@@": 3130,
    "it@@": 429,
    "abzi@@": 3883,
    "trit@@": 4386,
    "ration": 5111,
    "Chi@@": 5312,
    "Ol@@": 6527,
    "Erfahrungen": 3467,
    "gewissen": 4302,
    "lands@@": 2301,
    "Medi@@": 2060,
    "Ak@@": 1371,
    "ula": 6315,
    "1.@@": 5329,
    "argumenti@@": 3350,
    "Wirkung": 3592,
    "holen": 3827,
    "org@@": 2784,
    "鰎@@": 7621,
    "Intel@@": 4088,
    "Sich@@": 3500,
    "ums": 1833,
    "very": 7500,
    "鋞@@": 7625,
    "ı@@": 7596,
    "17": 5171,
    "Internation@@": 4026,
    "鰃@@": 7585,
    "22": 5725,
    "Vor@@": 178,
    "Preis": 1579,
    "fallen": 985,
    "Zeiten": 2055,
    "mi@@": 277,
    "Millionen": 401,
    "遪@@": 7628,
    "�": 5044,
    "tlichen": 789,
    "tigkeit": 926,
    "zurückzu@@": 1722,
    "pu@@": 5582,
    "lü@@": 3183,
    "dig": 1636,
    "deflation": 7107,
    "ver@@": 30,
    "pakist@@": 4353,
    "ruppen": 5945,
    "hinter@@": 2438,
    "pf@@": 2047,
    "atlanti@@": 6123,
    "schei@@": 1237,
    "rech@@": 544,
    "lier": 7311,
    "fürchten": 4190,
    "bringt": 1889,
    "leg@@": 1084,
    "getragen": 5896,
    "more": 7308,
    "Qu@@": 937,
    "aim@@": 7261,
    "sie@@": 2996,
    "legi@@": 2599,
    "tives": 6416,
    "war@@": 692,
    "ith": 7508,
    "Bush": 745,
    "verschär@@": 2300,
    "sign": 6985,
    "chen@@": 5113,
    "beobach@@": 4545,
    "Programme": 2788,
    "Risiken": 936,
    "gegenwärtig": 3525,
    "wären": 864,
    "ames": 6253,
    "alli@@": 5664,
    "lk@@": 5112,
    "Teil": 520,
    "baren": 853,
    "ide@@": 3371,
    "schütz@@": 5566,
    "nation": 6954,
    "banken": 1980,
    "²": 7531,
    "Wirtschaft": 314,
    "diversi@@": 6070,
    "zwischen": 145,
    "Finanzkrise": 1105,
    "dafür": 378,
    "ich": 275,
    "ckt": 1664,
    "Sach@@": 5268,
    "größere": 1563,
    "Län@@": 6381,
    "tigen": 195,
    "gerade": 1245,
    "hart": 4782,
    "Is@@": 2892,
    "Q@@": 5028,
    "ops": 7282,
    "utzt": 2590,
    "W@@": 150,
    "Zusti@@": 4905,
    "Mas@@": 5127,
    "Na@@": 4012,
    "now": 6746,
    "me@@": 1167,
    "tik": 6016,
    "klein@@": 2638,
    "Währung": 1984,
    "Infra@@": 5011,
    "Arme@@": 6383,
    "Bevölkerungs@@": 2527,
    "trag": 2006,
    "ativ": 3099,
    "jour@@": 7372,
    "erneut": 2246,
    "brei@@": 1436,
    "verringert": 3417,
    "hin": 528,
    "Unterschie@@": 7451,
    "einem": 69,
    "ye@@": 6532,
    "sam@@": 1289,
    "warum": 597,
    "offenbar": 4898,
    "Region": 506,
    "von": 12,
    "n@@": 103,
    "stre@@": 1158,
    "ka@@": 5101,
    "gemeinsame": 1578,
    "Bedingungen": 1461,
    "endes": 3516,
    "regel@@": 2954,
    "Feh@@": 4966,
    "denti@@": 6525,
    "e@@": 210,
    "Personen": 2957,
    "unterstützt": 1771,
    "administ@@": 6599,
    "revolution": 5697,
    "Vorteil": 3411,
    "ökonomische": 3780,
    "wahrschein@@": 3938,
    "kommenden": 2224,
    "Beobachter": 4663,
    "funden": 5369,
    "stoffe": 2065,
    "kommuni@@": 1933,
    "derzeit": 922,
    "form": 5049,
    "manche": 1510,
    "fehl@@": 2612,
    "宣@@": 7637,
    "ular": 7242,
    "Durch@@": 1696,
    "or": 870,
    "wei@@": 406,
    "wenn": 59,
    "Shar@@": 5859,
    "militäri@@": 3657,
    "tional": 6130,
    "menschlichen": 4006,
    "kauf@@": 3578,
    "kommens": 3285,
    "Aust@@": 2435,
    "würde": 141,
    "А@@": 7529,
    "privati@@": 6434,
    "Lebensmittel@@": 4868,
    "acht": 3732,
    "Berei@@": 2445,
    "wonach": 3281,
    "unt@@": 7501,
    "raum": 3117,
    "un@@": 72,
    "management": 5795,
    "nie": 808,
    "ade@@": 5653,
    "z@@": 110,
    "elite": 7511,
    "by@@": 5236,
    "wettbewer@@": 6844,
    "eindeu@@": 5689,
    "Entscheidung": 1079,
    "Ita@@": 5133,
    "öffent@@": 4682,
    "sieben": 3987,
    "inie": 5401,
    "Beziehung": 2850,
    "haus@@": 4237,
    "1.": 3468,
    "Argumente": 4796,
    "Die": 1417,
    "Street": 5395,
    "ast": 5094,
    "Ber@@": 1032,
    "habe": 1275,
    "dio@@": 4919,
    "ün@@": 534,
    "außer": 2504,
    "Nu@@": 6241,
    "lia": 6863,
    "Medien": 1935,
    "Tem@@": 4926,
    "af@@": 1039,
    "gration": 6821,
    "moder@@": 4690,
    "pun@@": 5489,
    "Fu@@": 3968,
    "Verantwortung": 1493,
    "Hei@@": 1655,
    "herzustellen": 3713,
    "Fahr@@": 4454,
    "Drogen@@": 4500,
    "dar@@": 1403,
    "benden": 1976,
    "ves": 5090,
    "kehren": 2972,
    "sych@@": 5647,
    "ek@@": 470,
    "Januar": 3791,
    "blich": 5766,
    "Leu@@": 5341,
    "Überwachung": 4601,
    "gung": 347,
    "Mil@@": 5732,
    "hom@@": 5346,
    "inta@@": 6228,
    "ausländische": 2168,
    "zusätzliche": 3451,
    "Robert": 5677,
    "gei@@": 1481,
    "Vertrauen": 1416,
    "ki@@": 1888,
    "ure": 3738,
    "esti@@": 1585,
    "minister": 2257,
    "schul@@": 661,
    "Ah@@": 5920,
    "Pal@@": 5486,
    "bew@@": 5808,
    "tigung": 811,
    "trägt": 3208,
    "Defizite": 3594,
    "lock@@": 3119,
    "Tat": 2587,
    "wus@@": 3356,
    "ps": 6052,
    "...": 4552,
    ".@@": 1254,
    "absolute": 6389,
    "York": 3766,
    "sent@@": 6815,
    "Un@@": 385,
    "genannte": 3175,
    "igen": 2516,
    "diskuti@@": 3776,
    "stands@@": 3959,
    "Krankheiten": 2312,
    "such@@": 3803,
    "inge": 5006,
    "wahlen": 1877,
    "law": 7250,
    "Bra@@": 6211,
    "punkt": 883,
    "zwangs@@": 4683,
    "Ei@@": 5429,
    "Süd@@": 1855,
    "Proteste": 4867,
    "batt@@": 7484,
    "denden": 3097,
    "Barack": 2217,
    "Ungleichheit": 2115,
    "ening": 6958,
    "völk@@": 6888,
    "Gelegenheit": 2534,
    "Situation": 1351,
    "ohn@@": 4541,
    "5": 522,
    "Komm@@": 6127,
    "verpflich@@": 4055,
    "vorüber@@": 4634,
    "sum@@": 1524,
    "7": 759,
    "15": 1795,
    "besch@@": 956,
    "ele@@": 4073,
    "Schritt": 1334,
    "massiven": 4542,
    "ärkte": 6573,
    "bol@@": 6152,
    "erte": 212,
    "meinen": 4164,
    "beispiel@@": 4737,
    "Proz@@": 3450,
    "Spi@@": 4515,
    "sau@@": 2222,
    "durch@@": 439,
    "andel": 6012,
    "derar@@": 4982,
    "dent": 6868,
    "first": 7443,
    "ägyp@@": 4384,
    "Depression": 3007,
    "Clinton": 2635,
    "Markt@@": 1037,
    "kung": 2399,
    "6@@": 1157,
    "Teile": 2840,
    "blie@@": 4577,
    "flexi@@": 3991,
    "vermut@@": 7425,
    "Erdoğ@@": 6685,
    "bru@@": 2018,
    "Bot@@": 5027,
    "repres@@": 6234,
    "tin@@": 3750,
    "г@@": 5621,
    "UN": 1549,
    "politisches": 3270,
    "rid": 6097,
    "absol@@": 3857,
    "England": 5108,
    "nden": 3568,
    "leistungen": 2880,
    "gewährleisten": 2315,
    "andes": 3041,
    "ihn": 943,
    "oren": 1566,
    "pres@@": 4839,
    "jeden": 2158,
    "erkennen": 900,
    "ameri@@": 4092,
    "cas@@": 7482,
    "erzi@@": 5348,
    "bestä@@": 2839,
    "ats@@": 4158,
    "hu@@": 5846,
    "forderungen": 3660,
    "einschließlich": 1467,
    "Krieges": 2105,
    "französische": 2768,
    "Renten@@": 3721,
    "wichtig@@": 5004,
    "times": 7386,
    "Agenda": 3102,
    "erreicht": 1153,
    "langfristi@@": 5143,
    "akt": 4739,
    "ließ": 2592,
    "Konz@@": 5951,
    "wachstums": 4265,
    "Sal@@": 5373,
    "stimmen": 4153,
    "behörde": 3253,
    "Ji@@": 5712,
    "intensi@@": 4981,
    "ture": 7170,
    "Hong@@": 3640,
    "ine": 1863,
    "At@@": 2397,
    "zipien": 6636,
    "lage": 1036,
    "2007": 2078,
    "anschließ@@": 3665,
    "lass": 3611,
    "Sol@@": 3900,
    "st@@": 73,
    "by": 6403,
    "sozialen": 1535,
    "Scheitern": 4407,
    "ah": 4218,
    "weiteres": 4161,
    "Č@@": 7655,
    "allgemeine": 4231,
    "aufen": 4061,
    "enormen": 2276,
    "ghts": 7045,
    "errei@@": 4493,
    "sache": 4266,
    "Nationen": 1139,
    "Mäch@@": 4063,
    "tro@@": 1911,
    "unserer": 1056,
    "sammlung": 4524,
    "2010": 1617,
    "Wissenschaft": 2918,
    "stecken": 4708,
    "tri@@": 2035,
    "inst": 7252,
    "黨@@": 7554,
    "schränkungen": 5577,
    "Amtszeit": 3364,
    "kong": 5035,
    "Ri@@": 1849,
    "Zivilgesellschaft": 4829,
    "Kreditver@@": 4358,
    "Cambridge": 3947,
    "schließen": 1160,
    "Öffent@@": 7073,
    "Anlei@@": 3918,
    "Plat@@": 4983,
    "Organisation": 2472,
    "Anpassung": 4362,
    "funktionieren": 2881,
    "gern": 996,
    "ffer@@": 5183,
    "posi@@": 2637,
    "Dem@@": 5703,
    "Folgen": 967,
    "llig": 5672,
    "Islami@@": 2319,
    "be@@": 46,
    "ßen@@": 5791,
    "ehr@@": 1513,
    "ro@@": 464,
    "TO": 7195,
    "beeinflussen": 4132,
    "Anstrengungen": 3300,
    "fra@@": 1248,
    "eme": 6338,
    "ous@@": 6265,
    "altern@@": 4787,
    "wäl@@": 1638,
    "Hal@@": 4337,
    "Pakist@@": 5282,
    "Pf@@": 4357,
    "politische": 208,
    "ganis@@": 5347,
    "rou@@": 6344,
    "gabe": 1528,
    "gefährlich": 4573,
    "hoben": 3909,
    "jenigen": 3230,
    "niem@@": 5993,
    "usam@@": 6924,
    "Menschen@@": 3043,
    "my": 6935,
    "ück": 5284,
    "ruhi@@": 6536,
    "wachst@@": 5629,
    "compu@@": 7047,
    "addaf@@": 6569,
    "ting@@": 6984,
    "nec@@": 7247,
    "Flu@@": 1677,
    "träch@@": 4455,
    "gen@@": 211,
    "über@@": 119,
    "Produktivität": 2757,
    "öp@@": 3924,
    "laufen": 3407,
    "len": 374,
    "sibi@@": 6951,
    "nämlich": 1194,
    "offenen": 4710,
    "Regierung": 148,
    "bilität": 3425,
    "ffizi@@": 5392,
    "unde": 998,
    "Entscheidungsträger": 2535,
    "endlich": 3335,
    "mal": 1116,
    "rieben": 2863,
    "Verbindung": 2914,
    "ft@@": 1814,
    "elte": 3788,
    "zig": 2875,
    "hand": 3828,
    "Mitgliedern": 4241,
    "London": 1719,
    "Rendi@@": 3977,
    "200": 4979,
    "treiben": 2606,
    "stan@@": 1419,
    "Reformen": 644,
    "amp@@": 4546,
    "Lab@@": 4965,
    "ethni@@": 2406,
    "Abhängi@@": 6828,
    "beteili@@": 3002,
    "AS@@": 6425,
    "terrori@@": 5285,
    "verring@@": 5823,
    "ation@@": 1321,
    "100": 2352,
    "fle@@": 5303,
    "für@@": 1873,
    "Spanien": 1868,
    "chts": 4332,
    "Prin@@": 6356,
    "bis": 187,
    "ton": 4387,
    "Investoren": 1438,
    "Soli@@": 7320,
    "ignori@@": 2552,
    "Cri@@": 6528,
    "xit": 7074,
    "gut": 538,
    "frag@@": 5541,
    "derung": 2017,
    "lli@@": 5100,
    "General@@": 3235,
    "Wochen": 3914,
    "elten": 3000,
    "Verlust": 3510,
    "tre@@": 752,
    "ю@@": 6623,
    "Institutionen": 651,
    "diesem": 290,
    "wirtschaftliche": 455,
    "Behaup@@": 3651,
    "ats": 2912,
    "Klimawandels": 3430,
    "ling@@": 6464,
    "under@@": 2174,
    "gefallen": 3910,
    "IS": 4870,
    "sie": 31,
    "Gegner": 3690,
    "darin": 659,
    "utive": 6559,
    "Recht": 915,
    "Soldaten": 4050,
    "Millen@@": 6743,
    "hinsichtlich": 975,
    "machte": 3454,
    "Arten": 3606,
    "Г@@": 7533,
    "armen": 2387,
    "x@@": 729,
    "kontro@@": 2870,
    "й": 6192,
    "würden": 349,
    "umt": 4503,
    "bak@@": 6466,
    "entwicklung": 4558,
    "senti@@": 5354,
    "zel@@": 6212,
    "ai@@": 2540,
    "operation": 4605,
    "rec@@": 6755,
    "zerstör@@": 1955,
    "ы": 6780,
    "ärmsten": 4584,
    "freie": 3348,
    "oper@@": 4802,
    "Erwärmung": 3414,
    "phen@@": 6347,
    "Je@@": 6649,
    "gene": 2213,
    "gelungen": 3774,
    "sin": 5832,
    "liter@@": 7153,
    "schlech@@": 2118,
    "person@@": 6484,
    "limi@@": 7042,
    "mar@@": 2731,
    "ign@@": 5425,
    "if": 6336,
    "stopp@@": 5481,
    "Brasilien": 1794,
    "era": 6493,
    "鰄@@": 7584,
    "gestütz@@": 4733,
    "b": 572,
    "gene@@": 4401,
    "Übersch@@": 4233,
    "wohner": 3824,
    "dort": 863,
    "ausgehen": 4481,
    "verbin@@": 4081,
    "höher": 1854,
    "rot@@": 5135,
    "respon@@": 7363,
    "od": 5882,
    "him": 6770,
    "Erklär@@": 5383,
    "Mai": 3945,
    "QE": 6468,
    "seri@@": 6641,
    "gebil@@": 2384,
    "garanti@@": 3185,
    "Committee": 6911,
    "Stad@@": 5775,
    "ret": 6577,
    "Produ@@": 4335,
    "häu@@": 2682,
    "Jahr@@": 6367,
    "Eis@@": 4950,
    "gesetzt": 2025,
    "Umwelt": 4192,
    "E": 2493,
    "ē": 7600,
    "Sicherheit": 573,
    "ded": 7375,
    "nationaler": 2829,
    "mich": 2382,
    "Güter": 4288,
    "Unterstützung": 430,
    "ni": 6359,
    "abge@@": 1376,
    "ebenso": 489,
    "aida": 4645,
    "Gebur@@": 4724,
    "ichte": 3974,
    "ertes": 3715,
    "Koalition": 4410,
    "zung": 3268,
    "Green@@": 7090,
    "außer@@": 2911,
    "Projekte": 4560,
    "Pe@@": 4940,
    "strä@@": 5414,
    "ante@@": 6607,
    "statt@@": 2121,
    "ming": 7227,
    "Arbei@@": 4470,
    "Steigerung": 3549,
    "AIDS": 4209,
    "zu@@": 120,
    "ry": 5307,
    "tes": 412,
    "1992": 5789,
    "mas@@": 3118,
    "hab@@": 5193,
    "briti@@": 6121,
    "Spitzen@@": 3799,
    "fonds": 3027,
    "Flücht@@": 7163,
    "direkt": 2458,
    "dazu": 226,
    "erwiesen": 4203,
    "höh@@": 4099,
    "gener@@": 5709,
    "luss@@": 3221,
    "The": 5553,
    "mäh@@": 4689,
    "poten@@": 6613,
    "sofern": 4352,
    "eing": 7476,
    "etz": 6036,
    "Administration": 3365,
    "weite": 3762,
    "Spannungen": 2782,
    "folgt": 3088,
    "wissen@@": 2860,
    "bern": 4435,
    "tum@@": 7116,
    "enga@@": 4808,
    "ction": 7376,
    "1999": 4967,
    "beg@@": 1548,
    "stehenden": 2942,
    "Rhetorik": 4792,
    "kenntnis": 2980,
    "krimini@@": 4753,
    "ahr@@": 5471,
    "xi@@": 1413,
    "з": 7495,
    "Schulden": 799,
    "Medikamente": 4052,
    "kommen": 328,
    "eg@@": 1311,
    "zo@@": 2579,
    "Bauern": 3584,
    "ologi@@": 1539,
    "zweitens": 2206,
    "streben": 3818,
    "eld": 6210,
    "Mi@@": 1068,
    "193@@": 3141,
    "а@@": 3865,
    "mit": 29,
    "ling": 4587,
    "mö@@": 3598,
    "ings": 4845,
    "länger": 2111,
    "Sinn": 4036,
    "Unabhängigkeit": 2029,
    "Großbritanniens": 4347,
    "P@@": 144,
    "verändern": 4603,
    "Kredit@@": 884,
    "könnte": 147,
    "oms": 5534,
    "näh@@": 2944,
    "CO2": 1920,
    "erweise": 3515,
    "bauen": 1819,
    "fund": 5877,
    "dap@@": 6630,
    "Africa": 7166,
    "Minister@@": 6726,
    "version": 6674,
    "inv@@": 6917,
    "謑@@": 7631,
    "manu@@": 6990,
    "text": 5611,
    "genannten": 2176,
    "entfern@@": 6362,
    "ying": 7358,
    "möglichen": 3047,
    "fand": 3385,
    "Debatte": 1735,
    "extrem": 4902,
    "Präsident": 358,
    "ehr": 4673,
    "örderung": 5759,
    "US": 183,
    "ke@@": 5092,
    "vol@@": 4249,
    "anktionen": 6310,
    "offensichtlich": 2449,
    "perman@@": 6248,
    "darstellen": 3474,
    "vo": 6830,
    "ordini@@": 3587,
    "ins@@": 3436,
    "Kra@@": 5168,
    "Zahlungs@@": 2593,
    "ners": 6731,
    "chte": 673,
    "wh@@": 7147,
    "multi@@": 5410,
    "Gold@@": 4816,
    "Familie": 3758,
    "hervor@@": 1132,
    "sou@@": 6147,
    "Tradi@@": 3570,
    "und@@": 1898,
    "willing@@": 7498,
    "italien@@": 4047,
    "grund": 2095,
    "gestie@@": 6790,
    "toren": 2929,
    "幸@@": 7636,
    "Familien": 3255,
    "Frank@@": 5684,
    "Rat": 4532,
    "unterschei@@": 3503,
    "inter@@": 1229,
    "chil@@": 5617,
    "nissen": 1947,
    "Milliarden": 423,
    "ā@@": 7602,
    "quidi@@": 7338,
    "Patienten": 3100,
    "müssten": 3673,
    "schwachen": 4505,
    "Idee": 1905,
    "Ort": 3464,
    "Anteil": 1186,
    "offen": 2878,
    "entscheidende": 3931,
    "Klu@@": 6870,
    "con@@": 6759,
    "Märkten": 3309,
    "for@@": 826,
    "of": 1145,
    "ach": 1659,
    "prof@@": 5761,
    "kel@@": 5204,
    "guli@@": 5254,
    "fest": 2335,
    "Punkt": 2216,
    "Milli@@": 5060,
    "Gipfel": 3196,
    "Entscheidung@@": 6405,
    "о@@": 1286,
    "ähnlich": 2907,
    "nahme": 730,
    "Währungs@@": 1496,
    "fur@@": 5783,
    "wom@@": 4141,
    "О@@": 7575,
    "liegen": 837,
    "fem@@": 6822,
    "1980": 5645,
    ":": 67,
    "Erfahr@@": 7214,
    "tig@@": 1322,
    "Kampf": 964,
    "Armut": 994,
    "spartn@@": 4097,
    "sens": 6642,
    "Scho@@": 3203,
    "verbrei@@": 1442,
    "&#91;": 5736,
    "mente": 2062,
    "chemi@@": 5806,
    "öff@@": 2023,
    "äh@@": 2417,
    "wachstum": 2255,
    "ehem@@": 6178,
    "Р@@": 7574,
    "Maß": 3593,
    "muslimischen": 4212,
    "umfassen@@": 2799,
    "lichten": 4166,
    "europa": 2683,
    "gy": 7189,
    "lied": 6492,
    "Qualität": 4551,
    "System": 728,
    "Fun@@": 5161,
    "kes": 5308,
    "Bes@@": 1312,
    "●": 7494,
    "gas": 5847,
    "tot@@": 5743,
    "zip@@": 4952,
    "mark@@": 1902,
    "kin": 6993,
    "are": 1336,
    "can@@": 6929,
    "Probleme": 502,
    "as@@": 427,
    "wich@@": 6557,
    "uns": 300,
    "Militär": 3769,
    "ns": 4114,
    "nah@@": 2054,
    "grundlegenden": 3250,
    "ies": 7470,
    "nehmen": 482,
    "č": 7601,
    "Armen": 2485,
    "Afrika": 1138,
    "sever@@": 7002,
    "eil": 6587,
    "tierten": 4396,
    "ganz": 635,
    "eist@@": 4612,
    "eit": 1350,
    "id": 5561,
    "är@@": 607,
    "Ma@@": 882,
    "mur@@": 7435,
    "Hoff@@": 5075,
    "eh@@": 416,
    "vielmehr": 2000,
    "verlang@@": 2090,
    "sist@@": 5387,
    "neten": 1650,
    "tim@@": 2715,
    "leben": 530,
    "testen": 3481,
    "produk@@": 2557,
    "Geschäfts@@": 2393,
    "niedrigen": 3239,
    "cre@@": 6631,
    "häl@@": 3907,
    "heben": 2538,
    "Su@@": 1686,
    "Sti@@": 1118,
    "ge@@": 57,
    "unabhängig": 3672,
    "‑": 6874,
    "ck@@": 473,
    "Er@@": 132,
    "Al": 2882,
    "America": 6727,
    "Kenn@@": 5030,
    "Monat": 2498,
    "cer@@": 7161,
    "annu@@": 7348,
    "tere": 2148,
    "gekommen": 2517,
    "dritte": 4674,
    "beiden": 542,
    "atives": 6459,
    "to": 1353,
    "Angele@@": 3092,
    "gesch@@": 350,
    "Ob@@": 4630,
    "ц@@": 6516,
    "heraus@@": 2653,
    "gelassen": 4179,
    "fl@@": 649,
    "Worten": 3848,
    "ben": 394,
    "wei": 6432,
    "Är@@": 3103,
    "ünf@@": 5134,
    "Flüchtling@@": 3292,
    "Widerstand": 2771,
    "Eigent@@": 2651,
    "Katastrophe": 3550,
    "Spra@@": 3440,
    "promin@@": 6148,
    "darunter": 1654,
    "ihrer": 177,
    "Myan@@": 7113,
    "ächen": 5128,
    "ts": 368,
    "Mitte": 2058,
    "läss@@": 4606,
    "prob@@": 6986,
    "ат@@": 6600,
    "personal": 7078,
    "menten": 3419,
    "prakti@@": 2719,
    "Sp@@": 1377,
    "Fis@@": 7322,
    "€": 6515,
    "eiten": 5551,
    "atastrop@@": 3527,
    "Institu@@": 3689,
    "afri@@": 4269,
    "dramati@@": 2708,
    "förder@@": 2310,
    "Grenz@@": 3902,
    "zusätzlich": 3832,
    "Solidarität": 4484,
    "hän@@": 2764,
    "WTO": 5997,
    "Davi@@": 7523,
    "wissenschaftliche": 4533,
    "tens": 1296,
    "Stabilität": 1168,
    "Ansatz": 944,
    "verbess@@": 3331,
    "einer": 42,
    "gradu@@": 7441,
    "ault": 6840,
    "gar": 1233,
    "sollen": 1267,
    "selb@@": 6552,
    "tierte": 4535,
    "Boden": 4278,
    "kers": 6646,
    "pli@@": 6664,
    "verfüg@@": 3817,
    "verpflichtet": 3878,
    "Sowjetunion": 2574,
    "weisen": 848,
    "setzung": 1415,
    "institution@@": 2133,
    "warten": 3643,
    "Bo@@": 1003,
    "Faktor": 4194,
    "gewis@@": 2150,
    "ca": 4828,
    "modi@@": 6287,
    "hoher": 3908,
    "Viet@@": 6632,
    "wichtige": 1008,
    "Weg": 563,
    "Anleihen": 2303,
    "erten": 233,
    "Kar@@": 1897,
    "tribu@@": 7385,
    "&#93;": 5735,
    "л": 7455,
    "Gesprä@@": 5139,
    "ruppe": 6033,
    "Entschei@@": 7215,
    "äußerst": 4490,
    "besteht": 459,
    "Brasi@@": 5734,
    "Hollande": 5976,
    "berei@@": 1101,
    "licher": 389,
    "interpre@@": 5730,
    "鋟@@": 7624,
    "überwiegend": 3904,
    "politischer": 888,
    "erleich@@": 4103,
    "systemi@@": 5565,
    "stat@@": 1360,
    "sich": 21,
    "hatten": 716,
    "beenden": 3475,
    "Interessen": 886,
    "mität": 7038,
    "programm": 2421,
    "UK": 7050,
    ".000": 2660,
    "Alli@@": 4067,
    "suchen": 2320,
    "trotz": 676,
    "ack@@": 4391,
    "tho@@": 5305,
    "Å@@": 7662,
    "sicher@@": 1035,
    "cc@@": 6654,
    "dire@@": 1950,
    "sozi@@": 1381,
    "gesellschaft": 5883,
    "Investi@@": 3489,
    "ahr": 2917,
    "Ära": 3607,
    "gas@@": 3420,
    "Resol@@": 5360,
    "int": 6866,
    "sk@@": 611,
    "tz@@": 1387,
    "Wel@@": 5485,
    "Redu@@": 7412,
    ".": 6,
    "pas@@": 1731,
    "wann": 2909,
    "drän@@": 5145,
    "um": 32,
    "ual": 7328,
    "nichts": 754,
    "Preise": 1614,
    "Versprechen": 2920,
    "tät": 1476,
    "elit@@": 7191,
    "infra@@": 7174,
    "wiesen": 4602,
    "fan@@": 3913,
    "á": 7530,
    "aten@@": 4009,
    "offen@@": 995,
    "nötig": 2069,
    "ee@@": 6823,
    "fähi@@": 1965,
    "Vergangen@@": 7520,
    "heits@@": 1599,
    "20@@": 3631,
    "les": 4167,
    "St@@": 287,
    "˚": 7542,
    "veau": 4653,
    "í@@": 6531,
    "que": 6410,
    "黚@@": 7550,
    "multi": 7392,
    "ine@@": 4781,
    "derart": 2470,
    "argumentieren": 3448,
    "internation@@": 5459,
    "Liquidi@@": 2818,
    "Nordkorea": 3006,
    "National": 5587,
    "junge": 2724,
    "Exper@@": 5841,
    "ce": 4864,
    "aktuelle": 2113,
    "ac@@": 1880,
    "stal@@": 5649,
    "fast": 627,
    "ds": 1815,
    "Tran@@": 3461,
    "Inflation": 894,
    "pag@@": 6627,
    "ject": 6787,
    "unseren": 2744,
    "sur@@": 5716,
    "ähnlicher": 3970,
    "leiten": 3345,
    "ş": 7578,
    "rö@@": 5422,
    "sex@@": 7336,
    "Anfang": 1521,
    "agi@@": 3528,
    "tation": 4162,
    "riesi@@": 3302,
    "Party": 5928,
    "bietet": 1788,
    "einzelnen": 2974,
    "sil@@": 6491,
    "ationen": 668,
    "explo@@": 5764,
    "öhne": 5843,
    "zieren": 2371,
    "Wahl@@": 1269,
    "über": 56,
    "gehöri@@": 3319,
    "Kriti@@": 6582,
    "Ba@@": 5333,
    "Mu@@": 1478,
    "schn@@": 1840,
    "alles": 833,
    "ld": 2365,
    "Zusammenhang": 1904,
    "Glob@@": 5233,
    "ausgaben": 1737,
    "Aufmerk@@": 7416,
    "at@@": 239,
    "anderes": 3401,
    "fein@@": 2316,
    "kräfte": 1754,
    "etz@@": 1366,
    "anzu@@": 555,
    "demokrati@@": 2082,
    "neg@@": 5191,
    "Überwach@@": 6169,
    "position": 6020,
    "solche": 778,
    "verän@@": 6088,
    "lautet": 3989,
    "beitragen": 1685,
    "got@@": 7009,
    "Naz@@": 5528,
    "soziale": 1844,
    "Aus@@": 172,
    "blo@@": 2832,
    "internationaler": 2469,
    "yo@@": 6797,
    "neighb@@": 7367,
    "00": 2546,
    "entscheidend": 3423,
    "bten": 2650,
    "ating": 6124,
    "rechts@@": 4640,
    "vergangenen": 1062,
    "and": 735,
    "niedrig@@": 2813,
    "weiten": 3110,
    "Arbeitnehmer": 3864,
    "Th@@": 5987,
    "mmt": 4155,
    "Export@@": 3529,
    "Lin@@": 2518,
    "ami": 5571,
    "sel": 1193,
    "vor": 76,
    "Populi@@": 4580,
    "Gebi@@": 4997,
    "fil@@": 6185,
    "statisti@@": 6784,
    "kor@@": 1506,
    "Cent@@": 6109,
    "Gro@@": 5749,
    "OR@@": 7051,
    "beigetragen": 3581,
    "Ele@@": 2067,
    "Kopf": 2155,
    "stream": 6418,
    "rea": 7103,
    "nachfrage": 4342,
    "Früh@@": 3158,
    "rative": 6832,
    "&quot;": 22,
    "Gruppe": 1452,
    "später": 1213,
    "sah": 5018,
    "zahl": 3324,
    "Milosevi@@": 5849,
    "jap@@": 6060,
    "Nationalismus": 4304,
    "erklär@@": 5184,
    "pen@@": 1761,
    "bisher": 1047,
    "Philipp@@": 5598,
    "Atom@@": 1109,
    "weit@@": 2928,
    "emis@@": 4972,
    "eini@@": 1611,
    "innovative": 6053,
    "Antwort": 1739,
    "k@@": 66,
    "ć": 6923,
    "Wertpap@@": 4438,
    "wobei": 1408,
    "das@@": 7160,
    "asiatischen": 3604,
    "schie@@": 1624,
    "Asien": 1187,
    "schlagen": 2132,
    "vertei@@": 2854,
    "out": 6277,
    "setzte": 3575,
    "uren": 1460,
    "sitz": 3357,
    "zugleich": 1489,
    "digt": 2282,
    "д": 7526,
    "Unter@@": 612,
    "bereich": 2916,
    "kt": 386,
    "d@@": 95,
    "Mubar@@": 6555,
    "ausreich@@": 5381,
    "Greensp@@": 5809,
    "figu@@": 6918,
    "Ländern": 204,
    "kanischen": 3834,
    "gangen@@": 5982,
    "Hypothek@@": 2841,
    "Kyoto": 5799,
    "mittel": 1391,
    "ë@@": 7658,
    "cti@@": 7316,
    "gefunden": 4058,
    "passen": 3132,
    "instru@@": 6422,
    "Ministerprä@@": 5074,
    "gt": 256,
    "all@@": 523,
    "ino@@": 6236,
    "jener": 2640,
    "Chaos": 4348,
    "volution": 6276,
    "erlei": 3728,
    "obil@@": 5063,
    "wün@@": 2646,
    "Banglades@@": 5811,
    "aufge@@": 1129,
    "Migration": 4467,
    "Gesund@@": 6469,
    "nationalen": 803,
    "Ger@@": 2797,
    "wert": 990,
    "erster": 2385,
    "Mit@@": 807,
    "ш@@": 6592,
    "Fall": 499,
    "Bevölk@@": 5532,
    "ures": 7327,
    "bestimmt": 2993,
    "wick@@": 5622,
    "außerdem": 796,
    "ally": 7070,
    "stu@@": 1899,
    "yi@@": 6261,
    "staun@@": 5078,
    "servative": 5670,
    "tg@@": 7117,
    "Handeln": 4678,
    "half": 6267,
    "Verpflich@@": 4955,
    "th": 5398,
    "len@@": 1107,
    "3.@@": 6829,
    "ks@@": 4803,
    "one": 3076,
    "spru@@": 5212,
    "Mand@@": 4812,
    "Mich@@": 5147,
    "ding": 6524,
    "örper@@": 2578,
    "Abbas": 5244,
    "tage": 6585,
    "Person": 4336,
    "sagt": 4458,
    "Tage": 2726,
    "Nachbarn": 2254,
    "brau@@": 3457,
    "gende": 914,
    "Geldpolitik": 1729,
    "gun@@": 5194,
    "weitgehend": 4891,
    "leiden": 2123,
    "h@@": 174,
    "West@@": 2098,
    "schließ@@": 3238,
    "Fein@@": 1924,
    "Vertr@@": 4790,
    "Seiten": 1703,
    "prote@@": 5279,
    "n": 220,
    "Vier@@": 3839,
    "asion": 5289,
    "wirtschafts@@": 2821,
    "emy": 7190,
    "uba": 5556,
    "ssen": 1279,
    "et@@": 324,
    "reduzieren": 2970,
    "tungs@@": 1143,
    "т@@": 3479,
    "ha@@": 1427,
    "erfü@@": 4355,
    "letzten": 268,
    "ways": 7460,
    "U": 3997,
    "all": 961,
    "selbe": 6952,
    "ad@@": 1027,
    "ia": 5036,
    "öl@@": 4279,
    "wichtigste": 2923,
    "Sk@@": 2727,
    "ris@@": 2548,
    "nali@@": 5794,
    "Im@@": 1327,
    "с": 7296,
    "schlä@@": 5047,
    "ative": 2754,
    "J": 5503,
    "hoh@@": 3456,
    "19@@": 1208,
    "Ahma@@": 7295,
    "L": 6488,
    "dungen": 1821,
    "Industrieländern": 3746,
    "konfrontiert": 2931,
    "konsu@@": 4822,
    "Zwei@@": 5523,
    "wird": 45,
    "reale": 4569,
    "deutlich": 750,
    "Е@@": 7541,
    "2008": 920,
    "niti@@": 6309,
    "tatsäch@@": 4441,
    "Rückgang": 2128,
    "su@@": 1251,
    "Best@@": 1073,
    "ол@@": 6583,
    "märkte": 1875,
    "ategi@@": 7485,
    "theo@@": 5241,
    "on@@": 345,
    "aig@@": 7212,
    "drückt": 5552,
    "uan": 6206,
    "aren": 2388,
    "präsen@@": 3484,
    "angeblich": 3882,
    "läne": 6522,
    "Ökonomie": 3219,
    "Konjun@@": 4996,
    "±": 7614,
    "Islam": 2533,
    "defen@@": 7108,
    "versu@@": 2740,
    "ai": 5438,
    "M": 4346,
    "autom@@": 6711,
    "schem": 1964,
    "Kritiker": 4814,
    "allzu": 4170,
    "USA": 101,
    "then": 6262,
    "Cy@@": 5396,
    "Problemen": 3627,
    "Bar@@": 1908,
    "ы@@": 5790,
    "regimes": 7060,
    "¼": 7613,
    "Treffen": 4024,
    "Goog@@": 5888,
    "fir@@": 5891,
    "Partn@@": 5848,
    "Schi@@": 2692,
    "worfen": 3973,
    "Schule": 4720,
    "strö@@": 4152,
    "R": 2220,
    "Lage": 565,
    "Klein@@": 4922,
    "Handel@@": 2293,
    "ay@@": 5478,
    "plan@@": 4070,
    "Geor@@": 7491,
    "verbunden": 2562,
    "ents": 3445,
    "nieder@@": 4045,
    "sion@@": 4445,
    "Hinter@@": 3140,
    "John": 4159,
    "soft": 6433,
    "Prä@@": 1389,
    "fs@@": 5535,
    "globalen": 453,
    "Status": 2064,
    "dung@@": 6083,
    "beide": 1020,
    "bestimmte": 3531,
    "verlieren": 2182,
    "mischen": 4343,
    "mindestens": 2762,
    "multin@@": 5815,
    "Niveau": 2482,
    "fern@@": 4611,
    "Trump": 2925,
    "American": 6443,
    "Geh@@": 2262,
    "Do@@": 2056,
    "zusetzen": 1943,
    "Untersuch@@": 2859,
    "forder@@": 3058,
    "darauf": 363,
    "la@@": 442,
    "israeli@@": 5295,
    "r@@": 242,
    "weiter": 379,
    "onal@@": 5992,
    "konserv@@": 4823,
    "Commission": 6886,
    "limate": 6862,
    "tungen": 849,
    "Gaz@@": 4649,
    "reagi@@": 3893,
    "Kombination": 4274,
    "mittler@@": 6317,
    "Gele@@": 6293,
    "fühlen": 4402,
    "ften": 1601,
    "war": 92,
    "Wechselkur@@": 2020,
    "i": 326,
    "27": 5862,
    "pr@@": 5365,
    "ar": 866,
    "achen": 2004,
    "Rückkehr": 3090,
    "Bank@@": 1368,
    "Si@@": 5003,
    "ер@@": 6471,
    "zweifel@@": 4491,
    "richtungen": 3399,
    "Bro@@": 3888,
    "frie@@": 1564,
    "vision": 6846,
    "seien": 2074,
    "ority": 7187,
    "Georgien": 4817,
    "umzu@@": 3681,
    "kultu@@": 6360,
    "positive": 4917,
    "konnte": 1111,
    "wir@@": 2188,
    "Souveränität": 4183,
    "Konzept": 4453,
    "stens": 2656,
    "spi@@": 6298,
    "ang@@": 521,
    "zeit@@": 2977,
    "tan": 5907,
    "echte": 3121,
    "б": 7590,
    "falsch": 2837,
    "gän@@": 1152,
    "ect": 7343,
    "Venezuel@@": 6869,
    "too": 7330,
    "м": 6225,
    "f": 339,
    "lose@@": 7105,
    "ple": 7365,
    "Interesse": 1443,
    "sav@@": 7204,
    "Transparenz": 4717,
    "rem": 6018,
    "Som@@": 3177,
    "basi@@": 3899,
    "F@@": 143,
    "ments": 2979,
    "Berluscon@@": 6659,
    "well": 6766,
    "wollen": 765,
    "olle": 6034,
    "intern@@": 3346,
    "Frauen": 643,
    "block@@": 4925,
    "ür@@": 616,
    "Einigung": 3691,
    "funding": 7157,
    "Bemühungen": 901,
    "ta": 4980,
    "as": 425,
    "hy@@": 3712,
    "politisch": 1545,
    "ck": 2008,
    "Gesch@@": 3188,
    "own": 7079,
    "tn@@": 2250,
    "0": 5978,
    "ffen": 2298,
    "gul@@": 6928,
    "Donald": 5332,
    "Re@@": 225,
    "agno@@": 5273,
    "geri@@": 1365,
    "ement": 6120,
    "Brenn@@": 2819,
    "teren": 2501,
    "nee@@": 7368,
    "islami@@": 2290,
    "dul@@": 5222,
    "mög@@": 4958,
    "atan": 7406,
    "still@@": 4707,
    "sucht": 4397,
    "amerikani@@": 6354,
    "э@@": 6624,
    "provo@@": 6068,
    "weder": 1791,
    "Teil@@": 2063,
    "behin@@": 3638,
    "x": 1538,
    "han": 6548,
    "arme": 4169,
    "vers@@": 1670,
    "Jahrzeh@@": 5217,
    "Strukturreformen": 4271,
    "Bei@@": 934,
    "ländern": 2194,
    "2015": 2263,
    "Revolution": 1404,
    "eig@@": 1058,
    "obs": 5378,
    "ld@@": 6916,
    "positi@@": 2845,
    "während": 181,
    "da@@": 738,
    "Dis@@": 1646,
    "Aktivitäten": 2521,
    "bleiben": 631,
    "ö": 7548,
    "Zentralbanken": 1900,
    "č@@": 7552,
    "Vi@@": 1457,
    "Medikam@@": 5683,
    "遝@@": 7557,
    "jene": 1122,
    "Angriff": 2596,
    "jen@@": 2558,
    "amp": 5272,
    "zwingen": 3256,
    "Griechenlands": 4289,
    "Ru@@": 1136,
    "Erdo@@": 6779,
    "essor": 6302,
    "assen": 5494,
    "thin": 4226,
    "this": 7097,
    "onom@@": 4840,
    "ing@@": 1542,
    "Entwicklung": 320,
    "Herausforderungen": 1197,
    "mag": 1526,
    "Industrie@@": 3478,
    "frei@@": 1067,
    "verz@@": 3046,
    "bedeutet": 818,
    "1990er": 2584,
    "geringer": 4881,
    "verl@@": 3022,
    "Konsequenzen": 4376,
    "kontrolli@@": 2080,
    "anz": 925,
    "his": 7286,
    "maß@@": 3508,
    "sem@@": 7003,
    "krä@@": 7021,
    "Spr@@": 6094,
    "ganzen": 1942,
    "merk@@": 4943,
    "referendum": 7244,
    "nehmer": 4899,
    "zy@@": 2210,
    "bilanz@@": 5691,
    "Ukra@@": 6699,
    "had": 6326,
    "gr@@": 862,
    "Milit@@": 4956,
    "weitung": 7300,
    "w": 2147,
    "tschaft": 5564,
    "Voraus@@": 2853,
    "Verfügung": 1693,
    "bieten": 846,
    "*": 7553,
    "volu@@": 4054,
    "4.@@": 6947,
    "fun@@": 3026,
    "befinden": 2339,
    "eren": 102,
    "ehemaligen": 2231,
    "genommen": 717,
    "besonders": 874,
    "Portu@@": 7266,
    "George": 2728,
    "langfristigen": 1835,
    "neu": 1231,
    "Ergeb@@": 5810,
    "überzeugen": 4427,
    "wer@@": 415,
    "zumindest": 1070,
    "As@@": 3747,
    "Gleich@@": 2156,
    "0.000": 2015,
    "fal@@": 2690,
    "daten": 5468,
    "amin": 5837,
    "es": 17,
    "Position": 2425,
    "gewähl@@": 2732,
    "Forum": 5932,
    "ume": 5157,
    "kan": 5357,
    "Spit@@": 3734,
    "aufzubauen": 3943,
    "Ahmadine@@": 5334,
    "Mad@@": 5404,
    "fe": 518,
    "traditionelle": 4859,
    "mu@@": 1090,
    "auß@@": 7405,
    "ache": 1803,
    "Dec@@": 5933,
    "cking": 6974,
    "Umwelt@@": 1774,
    "zeigen": 1263,
    "reifen": 2844,
    "Hus@@": 6368,
    "solchen": 2051,
    "Politik": 271,
    "Reaktion": 1558,
    "abil@@": 6311,
    "sag@@": 6096,
    "Fi@@": 2180,
    "90": 4414,
    "entlichen": 2739,
    "einge@@": 1434,
    "bro@@": 5681,
    "ag@@": 665,
    "Angel@@": 6401,
    "bedeu@@": 6163,
    "schlechte": 3951,
    "liberal": 6850,
    "il@@": 732,
    "diejenigen": 1423,
    "Legiti@@": 7129,
    "Zu@@": 422,
    "Volkswirtschaften": 1121,
    "berech@@": 2171,
    "Staatsschulden": 4549,
    "Demokrati@@": 3723,
    "gaben": 1643,
    "Lös@@": 6571,
    "Mech@@": 7413,
    "wider": 2790,
    "kti@@": 1409,
    "IS@@": 5740,
    "damals": 1666,
    "IP": 6274,
    "stage": 7220,
    "guten": 3372,
    "bit": 7404,
    "diver@@": 6995,
    "Ange@@": 2446,
    "allgem@@": 5739,
    "ament@@": 3410,
    "plant": 5324,
    "Gefühl": 2513,
    "va@@": 7217,
    "greifen": 2949,
    "wirken": 1851,
    "union": 4521,
    "O": 1917,
    "nit@@": 5325,
    "samm@@": 5234,
    "ünsti@@": 3513,
    "Fr@@": 2212,
    "Diskussion": 3692,
    "rich@@": 1268,
    "not@@": 5956,
    "Mittel": 1203,
    "alis@@": 6741,
    "Sh@@": 4719,
    "ner": 1426,
    "cha@@": 6222,
    "beispielsweise": 629,
    "South": 7352,
    "Wun@@": 3821,
    "größer": 3024,
    "bab@@": 6100,
    "Sozial@@": 1420,
    "sche@@": 4446,
    "Mehrheit": 1326,
    "Weltkrieg": 2687,
    "Ziele": 919,
    "lev@@": 7106,
    "bis@@": 5807,
    "ō@@": 7580,
    "miteinander": 3272,
    "鰈@@": 7622,
    "Plan": 1973,
    "werde": 4014,
    "Abe": 5319,
    "Art": 536,
    "Net@@": 1990,
    "shi@@": 5833,
    "isla@@": 6865,
    "dependence": 7258,
    "betrifft": 4658,
    "Ersparnisse": 4619,
    "populi@@": 3556,
    "ausländischen": 3260,
    "moderni@@": 6251,
    "anj@@": 5057,
    "‒": 7644,
    "Mädchen": 4305,
    "reli@@": 7018,
    "Bosni@@": 5853,
    "tac@@": 6463,
    "nbsp": 903,
    "wenigen": 4911,
    "Verwal@@": 2710,
    "zufrie@@": 2798,
    "bah@@": 4593,
    "Pun@@": 5237,
    "Thema": 1864,
    "ł": 7595,
    "ony": 5980,
    "omi@@": 5948,
    "gruppen": 3240,
    "House": 7089,
    "Son@@": 4629,
    "anstatt": 2066,
    "blu@@": 5662,
    "markt@@": 2801,
    "was": 111,
    "asy@@": 6186,
    "Schritte": 2627,
    "angewiesen": 4333,
    "2020": 5518,
    "komplex@@": 2306,
    "group": 6893,
    "tu@@": 2034,
    "Entwicklungen": 2893,
    "Wei@@": 1240,
    "И@@": 7592,
    "unmittelbar": 4729,
    "Sa@@": 4106,
    "Q": 7196,
    "Ta@@": 2491,
    "Gemeinschaft": 1216,
    "poli@@": 4971,
    "Risiko": 1223,
    "erweiter@@": 3765,
    "Energien": 4308,
    "9@@": 1642,
    "Sonder@@": 4272,
    "anta@@": 5925,
    "Handel": 1343,
    "verursacht": 3622,
    "Republi@@": 5798,
    "so": 68,
    "belief": 6809,
    "wenige": 2295,
    "Verbess@@": 5137,
    "hinzu@@": 4555,
    "ger": 213,
    "ffs": 6092,
    "Kapit@@": 4631,
    "Informationen": 2309,
    "Demokraten": 4726,
    "deli@@": 7478,
    "abor@@": 6896,
    "gner": 6454,
    "zte": 4818,
    "La@@": 5067,
    "lot": 7309,
    "cht": 248,
    "ffi@@": 6736,
    "y@@": 428,
    "hang": 6041,
    "ie@@": 983,
    "Libanon": 2890,
    "Staat": 642,
    "üh@@": 1085,
    "irgend@@": 1094,
    "fail": 7445,
    "Ti@@": 1789,
    "anc@@": 3820,
    "uk": 7464,
    "ection": 7398,
    "kurz": 2345,
    "Grundlage": 1253,
    "manch@@": 6395,
    "Ang@@": 5899,
    "P": 1881,
    "auth@@": 6811,
    "gesagt": 1982,
    "haf@@": 1671,
    "effek@@": 3211,
    "thin@@": 7034,
    "Nahr@@": 6029,
    "den": 11,
    "fiel": 3912,
    "Arabi@@": 3948,
    "Stärke": 4077,
    "Gul@@": 6778,
    "Ebene": 1544,
    "fordern": 2810,
    "Frau": 3876,
    "Sektoren": 4831,
    "Problem": 450,
    "ail": 6037,
    "rie@@": 1445,
    "Veränder@@": 7350,
    "anks": 7318,
    "danach": 3327,
    "sourc@@": 5600,
    "lands": 5659,
    "richtig": 3655,
    "enter": 3836,
    "genauso": 2742,
    "sinn@@": 2800,
    "dence": 7374,
    "sowohl": 600,
    "event@@": 6413,
    "ed": 3730,
    "ан@@": 6593,
    "digung": 1929,
    "generation": 6853,
    "niemand": 1993,
    "ehen": 1225,
    "down": 6972,
    "Rus@@": 6155,
    "fü@@": 1161,
    "nov@@": 7391,
    "etzt": 5393,
    "üp@@": 4910,
    "bi@@": 390,
    "enkt": 4119,
    "Uni@@": 5248,
    "cle@@": 7069,
    "bin@@": 2127,
    "sionen": 905,
    "Sub@@": 3548,
    "Vertei@@": 6093,
    "bud@@": 7290,
    "lain": 7341,
    "interven@@": 5902,
    "fair": 5825,
    "Program@@": 5299,
    "Gr@@": 3265,
    "groß@@": 1324,
    "openhagen": 5158,
    "Progra@@": 6621,
    "aufgrund": 404,
    "keinen": 910,
    "ef@@": 2873,
    "Zeit": 237,
    "damit": 236,
    "these": 6638,
    "the@@": 2896,
    "air": 7127,
    "letztlich": 1462,
    "kurzem": 2642,
    "Del@@": 5829,
    "nachzu@@": 4285,
    "pes@@": 6643,
    "Des@@": 5411,
    "vers": 6847,
    "ein@@": 87,
    "genie@@": 3393,
    "extra@@": 7024,
    "atori@@": 5103,
    "Privat@@": 2260,
    "bun@@": 6063,
    "3": 698,
    "War@@": 2219,
    "ma@@": 446,
    "probleme": 4687,
    "beginnen": 2781,
    "ungefähr": 2655,
    "wieder": 330,
    "p@@": 327,
    "De@@": 737,
    "vom": 289,
    "Mubarak": 5777,
    "verhindern": 992,
    "ktur": 2502,
    "pack@@": 6953,
    "Länder": 140,
    "doch": 114,
    "bar@@": 1781,
    "lig@@": 5416,
    "ischen": 1590,
    "gegen": 134,
    "wachsenden": 2550,
    "Yor@@": 6423,
    "basis": 5767,
    "rit@@": 834,
    "fall": 1104,
    "geprä@@": 6160,
    "ritt": 4893,
    "erscheint": 3716,
    "unterschie@@": 2752,
    "Zei@@": 1011,
    "vis@@": 7131,
    "Abkommen": 1487,
    "anleihen": 6115,
    "ous": 7281,
    "beinahe": 1822,
    "dert": 2448,
    "ateg@@": 5580,
    "schwierig": 1852,
    "dan": 6269,
    "flation@@": 5235,
    "Y": 6450,
    "ations": 6550,
    "Fonds": 2824,
    "kus@@": 5560,
    "gleichzeitig": 1091,
    "ge": 118,
    "ung": 63,
    "Eurozone": 533,
    ",@@": 1471,
    "Gewalt": 890,
    "für": 18,
    "weni@@": 6983,
    "bruch": 2039,
    "gesell@@": 5048,
    "Plan@@": 2333,
    "Polen": 2575,
    "Einkommens@@": 2378,
    "ati@@": 498,
    "öh@@": 2270,
    "Parl@@": 5327,
    "gue": 7472,
    "prä@@": 1134,
    "dete": 965,
    ")": 74,
    "Spann@@": 6776,
    "Erfol@@": 4381,
    "betra@@": 2805,
    "Systems": 3338,
    "zens": 7273,
    "in@@": 142,
    "lle": 2265,
    "Alternative": 2701,
    "fs": 4101,
    "Weltwirtschaft": 1097,
    "gemacht": 1010,
    "Kapital@@": 721,
    "ense": 7289,
    "ex@@": 1170,
    "gewi@@": 2138,
    "letzte": 2745,
    "dri@@": 4936,
    "East": 7179,
    "黵": 7569,
    "Behandlung": 2774,
    "national": 6747,
    "strate@@": 7243,
    "ci@@": 3083,
    "emo@@": 5136,
    "cks": 2722,
    "Ret@@": 4963,
    "zi@@": 156,
    "Entwicklungsländern": 1595,
    "aggres@@": 5104,
    "Methode": 4769,
    "Dar@@": 2783,
    "lin@@": 1113,
    "vorbei": 4748,
    "notwendig": 1944,
    "moral": 6732,
    "apaz@@": 5444,
    "inet@@": 6218,
    "lat@@": 2570,
    "einzi@@": 2302,
    "stän@@": 1766,
    "el@@": 245,
    "welt": 5150,
    "Provin@@": 5037,
    "ž@@": 7055,
    "Staates": 2030,
    "et": 619,
    "test": 6089,
    "dende": 4287,
    "xis": 3984,
    "ress": 6453,
    "than": 6428,
    "Infrastruktur": 1396,
    "of@@": 3333,
    "univers@@": 6066,
    "dnis": 4644,
    "gegenwärtige": 4624,
    "Du@@": 5555,
    "Schulden@@": 794,
    "vot@@": 7499,
    "Afghanistan": 1529,
    "rän@@": 6247,
    "insgesamt": 1859,
    "zeh@@": 6195,
    "ering": 6749,
    "recht@@": 1656,
    "gosla@@": 5805,
    "opp@@": 4030,
    "Chinas": 449,
    "gewählt": 3557,
    "Kandidaten": 2766,
    "Öl@@": 880,
    "eter": 2439,
    "Risiko@@": 3563,
    "glich": 1540,
    "Wech@@": 6723,
    "Aussicht": 4872,
    "gesehen": 1451,
    "ble@@": 4944,
    "haft": 1763,
    "indi@@": 1313,
    "felt": 6082,
    "bestimm@@": 4975,
    "aly@@": 6270,
    "sicht": 1144,
    "bul@@": 4938,
    "Afgh@@": 6931,
    "Kriegs@@": 2891,
    "Grün@@": 5169,
    "samen": 3504,
    "export": 7287,
    "befindet": 3050,
    "ager": 2770,
    "transfers": 6728,
    "sien": 2338,
    "Europäische": 1029,
    "formance": 7158,
    "Ke@@": 6400,
    "tliche": 706,
    "billi@@": 2554,
    "stellten": 3011,
    "e": 60,
    "Jahren": 158,
    "lag@@": 1602,
    "zugrunde": 4565,
    "Arbeit": 1133,
    "eth@@": 5443,
    "klas@@": 2897,
    "ose": 6105,
    "Terr@@": 6581,
    "Zah@@": 5280,
    "gran@@": 7229,
    "steigen@@": 5328,
    "steh@@": 2718,
    "ym@@": 7383,
    "ens": 367,
    "höher@@": 3835,
    "Mitgliedsstaaten": 2369,
    "sequ@@": 6032,
    "zufolge": 2207,
    "gestalten": 4344,
    "weiterer": 2894,
    "Binnen@@": 3830,
    "uti@@": 5433,
    "enti@@": 2572,
    "ten@@": 411,
    "hören": 3107,
    "Journali@@": 4632,
    "Arbeitn@@": 5655,
    "ept": 6220,
    "Justi@@": 4599,
    "Zent@@": 3560,
    "å": 7609,
    "konf@@": 5160,
    "q": 6802,
    "nahmen": 1882,
    "Stru@@": 4765,
    "wards": 7461,
    "selbstverständlich": 3301,
    "r": 566,
    "Einklang": 4662,
    "Ben@@": 5109,
    "od@@": 6480,
    "ministers": 5583,
    "Dur@@": 6714,
    "klar": 830,
    "Verfü@@": 6232,
    "Investitions@@": 2022,
    "т": 6530,
    "city": 7515,
    "sili@@": 5630,
    "beträgt": 4496,
    "gg@@": 5867,
    "Möglichkeiten": 1582,
    "Bür@@": 5548,
    "Kontro@@": 4259,
    "show": 7502,
    "Glaubwür@@": 7490,
    "öß@@": 5032,
    "West": 6590,
    "finanziert": 4643,
    "help@@": 7122,
    "amm@@": 1561,
    "gerich@@": 4086,
    "big": 6231,
    "Comm@@": 6795,
    "Spiel": 2341,
    "Hinsicht": 2582,
    "how": 6748,
    "wahrscheinlich": 639,
    "Mensch@@": 3291,
    "pflich@@": 6678,
    "dopp@@": 4937,
    "ev@@": 5971,
    "leh@@": 2112,
    "zehn@@": 4110,
    "Migr@@": 7052,
    "Sing@@": 6633,
    "kaner": 5514,
    "jemand": 4642,
    "Kongress": 2511,
    "2005": 2789,
    "Stag@@": 7111,
    "bt": 575,
    "g@@": 125,
    "ist@@": 2455,
    "Gegensatz": 1695,
    "Ansichten": 3969,
    "duc@@": 6883,
    "bir@@": 5624,
    "lar": 7154,
    "1990": 5031,
    "tal@@": 2856,
    "äche": 2976,
    "Kämp@@": 4321,
    "cl@@": 7481,
    "Arbeitslosigkeit": 1399,
    "wor@@": 2091,
    "jahr@@": 2835,
    "nicht": 25,
    "gesprochen": 4807,
    "impli@@": 4669,
    "Jahr": 161,
    "illi@@": 4235,
    "Cam@@": 6997,
    "\\": 7213,
    "Zivil@@": 5962,
    "verstän@@": 4250,
    "ror": 7205,
    "genann@@": 5247,
    "ал@@": 6660,
    "philosop@@": 6483,
    "bemü@@": 2396,
    "IV": 6981,
    "Notwen@@": 6943,
    "hät@@": 7397,
    "Entwickl@@": 6145,
    "Vorsitz@@": 4023,
    "Herr@@": 5012,
    "liber@@": 1762,
    "Stro@@": 3462,
    "Leute": 3204,
    "80": 3792,
    "Wer@@": 2114,
    "verändert": 4329,
    "thi@@": 4987,
    "leist@@": 5294,
    "zt": 3972,
    "popul@@": 5083,
    "produkti@@": 2672,
    "muslimi@@": 5181,
    "to@@": 840,
    "standen": 1247,
    "kat@@": 5080,
    "digen": 897,
    "Lehr@@": 2277,
    "Klima@@": 1565,
    "stru@@": 2186,
    "Kun@@": 4869,
    "dür@@": 6791,
    "verkaufen": 4665,
    "intensive": 6465,
    "bemerken@@": 3259,
    "ffenen": 4672,
    "Währungen": 3202,
    "ieren": 1126,
    "t@@": 70,
    "State": 7264,
    "la": 6301,
    "20": 694,
    "üch@@": 1509,
    "sektors": 4398,
    "keit": 6604,
    "Wirtschaf@@": 4830,
    "Institute": 5510,
    "teilung": 2296,
    "dor@@": 4294,
    "tat": 4283,
    "bel": 1694,
    "Handels@@": 688,
    "Sowjet@@": 5940,
    "Wieder@@": 1295,
    "aut@@": 6775,
    "Palästinens@@": 5527,
    "sen": 361,
    "Eliten": 4469,
    "erk@@": 2643,
    "könne": 4090,
    "Arabien": 2589,
    "wurde": 130,
    "freund@@": 3686,
    "bedingungen": 3664,
    "jemals": 4115,
    "Hand": 2099,
    "nungen": 1647,
    "eindeutig": 2240,
    "": 7616,
    "schlecht": 2454,
    "х": 6341,
    "geord@@": 2900,
    "but": 6668,
    "Kul@@": 6909,
    "oblig@@": 7152,
    "konzentriert": 4695,
    "funktion@@": 3017,
    "nam@@": 4364,
    "2,@@": 2269,
    "ples": 7224,
    "Trans@@": 2009,
    "Man@@": 1587,
    "facto": 5970,
    "größtenteils": 3543,
    "bilater@@": 3458,
    "spre@@": 6877,
    "45": 5812,
    "bom@@": 5462,
    "quali@@": 5946,
    "Energie": 1734,
    "frem@@": 4511,
    "police": 7467,
    "verk@@": 1089,
    "out@@": 6653,
    "amerikanischer": 4217,
    "Aussch@@": 3124,
    "Arbeitsplätze": 1860,
    "Schul@@": 2497,
    "oud": 6358,
    "utan": 7148,
    "mehr": 93,
    "eigentlich": 2581,
    "ße": 1455,
    "м@@": 5704,
    "schä@@": 1432,
    "ub@@": 5780,
    "Lateinamerika": 2605,
    "mom@@": 7436,
    "Mitglie@@": 6979,
    "N": 4743,
    "atoren": 4785,
    "stock": 7303,
    "Politikern": 4150,
    "erneuer@@": 4229,
    "bor@@": 5453,
    "leger": 6486,
    "ergreifen": 4059,
    "Jahre": 240,
    "ul@@": 513,
    "dam": 6328,
    "verschiedene": 3890,
    "atast@@": 6021,
    "dien@@": 1988,
    "sy@@": 3644,
    "trakti@@": 3492,
    "ght": 6596,
    "soll@@": 7360,
    "ated": 7517,
    "abli@@": 5176,
    "ht": 2992,
    "Erweiterung": 4700,
    "dge": 6939,
    "Brut@@": 4440,
    "lin": 3078,
    "Forderung": 4908,
    "schle@@": 3707,
    "Hau@@": 3187,
    "Systeme": 3998,
    "Moderni@@": 4884,
    "ander@@": 1485,
    "Strategi@@": 6742,
    "stand@@": 4954,
    "Gründung": 4885,
    "Erwar@@": 6011,
    "ild": 4847,
    "still": 6902,
    "etwa": 310,
    "erneu@@": 4735,
    "versch@@": 1065,
    "Zusammenbruch": 2019,
    "trä@@": 2175,
    "derer": 3170,
    "dacht": 4204,
    "eich@@": 5543,
    "?": 146,
    "Jap@@": 7130,
    "überall": 1957,
    "gehör@@": 5302,
    "val": 7240,
    "stem": 6079,
    "progra@@": 7432,
    "lässt": 774,
    "say": 7304,
    "projek@@": 3494,
    "re": 5520,
    "Pop@@": 5085,
    "ermaßen": 4230,
    "new": 7063,
    "acked": 7519,
    "Bom@@": 3759,
    "2001": 2555,
    "mess@@": 6081,
    "sive": 2857,
    "ges@@": 380,
    "dliche": 1533,
    "pl@@": 1741,
    "det": 365,
    "Hypo@@": 6507,
    "rank@@": 3852,
    "begonnen": 4239,
    "is@@": 617,
    "Gen@@": 1412,
    "dens": 5154,
    "eils": 6994,
    "shor@@": 7222,
    "2050": 5726,
    "sour@@": 6640,
    "HIV": 4411,
    "gleiche": 3589,
    "Italien": 1543,
    "Ha@@": 4338,
    "hard": 6614,
    "Bang@@": 6496,
    "bele@@": 2780,
    "ess": 6957,
    "auf@@": 98,
    "arm@@": 5066,
    "steigen": 1087,
    "äuß@@": 1765,
    "Mitglied@@": 5095,
    "ritte": 6498,
    "kamen": 3037,
    "age": 5050,
    "politi@@": 3197,
    "fizi@@": 1043,
    "А": 7648,
    "aktu@@": 4933,
    "Haushalt": 4094,
    "inc@@": 6734,
    "Ausbildung": 2351,
    "kaufen": 2792,
    "Nah@@": 5196,
    "Größe": 4221,
    "sl@@": 4892,
    "diagno@@": 5904,
    "ths": 7202,
    "Frei@@": 1174,
    "aden": 2815,
    "prü@@": 2223,
    "tain@@": 6690,
    "ring@@": 5979,
    "notwen@@": 2264,
    "Phase": 3308,
    "avo@@": 6252,
    "2": 677,
    "Ergebnis": 1083,
    "heim@@": 3872,
    "zini@@": 6194,
    "tan@@": 5752,
    "ordin@@": 5824,
    "erweisen": 3444,
    "tun": 488,
    "Regi@@": 3564,
    "ations@@": 1156,
    "führen": 270,
    "Westen": 821,
    "wir": 78,
    "gefähr@@": 942,
    "India": 7489,
    "Finanzminister": 4261,
    "y": 1030,
    "dic@@": 6151,
    "also": 399,
    "inde@@": 2564,
    "rechte": 2447,
    "rund": 1991,
    "ь@@": 6110,
    "Berlin": 5620,
    "ters": 4282,
    "usammen@@": 7274,
    "gewinn@@": 4420,
    "Prei@@": 4597,
    "holung": 5773,
    "omin@@": 5173,
    "lö@@": 2228,
    "olo@@": 2689,
    "Hy@@": 5317,
    "sage": 4200,
    "globaler": 2899,
    "perat@@": 4896,
    "enh@@": 5827,
    ";": 137,
    "digungs@@": 6280,
    "в@@": 2953,
    "Singap@@": 5058,
    "tsch@@": 1357,
    "Isla@@": 6946,
    "v@@": 384,
    "bessere": 2086,
    "lässi@@": 3065,
    "gte": 955,
    "ei@@": 288,
    "Finanzi@@": 3551,
    "Drit@@": 6442,
    "Diplom@@": 5511,
    "saf@@": 7337,
    "publi@@": 6817,
    "Pro@@": 678,
    "fat": 6035,
    "mut@@": 2289,
    "weise": 755,
    "ep": 6511,
    "sches": 685,
    "gu@@": 2149,
    "u": 656,
    "Produk@@": 4107,
    "alth": 6841,
    "global": 5949,
    "ganze": 3135,
    "Verein@@": 4270,
    "the": 5017,
    "bekan@@": 2408,
    "Hu@@": 5786,
    "fass@@": 4757,
    "klu@@": 1846,
    "ürzen": 4196,
    "darstellt": 3394,
    "reali@@": 2697,
    "selbst": 215,
    "post": 6861,
    "Kan@@": 3254,
    "orität": 4667,
    "wollte": 4125,
    "Menschenrechte": 2049,
    "Musli@@": 5964,
    "manipul@@": 6373,
    "transpar@@": 5397,
    "Reser@@": 3215,
    "%": 122,
    "Reguli@@": 5228,
    "worden": 906,
    "ough": 7389,
    "arr@@": 5960,
    "fisk@@": 3165,
    "kunft": 3198,
    "Europas": 590,
    "Anzahl": 1829,
    "foli@@": 6005,
    "Möglichkeit": 959,
    "künf@@": 4752,
    "Shi@@": 6375,
    "mati@@": 5728,
    "gs@@": 1712,
    "ktion": 3726,
    "weniger": 295,
    "Industrieländer": 4794,
    "Verbreitung": 3812,
    "si@@": 197,
    "August": 5076,
    "wäre": 263,
    "bren@@": 4924,
    "pol@@": 2971,
    "stark": 820,
    "Beschäf@@": 5787,
    "exp@@": 5884,
    "ч@@": 5758,
    "ü": 7581,
    "Koso@@": 6945,
    "illu@@": 6906,
    "zu": 10,
    "hör@@": 3648,
    "Co@@": 5283,
    "Dru@@": 5643,
    "gel": 1928,
    "ihm": 876,
    "beschleuni@@": 3400,
    "Nahrungs@@": 2426,
    "exper@@": 5995,
    "hi": 5981,
    "normalerweise": 3162,
    "oftmals": 4477,
    "Übergang": 3937,
    "Ver@@": 62,
    "tischen": 713,
    "Cameron": 5238,
    "anders@@": 7408,
    "ativer": 4133,
    "gre@@": 6091,
    "ynami@@": 7299,
    "sels": 6706,
    "Sun@@": 5641,
    "anische": 1093,
    "ichten": 3275,
    "鋝@@": 7555,
    "dürfen": 2707,
    "Bezug": 1422,
    "verschie@@": 3104,
    "Billi@@": 5750,
    "Prozent": 490,
    "Großbritannien": 622,
    "cul@@": 7067,
    "unterschiedlichen": 3480,
    "flo@@": 6184,
    "Produkti@@": 7197,
    "avi@@": 5570,
    "Schwellenländer": 2874,
    "regionale": 2943,
    "ministerium": 4571,
    "Frieden@@": 4978,
    "Gründe": 2505,
    "jüng@@": 2481,
    "Geld@@": 1728,
    "loh@@": 4367,
    "AI@@": 5988,
    "G@@": 136,
    "Einw@@": 4243,
    "schwer@@": 1574,
    "vor@@": 126,
    "durchschnit@@": 1830,
    "201@@": 5889,
    "entwickelt": 1567,
    "handelt": 1252,
    "Can@@": 6887,
    "entwickl@@": 6221,
    "Änderungen": 4080,
    "gegen@@": 3873,
    "Indone@@": 6713,
    "ultim@@": 6560,
    "abo@@": 7012,
    "Os": 5546,
    "unver@@": 1861,
    "Modell": 2273,
    "ne@@": 762,
    "nimmt": 1494,
    "or@@": 348,
    "dienen": 1516,
    "regionalen": 2991,
    "gan": 6378,
    "я": 5944,
    "jährlich": 1979,
    "elle": 298,
    "Kraft": 2278,
    "gül@@": 3257,
    "Fe@@": 6243,
    "eri@@": 408,
    "ond": 6266,
    "li@@": 272,
    "standards": 5069,
    "黡@@": 7583,
    "hinter": 1392,
    "bs": 2471,
    "erhalten": 741,
    "spiegelt": 3023,
    "sts": 6322,
    "Legitimität": 3329,
    "Wissenschaft@@": 6056,
    "Financial": 6351,
    "bilden": 2685,
    "formi@@": 5623,
    "innen@@": 4434,
    "mo@@": 917,
    "schwei@@": 3805,
    "Regel": 4136,
    "ES@@": 5906,
    "lokalen": 4365,
    "Trend": 3427,
    "Ka@@": 4698,
    "К@@": 6948,
    "außen": 4437,
    "ähnliche": 2820,
    "bemer@@": 5828,
    "folge": 2183,
    "revi@@": 6576,
    "lieben": 2617,
    "Kalten": 2921,
    "handels@@": 3600,
    "acqu@@": 6153,
    "liquidi@@": 7041,
    "Arbeitsplat@@": 4489,
    "origin@@": 7246,
    "0,@@": 1960,
    "Krieg": 540,
    "kat": 7468,
    "schaften": 634,
    "Einkommen@@": 3605,
    "Fed": 1603,
    "höhung": 6708,
    "verloren": 1948,
    "Industrie": 4137,
    "Com@@": 5934,
    "graphi@@": 5700,
    "aggressive": 6291,
    "Rest": 2227,
    "bst@@": 5146,
    "erfordert": 2161,
    "Wo@@": 5419,
    "Ägyp@@": 5098,
    "waffen": 3502,
    "Aut@@": 758,
    "ur": 1131,
    "geführt": 757,
    "Kinder": 893,
    "erken@@": 2631,
    "Volkswirtschaft": 1705,
    "sichten": 3804,
    "ü@@": 163,
    "SD@@": 6570,
    "Wi@@": 5243,
    "prozess": 2648,
    "lernen": 3359,
    "Á@@": 7418,
    "senkungen": 4638,
    "ons": 2375,
    "mar": 6834,
    "son": 4056,
    "bes": 5817,
    "schi@@": 591,
    "schw@@": 444,
    "ähr@@": 2088,
    "ing": 1398,
    "Volks@@": 2367,
    "anda": 5692,
    "Them@@": 6725,
    "ong": 4188,
    "blick": 5223,
    "fis@@": 6907,
    "Haf@@": 4927,
    "meiner": 3435,
    "Extre@@": 2443,
    "denheit": 4495,
    "Wor@@": 4464,
    "an@@": 55,
    "Erklärung": 2544,
    "oh@@": 1242,
    "Erspar@@": 5537,
    "Х@@": 7573,
    "ende": 230,
    "ähn@@": 2045,
    "Ausma@@": 5724,
    "kost@@": 1639,
    "nu@@": 2623,
    "Pres@@": 4303,
    "übri@@": 2428,
    "Nigeri@@": 6284,
    "kein@@": 2933,
    "te@@": 760,
    "gliche": 4301,
    "Ausweitung": 3702,
    "Har@@": 2473,
    "pression": 6553,
    "biet@@": 5603,
    "mögen": 2422,
    "thy": 6661,
    "Augen": 3228,
    "führenden": 2720,
    "Versuch": 1977,
    "ass": 4865,
    "mussten": 4005,
    "Emp@@": 2811,
    "Besti@@": 6244,
    "65": 5893,
    "zw@@": 1175,
    "maßnahmen": 1386,
    "derungen": 6598,
    "jobs": 7138,
    "jewei@@": 4317,
    "wäh@@": 3434,
    "Verbindungen": 3666,
    "Gei@@": 2400,
    "Hinder@@": 3466,
    "Z": 5885,
    "extremi@@": 6388,
    "Ir@@": 2116,
    "Prinzip": 4149,
    "stoff": 4636,
    "port@@": 2910,
    "formation": 5020,
    "partner@@": 7150,
    "atischen": 5072,
    "Bli@@": 6128,
    "Ord@@": 6609,
    "betrachten": 1808,
    "opposi@@": 6691,
    "verwal@@": 4350,
    "drei@@": 3446,
    "Gre@@": 4723,
    "asi@@": 1724,
    "Verb@@": 4961,
    "ass@@": 2530,
    "ausch": 4405,
    "Afghani@@": 6275,
    "Basis": 3008,
    "Col@@": 5667,
    "edi@@": 6374,
    "jedoch": 325,
    "finanzieren": 3169,
    "durchaus": 1818,
    "co": 6230,
    "Generation": 2336,
    "ärk@@": 6783,
    "Aktien": 4501,
    "zation": 7181,
    "160": 697,
    "gab": 831,
    "finanziellen": 2510,
    "ept@@": 5449,
    "Märkte": 1137,
    "stisch": 1684,
    "row": 6754,
    "alisi@@": 1939,
    "Gol@@": 3512,
    "normal@@": 6693,
    "Win@@": 3123,
    "Premierminister": 2154,
    "als": 28,
    "L@@": 165,
    "Proble@@": 6259,
    "begrenz@@": 2952,
    "entsprechend": 4494,
    "op@@": 615,
    "Zentral@@": 2135,
    "Studien": 3860,
    "ас@@": 6875,
    "weiterung": 6813,
    "Arbeit@@": 4909,
    "genden": 951,
    "thern": 7218,
    "z": 219,
    "ney": 5549,
    "asser@@": 5493,
    "j@@": 484,
    "gel@@": 266,
    "Pen@@": 4931,
    "staat@@": 3390,
    "gent@@": 2097,
    "Umfang": 2939,
    "reicht": 2568,
    "Krisen@@": 4173,
    "entlich": 5868,
    "Krise": 388,
    "Le@@": 1914,
    "kum@@": 4918,
    "wirtschaftlich": 3389,
    "formal": 6806,
    "zep@@": 3398,
    "Amerikas": 715,
    "asi": 6201,
    "alle": 221,
    "pap@@": 7019,
    "pan@@": 4897,
    "Chira@@": 5861,
    "и@@": 1488,
    "app@@": 2232,
    "rief": 5465,
    "Gerech@@": 7162,
    "Vergangenheit": 1095,
    "Fragen": 1078,
    "gelö@@": 6327,
    "an": 38,
    "beln": 3231,
    "sprech@@": 2334,
    "ßt": 3490,
    "iness": 6707,
    "physi@@": 6176,
    "Jord@@": 4815,
    "ahme": 6712,
    "zations": 7459,
    "deten": 1468,
    "Theorie": 4207,
    "schaf@@": 1222,
    "mal@@": 5246,
    "sions@@": 2969,
    "unabhängi@@": 1966,
    "Prozess": 1258,
    "gehören": 2366,
    "kn@@": 1967,
    "eicht": 6549,
    "bollah": 5065,
    "Tei@@": 5496,
    "lossen@@": 2048,
    "bereits": 407,
    "schaft@@": 3763,
    "ahe": 6975,
    "reicher": 3683,
    "Funktion@@": 4725,
    "ermu@@": 3048,
    "daraus": 2402,
    "Reagan": 5912,
    "kam@@": 6325,
    "tel": 2021,
    "Fra@@": 4945,
    "uni@@": 3706,
    "verfü@@": 5875,
    "UN@@": 5632,
    "zun@@": 3538,
    "techni@@": 2218,
    "Anerken@@": 7269,
    "dow@@": 7373,
    "Sta@@": 5259,
    "Zwischen@@": 4761,
    "ref@@": 5991,
    "erg@@": 1384,
    "Tats@@": 5879,
    "Schätz@@": 3861,
    "tr@@": 827,
    "samkeit": 4639,
    "könn@@": 7370,
    "ater@@": 5719,
    "Zusammenarbeit": 1178,
    "..": 5813,
    "fin@@": 896,
    "Förderung": 1825,
    "genug": 1188,
    "Großen": 4041,
    "mmen": 6733,
    "ga": 6198,
    "ford": 5763,
    "oli@@": 3751,
    "oben": 2828,
    "angel@@": 3731,
    "wieder@@": 1363,
    "Menge": 3167,
    "flüsse": 4293,
    "zahlungen": 4198,
    "treten": 614,
    "h": 1098,
    "tiges": 1836,
    "vergleich@@": 4315,
    "agt": 4920,
    "squ@@": 7387,
    "endum": 5125,
    "щ@@": 6701,
    "Demokratie": 512,
    "brachte": 3526,
    "ade": 5372,
    "träge": 1418,
    "stieg": 2164,
    "ernsthaf@@": 1848,
    "konfron@@": 7007,
    "gewöh@@": 6268,
    "Bewegung": 2350,
    "können": 109,
    "Gedank@@": 4424,
    "gesund@@": 4848,
    "Dienst@@": 4680,
    "over@@": 6988,
    "jüngste": 2639,
    "Ra@@": 5913,
    "hoch@@": 1057,
    "don": 7208,
    "mes": 5762,
    "autorit@@": 3856,
    "Sorgen": 3767,
    "ui@@": 5696,
    "bedeuten": 3098,
    "spek@@": 2671,
    "Ein@@": 180,
    "Str@@": 4182,
    "situ@@": 6566,
    "sondern": 247,
    "zusammen": 1374,
    "fang": 6219,
    "Nat@@": 3756,
    "minim@@": 6024,
    "energi@@": 2945,
    "duk@@": 5568,
    "läubi@@": 6113,
    "gebracht": 1120,
    "program@@": 3869,
    "win": 6584,
    "": 7617,
    "Wachstum@@": 4452,
    "pel@@": 5671,
    "proble@@": 5475,
    "existi@@": 3775,
    "gute": 1096,
    "gü@@": 4021,
    "inist@@": 6836,
    "französischen": 2258,
    "aktionen": 4627,
    "Compu@@": 4262,
    "8": 784,
    "rufen": 4538,
    "getroffen": 4712,
    "gere@@": 4655,
    "kämp@@": 2551,
    "lity": 7249,
    "raten": 2430,
    "nei@@": 2142,
    "tern": 466,
    "aches": 6271,
    "day": 7346,
    "bre@@": 5213,
    "law@@": 7506,
    "ihrem": 767,
    "Angela": 5590,
    "Hä@@": 5487,
    "vention": 5140,
    "Führung": 674,
    "Taliban": 4741,
    "nächsten": 857,
    "fre@@": 3409,
    "ut": 2120,
    "Europäi@@": 7091,
    "solven@@": 5306,
    "veränder@@": 4685,
    "bevölkerung": 2846,
    "optimi@@": 5727,
    "Kli@@": 6273,
    "Ü": 7238,
    "sto@@": 1992,
    "ets": 2566,
    "Ar@@": 675,
    "tol@@": 6307,
    "Stabi@@": 2904,
    "Glaubwürdigkeit": 4160,
    "gro@@": 5338,
    "tig": 420,
    "ont": 4252,
    "orit@@": 6135,
    "westliche": 3801,
    "dä@@": 3932,
    "grün@@": 1257,
    "ausforder@@": 6647,
    "quo": 5865,
    "Di@@": 655,
    "Gerechtigkeit": 4242,
    "bring@@": 6440,
    "währ@@": 1770,
    "cher": 1453,
    "/": 2157,
    "Bedroh@@": 4998,
    "deutschen": 2459,
    "mem@@": 7040,
    "Altern@@": 5054,
    "use": 7014,
    "etabli@@": 2871,
    "Beziehungen": 800,
    "jem@@": 5708,
    "er@@": 41,
    "racht": 5707,
    "over": 7134,
    "ums@@": 2466,
    "verfügen": 2005,
    "2@@": 660,
    "dine@@": 7257,
    "gehend": 3810,
    "Nation@@": 3081,
    "Behör@@": 6071,
    "Kommission": 1428,
    "same": 3367,
    "am": 167,
    "schmerz@@": 4506,
    "het@@": 6852,
    "staat": 3075,
    "strategie": 3645,
    "dauer@@": 1989,
    "Men@@": 3429,
    "ene@@": 6838,
    "öffentliche": 875,
    "ann@@": 695,
    "Schaffung": 1594,
    "ministeri@@": 5550,
    "mus@@": 5840,
    "region": 6545,
    "Prozent@@": 4742,
    "Potenzial": 3005,
    "v": 749,
    "Ч@@": 7456,
    "frühen": 3471,
    "To@@": 1809,
    "unist": 7426,
    "nur": 77,
    "look": 7310,
    "dan@@": 5022,
    "leicht": 1938,
    "cau@@": 5972,
    "nahm": 2879,
    "Stagnation": 4939,
    "jährlichen": 4084,
    "imm@@": 6288,
    "bewus@@": 4929,
    "3,@@": 3520,
    "ssi@@": 2453,
    "pla@@": 6256,
    "exi@@": 5542,
    "Ex@@": 589,
    "langfristig": 2763,
    "König@@": 5942,
    "Peri@@": 3999,
    "ell": 569,
    "weitere": 613,
    "Verbrechen": 3015,
    "ämp@@": 5591,
    "derzei@@": 3473,
    "zukünf@@": 2908,
    "bal@@": 5569,
    "nutzen": 1736,
    "enorme": 2215,
    "Markt": 1230,
    "t": 48,
    "falls": 742,
    "versucht": 1926,
    "läng@@": 2042,
    "logi@@": 5389,
    "ehemalige": 3591,
    "Ausdruck": 2985,
    "itäten": 6927,
    "ima@@": 7044,
    "kem@@": 7371,
    "bel@@": 641,
    "Unternehmens@@": 2755,
    "jährliche": 4654,
    "Diplomatie": 4244,
    "zeichnet": 2941,
    "ire": 5102,
    "Kir@@": 4834,
    "Unterschiede": 3137,
    "erinn@@": 4390,
    "sho@@": 7100,
    "sexu@@": 4637,
    "Potenzi@@": 6762,
    "unsere": 562,
    "hat@@": 6431,
    "Ansicht": 1721,
    "Nich@@": 2694,
    "unternehmen": 1305,
    "achst@@": 6154,
    "Einkommen": 958,
    "kon@@": 351,
    "moderne": 3879,
    "П@@": 7540,
    "inen": 3370,
    "griechischen": 3470,
    "H@@": 139,
    "höheren": 2307,
    "ands": 6187,
    "pa@@": 2355,
    "teilt": 1484,
    "April": 4991,
    "strie@@": 7335,
    "sichern": 3182,
    "Finanzmärkte": 2337,
    "umgesetzt": 4351,
    "kein": 441,
    "vereinbar@@": 4912,
    "ь": 6426,
    "Industriel@@": 7292,
    "š@@": 7534,
    "off": 6692,
    "Unterschied": 3953,
    "ökonom@@": 3021,
    "geht": 419,
    "tradition@@": 4416,
    "Aussichten": 3179,
    "übernehmen": 2172,
    "lange": 679,
    "Ô": 7660,
    "im@@": 933,
    "innov@@": 5301,
    "Deflation": 4837,
    "rich": 6768,
    "Ziel": 648,
    "einzel@@": 3794,
    "schafft": 2052,
    "effekti@@": 1862,
    "week": 7420,
    "ē@@": 7599,
    "gemäß": 4543,
    "leich@@": 2057,
    "halten@@": 2611,
    "old": 5356,
    "fort": 3846,
    "Jo@@": 4985,
    "del@@": 5515,
    "Pat@@": 3053,
    "prime": 6208,
    "ufen": 4017,
    "kle@@": 4989,
    "epti@@": 6337,
    "glob@@": 3305,
    "lus@@": 5901,
    "überdies": 3323,
    "sol@@": 1865,
    "Identi@@": 5800,
    "mit@@": 731,
    "hinaus": 777,
    "mäch@@": 1165,
    "chinesische": 935,
    "è@@": 6716,
    "Nul@@": 3886,
    "Moder@@": 6380,
    "ral": 5922,
    "gebaut": 4117,
    "unge@@": 1361,
    "done@@": 6616,
    "Inter@@": 1553,
    "entschieden": 3717,
    "Turk@@": 6884,
    "ap": 7087,
    "12": 4664,
    "Quar@@": 4466,
    "alter": 4530,
    "sierte": 2851,
    "Fund": 6872,
    "neu@@": 1012,
    "Haltung": 2512,
    "ziert": 1328,
    "dringend": 2743,
    "Land@@": 1466,
    "troffen": 4415,
    "rati@@": 5409,
    "wirkt": 4111,
    "inten@@": 6447,
    "Anti@@": 2652,
    "erklärt": 2475,
    "verhindert": 4016,
    "Akteure": 4000,
    "geschei@@": 3742,
    "c@@": 1424,
    "welche": 1015,
    "ens@@": 1713,
    "stec@@": 2152,
    "Tod": 3337,
    "Regierungen": 342,
    "eli@@": 6439,
    "kli@@": 4057,
    "der@@": 371,
    "DC": 5162,
    "ances": 7409,
    "her": 1674,
    "Schei@@": 5619,
    "moderate": 6819,
    "Eing@@": 4701,
    "teten": 652,
    "mus": 5293,
    "300": 5407,
    "ity": 6481,
    "erenden": 976,
    "art": 5290,
    "belie@@": 4373,
    "losen": 2079,
    "Verhand@@": 3639,
    "räu@@": 2884,
    "sis": 4430,
    "Ac@@": 5363,
    "wettbewerbs@@": 4874,
    "we@@": 1086,
    "multilater@@": 3599,
    "flations@@": 5507,
    "ner@@": 3833,
    "welt@@": 2151,
    "Demon@@": 3630,
    "D": 1857,
    "oun@@": 7186,
    "Syrien": 1130,
    "höch@@": 1243,
    "modernen": 2657,
    "ate": 2026,
    "tz": 5576,
    "eigene": 1710,
    "ame": 5242,
    "Welt": 116,
    "40": 1627,
    "Put@@": 6038,
    "kl@@": 586,
    "Forsch@@": 5607,
    "dd@@": 6303,
    "were": 4942,
    "David": 5180,
    "а": 6049,
    "arbeit": 5215,
    "Pau@@": 5881,
    "emi@@": 6438,
    "work": 7031,
    "iranischen": 3612,
    "ktive": 4417,
    "Bedeutung": 693,
    "0@@": 1547,
    "reser@@": 6479,
    "konkre@@": 4157,
    "Wettbewerb": 2541,
    "parado@@": 6249,
    "hand@@": 2332,
    "dass": 23,
    "amerikanischen": 481,
    "ri": 6073,
    "21": 5778,
    "Am@@": 2294,
    "Verbündeten": 3051,
    "trieben@@": 4534,
    "Verteidigung": 3547,
    "Gar@@": 3173,
    "stellen": 335,
    "normal": 6603,
    "deutsche": 2721,
    "Georgi@@": 6204,
    "rational": 6345,
    "Konjunktur@@": 2668,
    "av@@": 5267,
    "sicht@@": 3318,
    "erzielen": 2956,
    "man": 83,
    "invol@@": 6835,
    "Stre@@": 5298,
    "ban@@": 3498,
    "ec@@": 1372,
    "frage": 1949,
    "oft": 950,
    "bewäl@@": 5784,
    "paar": 1711,
    "offiziellen": 3635,
    "ails": 6289,
    "DS": 6352,
    "mäß@@": 1665,
    "North": 7452,
    "voll@@": 699,
    "schlechter": 4457,
    "Steu@@": 3339,
    "ew": 6719,
    "tragen": 868,
    "verfolgen": 2173,
    "Bereitschaft": 3814,
    "isch": 970,
    "Clin@@": 6095,
    "4@@": 979,
    "ziele": 3207,
    "ada": 4482,
    "mitt@@": 3853,
    "Hil@@": 5106,
    "Hoffnung": 1651,
    "sicherzustellen": 3868,
    "gs": 791,
    "Sudan": 5880,
    "überwie@@": 6193,
    "dre@@": 4990,
    "Kapitalismus": 3278,
    "syrischen": 4914,
    "defizit": 2318,
    "Inv@@": 5115,
    "FS@@": 5362,
    "Einfluss": 913,
    "ethi@@": 6737,
    "Beispiel": 790,
    "menschliche": 4586,
    "Hän@@": 2906,
    "konvention@@": 3588,
    "let@@": 5938,
    "cir@@": 6579,
    "niedri@@": 2649,
    "Entwicklungs@@": 700,
    "UNO": 1782,
    "resist@@": 6133,
    "resp@@": 4860,
    "bess@@": 4578,
    "Nach@@": 478,
    "g": 182,
    "Ges@@": 5318,
    "wait": 6689,
    "ark@@": 3386,
    "feh@@": 1687,
    "preis": 4201,
    "geo@@": 2346,
    "An@@": 105,
    "alisten": 3289,
    "Mehr@@": 3629,
    "tö@@": 2354,
    "Asiens": 4195,
    "Bau@@": 2669,
    "führung": 1332,
    "num@@": 6969,
    "ans@@": 2725,
    "Off@@": 3477,
    "Konflik@@": 2236,
    "enor@@": 5567,
    "able": 5701,
    "morali@@": 2490,
    "weltweit": 809,
    "aum": 3754,
    "J@@": 395,
    "Palästinenser": 2620,
    "vielen": 618,
    "anni@@": 5975,
    "samer": 3782,
    "tigkeiten": 3131,
    "low@@": 5994,
    "westlichen": 1970,
    "besitz@@": 2460,
    "angs@@": 5516,
    "agan": 7194,
    "quantit@@": 5377,
    "loy@@": 6421,
    "schneller": 3632,
    "ellen": 297,
    "allgemein": 3719,
    "Vorstellung": 3089,
    "nicht@@": 4128,
    "rein@@": 5314,
    "reck@@": 2053,
    "erung": 170,
    "Verteidigungs@@": 2424,
    "konzentri@@": 5718,
    "Legi@@": 5599,
    "benötigt": 4216,
    "Beh@@": 5198,
    "196@@": 2577,
    "Finan@@": 6671,
    "reiten": 4341,
    "früh@@": 2999,
    "quantitative": 5688,
    "nationale": 1335,
    "se": 238,
    "ear@@": 6721,
    "ausgeh@@": 4206,
    "Geld": 621,
    "Kredite": 1633,
    "lung": 839,
    "ort": 3012,
    "harm@@": 6735,
    "ences": 7255,
    "brauch": 2225,
    "wodurch": 1892,
    "its": 5225,
    "utes": 3926,
    "er": 35,
    "lab@@": 6992,
    "<s>": 2,
    "Mar@@": 1395,
    "ğ": 7597,
    "Opf@@": 6057,
    "änder": 6058,
    "Mus@@": 3667,
    "ant@@": 2326,
    "Luft@@": 3403,
    "ty": 6357,
    "waren": 260,
    "Kl@@": 5029,
    "erungs@@": 899,
    "Zy@@": 3933,
    "ory": 6436,
    "ien": 2704,
    "gleichzei@@": 6177,
    "margin@@": 6299,
    "theit": 4522,
    "reib@@": 4623,
    "Grad": 4307,
    "her@@": 269,
    "profi@@": 3453,
    "scheint": 583,
    "Sicher@@": 5177,
    "Kandid@@": 4618,
    "OECD": 4984,
    "rest@@": 5772,
    "Transpar@@": 6922,
    "läuft": 3929,
    "kan@@": 686,
    "volati@@": 6461,
    "dom": 7010,
    "á@@": 5045,
    "ke": 1501,
    "Wahrheit": 2461,
    "streng@@": 5954,
    "Lauf@@": 3381,
    "Identität": 3981,
    "verstärkt": 2855,
    "Ara@@": 3217,
    "imperi@@": 5969,
    "por@@": 1498,
    "ants": 6697,
    "Power": 4976,
    "visi@@": 7424,
    "Präsidentschafts@@": 2139,
    "rali@@": 3055,
    "drit@@": 3294,
    "bad": 7142,
    "ving": 7032,
    "kommen@@": 3392,
    "gin": 6789,
    "zahlt": 2760,
    "ktion@@": 3741,
    "aufzu@@": 1100,
    "Städ@@": 7382,
    "Schwieri@@": 6451,
    "jähr@@": 6396,
    "Exporte": 3129,
    "lang": 1341,
    "Volk": 3797,
    "spä@@": 5320,
    "yp@@": 5705,
    "lac@@": 7369,
    "sition": 7430,
    "diesen": 357,
    "schlägen": 4187,
    "wandel": 6146,
    "ga@@": 3545,
    "bald": 1465,
    "dank@@": 5437,
    "finden": 516,
    "Finanzinstitu@@": 3363,
    "üng@@": 7324,
    "Def@@": 6332,
    "The@@": 5297,
    "spezi@@": 2050,
    "о": 5200,
    "ausge@@": 475,
    "besseren": 4810,
    "Central": 7524,
    "wirtschaftlicher": 1758,
    "atri@@": 6200,
    "1997": 5088,
    "mp@@": 1430,
    "ktur@@": 6430,
    "erlau@@": 3186,
    "liche": 202,
    "genheiten": 3497,
    "m": 352,
    "Asia": 7268,
    "israelische": 4318,
    "sub@@": 2636,
    "ú": 7656,
    "dieser": 104,
    "just": 7137,
    "best@@": 2440,
    "ni@@": 294,
    "hoch": 962,
    "low": 7006,
    "Ameri@@": 4890,
    "rangi@@": 3332,
    "Verlu@@": 6125,
    "Por@@": 5281,
    "º": 7115,
    "ath@@": 5738,
    "xon": 6003,
    "Blick": 4650,
    "Sad@@": 5886,
    "verhe@@": 4363,
    "ration@@": 5062,
    "ami@@": 5359,
    "vieler": 3085,
    "Rez@@": 5316,
    "Mög@@": 6898,
    "verlu@@": 4043,
    "ve@@": 4621,
    "Erd@@": 2432,
    "il": 5182,
    "kus": 5264,
    "Israels": 2499,
    "rup@@": 1550,
    "б@@": 5990,
    "Geschä@@": 3936,
    "verli@@": 4604,
    "yang": 7239,
    "Development": 6189,
    "bat": 6810,
    "britischen": 1586,
    "off@@": 6915,
    "king": 7022,
    "unter": 138,
    "ven": 702,
    "Fran@@": 5116,
    "19": 5935,
    "arch@@": 3944,
    "defizite": 3579,
    "migr@@": 5909,
    "FT@@": 5943,
    "aller@@": 6350,
    "ball": 6122,
    "Israel": 625,
    "enorm": 3962,
    "space": 6903,
    "vir@@": 6111,
    "Econ@@": 6260,
    "Renminbi": 4408,
    "oll@@": 1261,
    "Anerkennung": 4109,
    "ates": 3079,
    "vorzu@@": 2822,
    "zeuge": 4704,
    "see": 6429,
    "kapital": 4711,
    "erfolgreich": 2272,
    "urop@@": 5038,
    "zeu@@": 1958,
    "European": 7164,
    "kapit@@": 1996,
    "ina": 5390,
    "besser": 764,
    "Kultur@@": 4517,
    "euro": 7288,
    "soci@@": 6676,
    "s": 89,
    "fig": 7230,
    "Ä@@": 1969,
    "erwartet": 2553,
    "dienst@@": 3424,
    "tw@@": 6393,
    "gang": 1264,
    "Vö@@": 5838,
    "Chile": 5608,
    "domini@@": 4180,
    "entscheiden@@": 4656,
    "aw@@": 5536,
    "för@@": 6455,
    "1": 828,
    "ells": 5585,
    "radi@@": 6074,
    "Fer@@": 3618,
    "Partnerschaft": 4561,
    "verursach@@": 3906,
    "Hussein": 6010,
    "lösen": 1050,
    "entstehen": 3855,
    "trag@@": 2876,
    "eten": 2160,
    "Nuklear@@": 3517,
    "non@@": 7005,
    "EA@@": 6370,
    "И": 7551,
    "spie@@": 1767,
    "ad": 2573,
    "Schulen": 4148,
    "Mitglieds@@": 3321,
    "Größ@@": 5917,
    "ütz@@": 2734,
    "em": 413,
    "@": 7544,
    "Kern@@": 2327,
    "Amerika": 637,
    "World": 6254,
    "Hoch@@": 3128,
    "geworden": 1346,
    "keits@@": 3286,
    "til": 5434,
    "onnen": 3145,
    "geben": 259,
    "zustellen": 3432,
    "Per@@": 1570,
    "2006": 3082,
    "mon@@": 1785,
    "Ž@@": 7650,
    "_": 7109,
    "Sü@@": 1701,
    "puli@@": 5533,
    "Dezember": 2658,
    "æ@@": 7607,
    "œ@@": 7579,
    "eck": 3662,
    "ain": 6022,
    "krati@@": 1895,
    "Stand@@": 1649,
    "rest": 6578,
    "500": 4392,
    "kämpfung": 5258,
    "ар@@": 6912,
    "zweiten": 2444,
    "bekommen": 1608,
    "mut": 6112,
    "lar@@": 3895,
    "zwei@@": 819,
    "Mitgliedschaft": 2666,
    "agenda": 6304,
    "Regeln": 1401,
    "tnisse": 2861,
    "Ale@@": 5239,
    "nisse": 1066,
    "Sum@@": 3352,
    "entwickelten": 1504,
    "š": 7546,
    "weist": 2420,
    "黷@@": 7618,
    "rus@@": 3625,
    "Kö@@": 5818,
    "ern@@": 433,
    "allem": 570,
    "denn": 604,
    "mil@@": 5230,
    "gerichtet": 3601,
    "rum": 2990,
    "schwin@@": 3826,
    "gsten": 4032,
    "lian": 7173,
    "14": 5061,
    "Н@@": 7559,
    "per@@": 1522,
    "Sow@@": 6255,
    "Monate": 3354,
    "wachsen": 2735,
    "schnell@@": 4316,
    "strategische": 3522,
    "post@@": 5323,
    "Völk@@": 4181,
    "on": 465,
    "Haushalts@@": 568,
    "ague": 7177,
    "wirtschaft@@": 5046,
    "遝": 7629,
    "miss@@": 3406,
    "vern@@": 3035,
    "maßen": 5337,
    "fol@@": 867,
    "richtigen": 4433,
    "ş@@": 7298,
    "überra@@": 3311,
    "Gren@@": 7521,
    "dollars": 7344,
    "Eng@@": 5977,
    "stärk@@": 2199,
    "arbeiter": 3213,
    "gehalten": 3326,
    "effizi@@": 1314,
    "British": 7165,
    "That@@": 5878,
    "gelei@@": 4100,
    "milli@@": 6679,
    "formen": 4168,
    "Lock@@": 6944,
    "umfassende": 3608,
    "Debat@@": 5384,
    "Sym@@": 4718,
    "vention@@": 5413,
    "roni@@": 7101,
    "einzu@@": 653,
    "unbedingt": 4475,
    "Bün@@": 3316,
    "lebi@@": 6694,
    "Vorschlag": 3615,
    "pre@@": 2537,
    "Raum": 3449,
    "Ministerpräsident": 2926,
    "nachhaltige": 3530,
    "schleuni@@": 6477,
    "zuletzt": 4873,
    "bte": 2709,
    "ög@@": 2100,
    "fru@@": 5466,
    "sieht": 1525,
    "CO@@": 6591,
    "Rezession": 1249,
    "wichtigen": 1909,
    "regul@@": 5638,
    "Verbün@@": 5479,
    "z.": 4651,
    "terror@@": 7098,
    "ler": 491,
    "bevölk@@": 6281,
    "wickl@@": 5874,
    "shar@@": 7361,
    "Tur@@": 5439,
    "sön@@": 4686,
    "investi@@": 3094,
    "Putin": 815,
    "Hit@@": 5208,
    "A": 1046,
    "allein": 930,
    "lim@@": 3134,
    "letzter": 4693,
    "system": 982,
    "extre@@": 4462,
    "Jahrhunder@@": 5261,
    "Z@@": 280,
    "ele": 4863,
    "Verringerung": 2787,
    "besti@@": 5973,
    "dlichen": 1076,
    "Gründen": 3233,
    "di": 5288,
    "р": 7532,
    "Ann@@": 5685,
    "Großteil": 2922,
    "ment": 1635,
    "ige": 2618,
    "droh@@": 2625,
    "Partei": 756,
    "gste": 4368,
    "Außen@@": 1108,
    "fair@@": 5594,
    "tend": 5249,
    "sätzen": 4838,
    "bringen": 414,
    "Kor@@": 2313,
    "land@@": 1589,
    "EC": 5722,
    "ment@@": 1536,
    "ohne": 265,
    "wu@@": 5077,
    "ō": 7652,
    "fft": 5436,
    "gab@@": 3658,
    "waffen@@": 4684,
    "leistung": 2962,
    "Ko@@": 788,
    "gilt": 1239,
    "ff": 2746,
    "vie@@": 7462,
    "üt@@": 1400,
    "United": 6978,
    "Griechen@@": 7293,
    "os": 1114,
    "oft@@": 7062,
    "Straf@@": 4465,
    "tiger": 981,
    "chtet": 4614,
    "ê@@": 7536,
    "gemäß@@": 4734,
    "verbessert": 4492,
    "Haushalte": 1554,
    "bonds": 6619,
    "jah@@": 4354,
    "zurück": 1217,
    "orienti@@": 2013,
    "wegen": 1472,
    "O@@": 313,
    "sitz@@": 2647,
    "eu@@": 596,
    "Türkei": 1064,
    "person": 7339,
    "arti@@": 6239,
    "any@@": 7011,
    "att@@": 3994,
    "bas": 7211,
    "put": 7278,
    "sichts@@": 2344,
    "vidu@@": 5474,
    "13": 5300,
    "Beschränkungen": 4727,
    "Taiwan": 5114,
    "eln": 847,
    "stehen": 435,
    "br@@": 1004,
    "sprach": 3482,
    "us": 1480,
    "schaffen": 626,
    "langsam": 3577,
    "ago": 6290,
    "Bildungs@@": 2773,
    "drücken": 4657,
    "kürzlich": 2233,
    "Regimes": 3139,
    "militärischen": 2381,
    "atin": 6655,
    "revolution@@": 5202,
    "them@@": 4635,
    "Konkur@@": 5711,
    "schutz": 4751,
    "char@@": 5765,
    "al": 364,
    "gehen": 316,
    "Prote@@": 3463,
    "betrachtet": 1373,
    "epide@@": 6807,
    "ademi@@": 5426,
    "se@@": 548,
    "Н": 7576,
    "Anleger": 3889,
    "men": 214,
    "Sec@@": 6657,
    "we": 6129,
    "Tr@@": 2531,
    "Devi@@": 4425,
    "einen": 54,
    "gri@@": 2786,
    "nach@@": 727,
    "Steuern": 1768,
    "utz@@": 736,
    "Rom@@": 3264,
    "Banken@@": 1486,
    "Stell@@": 4121,
    "gemeinsam": 1518,
    "lätz@@": 6629,
    "Fak@@": 5053,
    "ential": 7083,
    "wur@@": 2141,
    "tech@@": 6408,
    "Waren": 3934,
    "banking": 7317,
    "neues": 2437,
    "werk": 2927,
    "atholi@@": 5639,
    "cra@@": 6808,
    "han@@": 5174,
    "stimmung": 3114,
    "ality": 7319,
    "Nicol@@": 5929,
    "lichkeiten": 2076,
    "massive": 4165,
    "q@@": 6142,
    "tsp@@": 2486,
    "obwohl": 354,
    "gor@@": 6197,
    "europ@@": 4102,
    "Argent@@": 5742,
    "höhere": 1477,
    "lose": 1661,
    "cal@@": 7403,
    "legt": 2239,
    "paganda": 5839,
    "Global": 5472,
    "stär@@": 6520,
    "täten": 3442,
    "bung": 1333,
    "Rich@@": 1667,
    "veran@@": 3737,
    "behauptet": 4758,
    "smus": 1038,
    "wärmung": 5412,
    "fit": 6586,
    "Produktions@@": 2848,
    "viel@@": 1228,
    "nütz@@": 3495,
    "Jun@@": 5604,
    "reserven": 3452,
    "inn@@": 1284,
    "Beschäftigung": 3237,
    "ühr@@": 3072,
    "Terrori@@": 7144,
    "ter": 106,
    "alo@@": 6084,
    "Vertreter": 2966,
    "einzigen": 3963,
    "gezwungen": 2775,
    "non": 7307,
    "Finanz@@": 223,
    "Verbesserung": 2010,
    "С@@": 7146,
    "Nachricht": 4722,
    "Viel@@": 2795,
    "spor@@": 3891,
    "Peking": 4516,
    "kriti@@": 2085,
    "д@@": 4774,
    "urs": 6140,
    "dest@@": 6682,
    "nt": 733,
    "gruppe": 4806,
    "sonen": 5488,
    "27@@": 6489,
    "Weise": 517,
    "sh@@": 773,
    "anderem": 4075,
    "hängt": 2598,
    "mani@@": 5142,
    "alternative": 6006,
    "dsch@@": 2865,
    "Verluste": 3320,
    "lik@@": 3443,
    "Ideen": 2543,
    "Gesundheits@@": 783,
    "sc@@": 6478,
    "wesentlich": 2304,
    "tel@@": 1682,
    "ira@@": 3455,
    "lekti@@": 3709,
    "ó": 7604,
    "Nigeria": 5185,
    "makro@@": 3894,
    "ihres": 1025,
    "ze@@": 3248,
    "sig@@": 3609,
    "ward": 6533,
    "tin": 4750,
    "erungen": 687,
    "Vergleich": 2389,
    "exist@@": 5910,
    "Wirtschaftswachstum": 1226,
    "W.": 4062,
    "quar@@": 6652,
    "Reduzierung": 4579,
    "ji@@": 5835,
    "Opposition": 2693,
    "Mein@@": 4439,
    "toler@@": 6119,
    "ventionen": 5801,
    "Coun@@": 7145,
    "Verhältnis": 2903,
    "beim": 712,
    "Häus@@": 4297,
    "躍@@": 7630,
    "Bericht": 2274,
    "kar@@": 5002,
    "Konf@@": 7198,
    "Economi@@": 6873,
    "vitäten": 6205,
    "fer": 1219,
    "bezeich@@": 2311,
    "lassen": 299,
    "eler@@": 7512,
    "gres@@": 2698,
    "cks@@": 6162,
    "peri@@": 4089,
    "relativ": 1369,
    "qualifizi@@": 4459,
    "teu@@": 2390,
    "dr@@": 1663,
    "insen": 5206,
    "Real@@": 4423,
    "lungs@@": 1858,
    "unruhi@@": 4622,
    "acks": 7411,
    "untern@@": 2412,
    "": 6673,
    "Fach@@": 4600,
    "mein@@": 2664,
    "analy@@": 5495,
    "Impf@@": 3980,
    "fu@@": 1500,
    "per": 2809,
    "iti@@": 5286,
    "immen@@": 5866,
    "individu@@": 4846,
    "fiz@@": 3613,
    "Hung@@": 5851,
    "lob@@": 6025,
    "ales": 1616,
    "Bi@@": 1843,
    "halb": 4556,
    "tru@@": 2434,
    "berücksich@@": 2494,
    "Fat@@": 6910,
    "sierten": 3653,
    "vollständig": 3851,
    "Gewin@@": 5352,
    "Maß@@": 2958,
    "Geschichte": 646,
    "persön@@": 2096,
    "som@@": 6675,
    "Ern@@": 3151,
    "hängen": 3809,
    "F": 3863,
    "sicherung": 2328,
    "online": 6602,
    "Krie@@": 2032,
    "Krem@@": 6292,
    "strong": 7302,
    "Emissionen": 2107,
    "gegenüber": 377,
    "·": 4247,
    "gesamte": 2565,
    "sus": 7001,
    "gno@@": 7510,
    "weg": 1891,
    "mental": 7136,
    "gl@@": 5492,
    "Angriffe": 4773,
    "Straßen": 4851,
    "gemeinsamen": 1619,
    "sent": 6816,
    "gh@@": 1775,
    "ihnen": 437,
    "ität": 1198,
    "differ@@": 6398,
    "Ter@@": 3534,
    "kten": 1629,
    "koh@@": 4507,
    "ei": 2733,
    "bekämpfen": 3663,
    "Wissenschaftler": 3277,
    "coun@@": 7377,
    "dasselbe": 4512,
    "lossen": 2083,
    "Zeitraum": 4762,
    "partei@@": 4399,
    "ging": 1610,
    "Daten": 1995,
    "Umständen": 3395,
    "Argument": 3585,
    "aff@@": 5768,
    "heit": 514,
    "sel@@": 1532,
    "zwan@@": 3397,
    "Af@@": 6444,
    "Milliar@@": 4977,
    "nen": 203,
    "abe": 6698,
    "innerhalb": 504,
    "5@@": 986,
    "werke": 3736,
    "systeme": 1709,
    "sü@@": 2198,
    "ert": 100,
    "chten": 438,
    "winn@@": 5000,
    "strategi@@": 3567,
    "simp@@": 6544,
    "stimul@@": 7219,
    "vö@@": 5480,
    "dlicher": 4074,
    "2013": 2868,
    "gen": 80,
    "zunehmen": 1839,
    "reichs": 6134,
    "ihr@@": 6090,
    "Bestand@@": 4413,
    "risiko": 5581,
    "anders": 1054,
    "limm@@": 3988,
    "Aspek@@": 2759,
    "sti@@": 417,
    "keine": 185,
    "unbe@@": 2961,
    "sle@@": 5540,
    "bu@@": 2177,
    "fall@@": 2503,
    "aler": 681,
    "material": 6785,
    "neben": 3133,
    "Technologien": 1752,
    "äten": 4518,
    "anz@@": 761,
    "chtsh@@": 3753,
    "progres@@": 6167,
    "African": 7355,
    "Wol@@": 5427,
    "inst@@": 5345,
    "Bal@@": 3501,
    "Tür@@": 5963,
    "agen@@": 7234,
    "zei": 4472,
    "chtung": 4903,
    "祸": 7634,
    "appar@@": 5984,
    "im": 26,
    "Europä@@": 6137,
    "bewusst": 2285,
    "Pi@@": 3777,
    "ten": 36,
    "ol@@": 457,
    "Tren@@": 3080,
    "ses": 873,
    "utzen": 5597,
    "fizit": 4959,
    "komm@@": 5729,
    "Schutz": 1569,
    "opport@@": 7151,
    "Leistungen": 3310,
    "utions": 7326,
    "demokratische": 2184,
    "bau@@": 3288,
    "unterstütz@@": 2522,
    "ebenfalls": 1301,
    "New": 855,
    "Seite": 1304,
    "Bundes@@": 1720,
    "fähigkeit": 1906,
    "zigen": 4703,
    "andere": 186,
    "fünf": 1103,
    "ard": 1997,
    "gewal@@": 1135,
    "teilweise": 1801,
    "ober@@": 2122,
    "benö@@": 2603,
    "trotzdem": 1338,
    "Abhängigkeit": 3779,
    "lemm@@": 6936,
    "ständig": 3623,
    "grundlegende": 2456,
    "ñ@@": 6782,
    "net@@": 3163,
    "cla@@": 6894,
    "Beobach@@": 5723,
    "stische": 584,
    "Pläne": 4721,
    "folg@@": 1632,
    "Malaysia": 5898,
    "mei@@": 1446,
    "bei": 61,
    "ban": 6895,
    "hohe": 1300,
    "fr@@": 4461,
    "offizielle": 3725,
    "az@@": 5418,
    "1989": 5240,
    "Erhöhung": 3045,
    "adap@@": 7263,
    "onald": 6250,
    "äu@@": 624,
    "Go@@": 6320,
    "wn": 6065,
    "Studenten": 4906,
    "ver": 1006,
    "Konflikt": 1743,
    "schu@@": 2275,
    "hätten": 971,
    "institu@@": 6955,
    "starken": 1878,
    "wealth": 7421,
    "Stär@@": 6399,
    "auszu@@": 541,
    "言": 7633,
    "ker@@": 6376,
    "p": 1512,
    "Regulierungs@@": 3052,
    "Tra@@": 3148,
    "3@@": 748,
    "enz": 1278,
    "Fami@@": 5097,
    "dung": 559,
    "kehr@@": 2230,
    "Wirklichkeit": 4422,
    "Universitäten": 3798,
    "tur@@": 5164,
    "ergi@@": 6000,
    "bet@@": 977,
    "chinesischen": 680,
    "Versch@@": 4764,
    "arbei@@": 1117,
    "prei@@": 1577,
    "ct@@": 7480,
    "üsse": 3842,
    "lemma": 5559,
    "ì@@": 7606,
    "teil": 1202,
    "wit@@": 6314,
    "seit": 274,
    "enten": 802,
    "Mitglieder": 948,
    "gement": 7442,
    "kind": 7394,
    "au@@": 199,
    "4": 952,
    "langfristige": 1879,
    "geschi@@": 3199,
    "Haup@@": 5086,
    "Ab@@": 157,
    "Rohstoff@@": 3226,
    "hap@@": 7471,
    "alte": 2747,
    "statt": 911,
    "insu@@": 7395,
    "Moment": 3768,
    "boo@@": 7025,
    "sident": 5636,
    "lück": 4880,
    "wirtschaf@@": 6392,
    "kauf": 4825,
    "Instabilität": 3404,
    "20.": 4013,
    "@-@": 24,
    "bereit": 1014,
    "lichkeit": 781,
    "stark@@": 3153,
    "Olympi@@": 6108,
    "Überzeu@@": 4312,
    "Organis@@": 6087,
    "integr@@": 6881,
    "komple@@": 5166,
    "anten": 1088,
    "gehört": 2794,
    "häufig": 1232,
    "Nor@@": 823,
    "mir": 2119,
    "tat@@": 6639,
    "ms": 988,
    "folge@@": 6666,
    "Macht@@": 1660,
    "ho@@": 1061,
    "Spekul@@": 4852,
    "zug": 1622,
    "ange": 4738,
    "spielt": 3739,
    "tenden@@": 5612,
    "hon@@": 7188,
    "langen": 1382,
    "tics": 7427,
    "fähig": 3380,
    "star@@": 2862,
    "Fähigkeit": 1634,
    "Bem@@": 6382,
    "versuchen": 1681,
    "ungs@@": 192,
    "gesun@@": 4861,
    "geben@@": 4713,
    "ideologi@@": 4588,
    "Kurs": 3376,
    "Euro": 623,
    "ups": 7241,
    "indu@@": 7081,
    "Lehren": 4813,
    "Verfass@@": 6424,
    "Chinesen": 2975,
    "kurzfristig": 4267,
    "Govern@@": 5635,
    "Aufbau": 4263,
    "angen": 2181,
    "Afri@@": 2825,
    "No@@": 3396,
    "niedrig": 3496,
    "universi@@": 6799,
    "impor@@": 5424,
    "Zweiten": 2717,
    "politischen": 189,
    "weis@@": 2948,
    "negative": 5203,
    "rat": 3764,
    "tei@@": 4003,
    "Kluft": 4582,
    "solidar@@": 7429,
    "Lei@@": 1031,
    "и": 5089,
    "expan@@": 5461,
    "ster": 704,
    "Treasury": 7351,
    "al@@": 205,
    "wie@@": 2807,
    "zeigt": 1439,
    "sei@@": 891,
    "ita": 7313,
    "tigte": 2791,
    "budget": 6710,
    "Mal@@": 5052,
    "thers": 6141,
    "hor@@": 6487,
    "Sek@@": 3263,
    "Jahrhunderts": 1298,
    "Progno@@": 3745,
    "For@@": 1049,
    "dis": 5402,
    "alisierung": 1281,
    "barkeit": 2632,
    "Bewe@@": 4888,
    "Hinblick": 1885,
    "mung": 2955,
    "erscheinen": 3252,
    "Initiativen": 4323,
    "Rolle": 500,
    "Nutzung": 4108,
    "rupt": 6371,
    "mans": 6386,
    "bei@@": 610,
    "eins": 5021,
    "Städten": 4548,
    "kompli@@": 4253,
    "reguli@@": 3541,
    "moment@@": 5379,
    "Stadt": 3031,
    "hum@@": 7121,
    "illegal": 6500,
    "schein@@": 1746,
    "ana": 6340,
    "Kampagne": 4322,
    "enst@@": 5903,
    "Wir@@": 5871,
    "entsch@@": 2838,
    "weit": 556,
    "ank@@": 571,
    "bevor": 1355,
    "ren": 3928,
    "mäßig": 2569,
    "kern": 4935,
    "Wall": 5508,
    "anti@@": 1177,
    "struktur@@": 3181,
    "kore@@": 2195,
    "mmung": 1605,
    "tionen": 362,
    "är": 3553,
    "T@@": 91,
    "ihr": 318,
    "ed@@": 2376,
    "ж@@": 6295,
    "sen@@": 400,
    "struktu@@": 7016,
    "sign@@": 6626,
    "Fäl@@": 6965,
    "desi@@": 7125,
    "sweise": 5657,
    "erlebt": 4575,
    "Unternehmen": 353,
    "zeit": 1287,
    "eingesch@@": 5796,
    "likt": 6523,
    "zeichen": 6490,
    "stellung": 746,
    "erforder@@": 4118,
    "Kapital": 1680,
    "diese": 53,
    "rasch": 2609,
    "States": 7178,
    "experi@@": 6456,
    "bewe@@": 1903,
    "gest@@": 817,
    "": 7549,
    "port": 3656,
    "kanische": 3184,
    "größerer": 4400,
    "Tag": 1621,
    "äm@@": 3781,
    "ī@@": 7654,
    "gem": 2508,
    "Juni": 3297,
    "markt": 1780,
    "fün@@": 3911,
    "ks": 1972,
    "solidi@@": 3825,
    "falt": 4403,
    "fi@@": 552,
    "amerikanische": 720,
    "setzt": 1034,
    "tor@@": 5456,
    "bil@@": 1053,
    "mat@@": 4691,
    "Gra@@": 5304,
    "enzi@@": 6043,
    "besei@@": 4205,
    "jeweiligen": 3871,
    "sus@@": 7333,
    "tief@@": 1214,
    "Gleichgewicht": 4378,
    "Erfolg": 908,
    "pon@@": 5269,
    "Voll@@": 4677,
    "steigende": 3646,
    "bevor@@": 4256,
    "bwür@@": 7231,
    "fel": 6757,
    "ligkeit": 4692,
    "diplomati@@": 2348,
    "я@@": 6233,
    "tigt": 553,
    "sterben": 4018,
    "Ro@@": 1421,
    "ker": 768,
    "Š@@": 7577,
    "zukünftige": 3405,
    "getan": 2159,
    "sch": 228,
    "Mitglied": 4025,
    "ń@@": 6763,
    "riti@@": 6801,
    "Roh@@": 4596,
    "status": 6343,
    "privaten": 1151,
    "ellen@@": 6027,
    "source": 6849,
    "überwin@@": 6687,
    "deter@@": 7315,
    "deta@@": 6055,
    "jedes": 1557,
    "syri@@": 5250,
    "ffe": 3096,
    "Zinsen": 1483,
    "Internet": 2645,
    "Intern@@": 4563,
    "Verfassung": 1923,
    "si": 5650,
    "tures": 7015,
    "kno@@": 7393,
    "Ni@@": 1856,
    "entscheiden": 2299,
    "Sel@@": 5626,
    "gence": 6956,
    "erkan@@": 4008,
    "täu@@": 4126,
    "灾@@": 7635,
    "extern@@": 3714,
    "stellt": 747,
    "Aufstieg": 2729,
    "ger@@": 250,
    "dollar": 7399,
    "seiner": 229,
    "Ent@@": 628,
    "Œ@@": 7651,
    "arbeitet": 3166,
    "begr@@": 2858,
    "vo@@": 5015,
    "Prinzipien": 3428,
    "geb@@": 398,
    "porte": 3523,
    "oder": 52,
    "islamischen": 3785,
    "sensi@@": 6384,
    "vertr@@": 4028,
    "provi@@": 7004,
    "É@@": 7216,
    "kosten": 1383,
    "erter": 1523,
    "Assad": 4066,
    "ama": 6116,
    "deck@@": 2937,
    "Risi@@": 5260,
    "agement": 5175,
    "religiöse": 4894,
    "Iran": 492,
    "We@@": 3509,
    "28": 5989,
    "Ökonomen": 1628,
    "stes": 2608,
    "eingeführt": 3964,
    "schien": 3036,
    "у": 6715,
    "traditionellen": 3514,
    "örder@@": 2712,
    "Haupt@@": 1060,
    "aki@@": 7487,
    "def@@": 7176,
    "Wettbewerbs@@": 5274,
    "bezeichnet": 3336,
    "lan": 4668,
    "west@@": 3772,
    "Mosk@@": 5914,
    "recht": 938,
    "Spar@@": 1123,
    "Obama": 657,
    "Waffen@@": 3328,
    "Oktober": 4767,
    "Ge@@": 231,
    "ц": 7558,
    "é@@": 4951,
    "ests": 5187,
    "Chin@@": 6470,
    "Emis@@": 5013,
    "wä@@": 1811,
    "modern": 7037,
    "Mittel@@": 824,
    "daher": 494,
    "amen": 6283,
    "cal": 6475,
    "tradi@@": 7329,
    "hilf@@": 4901,
    "bar": 355,
    "scht": 1894,
    "versorgung": 2895,
    "pro@@": 1196,
    "Linie": 3063,
    "lichen": 175,
    "verfolgt": 3384,
    "chen": 279,
    "weg@@": 4314,
    "ini@@": 633,
    "begrenzt": 4436,
    "Wechsel@@": 6608,
    "bet": 5959,
    "Gesell@@": 6390,
    "siven": 2989,
    "win@@": 4349,
    "richten": 1316
}