, 262914
the 262427
. 192239
of 129593
to 124948
and 118275
in 95961
a 93282
that 59552
is 58702
@-@ 55882
&apos;s 45719
&quot; 40178
for 40098
as 32290
- 31245
it 31174
on 29340
be 28794
are 27107
an 26653
with 25221
but 24104
by 23774
not 23371
has 20814
have 20469
ed 19245
this 18795
ing 18619
will 18292
at 17905
from 17265
its 17211
or 16879
more 16382
their 16303
re@@ 15683
they 14056
was 14010
would 13009
countries 11528
US 11280
which 11184
in@@ 11104
than 11093
al 10768
one 10591
un@@ 10585
) 10446
( 10442
ation 10418
can 10298
s@@ 10055
s 10046
es 9939
all 9925
world 9606
if 9232
we 9063
y 8914
% 8854
been 8696
di@@ 8678
economic 8591
China 8584
c@@ 8573
new 8414
so 8395
ate 8310
t@@ 8298
t 8290
i 8230
e@@ 8061
only 8038
ated 7862
Europe 7827
government 7773
: 7643
other 7584
no 7561
should 7550
there 7527
; 7473
his 7452
even 7375
d@@ 7354
such 7316
political 7198
most 7183
de@@ 7175
also 7143
when 7130
ted 7122
p@@ 7100
global 7065
about 7051
b@@ 6953
now 6947
these 6774
growth 6680
who 6676
many 6672
people 6628
were 6571
li@@ 6571
c 6560
ly 6537
could 6498
what 6474
European 6457
some 6431
k@@ 6285
con@@ 6076
country 6064
financial 6022
tion 6021
years 6001
ers 5962
ti@@ 5951
kan 5919
ar@@ 5907
he 5902
? 5895
en@@ 5865
v@@ 5865
C@@ 5832
ting 5789
e 5788
S@@ 5752
able 5749
er 5745
g@@ 5574
a@@ 5557
time 5517
yang 5495
must 5443
out 5428
EU 5406
per@@ 5372
over 5364
do 5337
policy 5228
si@@ 5218
up 5206
economy 5188
into 5168
ent 5167
may 5128
much 5105
dis@@ 5085
u@@ 5047
f@@ 5039
y@@ 4988
because 4964
i@@ 4957
o@@ 4955
ts 4944
power 4929
had 4925
l@@ 4868
al@@ 4810
se@@ 4808
ri@@ 4793
mi@@ 4786
m@@ 4757
them 4737
while 4713
long 4700
men@@ 4680
crisis 4678
Russia 4645
ro@@ 4617
like 4590
ac@@ 4560
ad@@ 4556
after 4526
r@@ 4510
ally 4498
o 4488
dan 4484
America 4480
public 4452
an@@ 4445
year 4440
d 4426
two 4415
ating 4412
w@@ 4396
pro@@ 4395
pre@@ 4375
first 4339
j@@ 4338
st@@ 4338
I 4335
h@@ 4329
ra@@ 4322
k 4301
our 4263
well 4247
those 4228
international 4184
between 4182
market 4071
l 4025
n@@ 4024
A@@ 4013
ber@@ 3991
co@@ 3987
tions 3973
at@@ 3965
as@@ 3938
h 3905
P@@ 3902
less 3900
way 3896
United 3889
ur@@ 3882
ar 3882
any 3834
debt 3832
B@@ 3831
D@@ 3829
how 3823
ch@@ 3817
T@@ 3767
ations 3766
ter@@ 3766
state 3766
both 3765
de 3756
against 3746
ded 3729
pen@@ 3706
or@@ 3696
te 3665
indeed 3658
just 3653
need 3591
led 3574
M@@ 3558
ex@@ 3538
today 3523
em@@ 3488
sts 3472
la@@ 3458
ce 3423
vi@@ 3415
system 3368
red 3348
ment 3343
am@@ 3340
le 3336
where 3332
ak@@ 3330
E@@ 3317
u 3309
it@@ 3308
er@@ 3306
on@@ 3297
ance 3292
$ 3285
high 3244
ds 3242
last 3224
ty 3223
leaders 3213
term 3207
far 3199
ding 3196
als 3193
markets 3193
too 3169
im@@ 3148
change 3147
us 3144
ve 3137
make 3127
el@@ 3108
support 3101
national 3084
ous 3077
cal 3057
hi@@ 3049
American 3037
fi@@ 3035
di 3033
interest 3030
become 3029
end 3022
trade 3009
ci@@ 3007
ap@@ 3000
banks 2999
war 2990
military 2985
se 2984
ut@@ 2981
since 2981
governments 2972
ant 2964
com@@ 2958
rate 2938
own 2922
op@@ 2912
n 2912
example 2905
bi@@ 2894
lo@@ 2892
President 2887
pi@@ 2883
th@@ 2883
om@@ 2881
important 2863
su@@ 2858
investment 2858
tra@@ 2838
K@@ 2824
po@@ 2808
foreign 2791
ab@@ 2789
m 2786
recent 2779
ary 2779
yet 2778
rates 2777
still 2776
through 2732
current 2728
st 2727
Japan 2715
le@@ 2713
does 2712
du@@ 2705
being 2692
bu@@ 2692
use 2689
right 2681
social 2675
p 2669
sion 2664
real 2663
without 2658
ge 2653
under 2648
development 2642
sh@@ 2637
H@@ 2637
L@@ 2629
Germany 2627
future 2624
ma@@ 2624
same 2623
us@@ 2622
ans 2612
policies 2611
th 2611
work 2608
low 2576
fiscal 2574
G@@ 2571
States 2567
capital 2566
mo@@ 2566
large 2560
ter 2548
might 2540
ine 2533
ent@@ 2528
security 2523
be@@ 2522
take 2520
risk 2489
te@@ 2485
ch 2475
O@@ 2466
energy 2465
then 2464
z@@ 2464
um 2463
ates 2463
ties 2450
Chinese 2439
ze 2427
do@@ 2426
zed 2425
including 2418
likely 2408
prices 2405
course 2404
made 2400
GDP 2396
another 2393
par@@ 2388
very 2380
ag@@ 2379
he@@ 2378
India 2367
sp@@ 2359
es@@ 2355
good 2337
ru@@ 2335
ck 2333
min@@ 2333
Iran 2329
ves 2324
economies 2323
better 2314
cannot 2308
human 2303
major 2298
R@@ 2293
billion 2293
ha@@ 2284
ang@@ 2282
is@@ 2275
I@@ 2273
ying 2272
part 2272
bo@@ 2254
oil 2254
F@@ 2252
nuclear 2252
ved 2250
ol@@ 2248
а@@ 2244
states 2242
under@@ 2240
pl@@ 2237
Israel 2234
did 2231
problem 2226
ali@@ 2223
gi@@ 2215
ability 2209
over@@ 2198
est 2193
given 2187
pri@@ 2186
rather 2185
ence 2175
ke@@ 2173
fact 2169
ec@@ 2167
Union 2166
tax 2154
down 2151
help 2147
Bank 2146
mis@@ 2141
before 2137
during 2129
income 2122
often 2118
ity 2118
order 2118
three 2118
ul@@ 2116
N@@ 2105
result 2104
health 2103
central 2088
past 2087
tri@@ 2087
demand 2061
Iraq 2054
private 2050
already 2048
W@@ 2045
cally 2044
why 2041
&apos;t 2041
no@@ 2040
uni@@ 2040
mem@@ 2034
au@@ 2030
ou@@ 2028
among 2017
back 2012
institutions 2009
5 1985
sive 1975
ling 1969
т@@ 1962
Obama 1960
е@@ 1955
set 1953
democracy 1951
however 1949
around 1945
used 1944
har@@ 1942
clear 1942
negara 1941
eurozone 1939
akan 1937
en 1937
ure 1935
war@@ 1930
whether 1919
so@@ 1916
million 1912
ta@@ 1912
tive 1909
gh@@ 1907
higher 1904
untuk 1904
ely 1901
ang 1894
little 1892
problems 1889
moreover 1889
come 1888
nya 1886
few 1883
gra@@ 1879
man@@ 1871
der 1870
ir@@ 1868
comp@@ 1864
w 1858
rights 1858
sector 1856
per 1854
inflation 1850
Putin 1847
second 1844
based 1842
ing@@ 1842
East 1840
France 1839
les 1835
pe@@ 1835
least 1829
і@@ 1826
ini 1825
spending 1825
World 1824
et@@ 1823
developing 1820
money 1819
needed 1816
ati@@ 1815
ents 1814
thus 1810
for@@ 1807
tu@@ 1807
ы@@ 1806
increase 1805
gu@@ 1805
lu@@ 1805
old 1802
cs 1794
ently 1794
Asia 1794
b 1793
case 1787
next 1777
though 1776
trans@@ 1776
wi@@ 1775
force 1773
ari@@ 1760
el 1759
free 1755
region 1755
role 1754
needs 1748
process 1748
West 1744
price 1737
means 1737
you 1736
ob@@ 1735
um@@ 1730
ings 1729
ses 1726
monetary 1716
place 1716
res@@ 1716
point 1710
ne@@ 1708
reform 1707
ters 1704
short 1704
almost 1703
fo@@ 1701
il@@ 1699
x 1698
car@@ 1698
ho@@ 1695
climate 1694
others 1693
especially 1691
poor 1684
age 1678
within 1678
ble 1677
da@@ 1675
ass@@ 1675
making 1666
ep@@ 1661
up@@ 1656
sub@@ 1655
members 1651
ago 1647
zing 1647
companies 1644
fe@@ 1643
sed 1643
Africa 1642
cre@@ 1641
den@@ 1640
off 1639
cy 1638
asi 1637
man 1635
ative 1634
sur@@ 1631
Bush 1630
ving 1628
ments 1628
called 1621
д@@ 1618
ak 1617
rise 1616
wa@@ 1616
domestic 1614
ably 1613
century 1612
inter@@ 1612
cost 1611
x@@ 1606
labor 1603
sa@@ 1602
2 1602
zation 1595
sho@@ 1594
20 1593
different 1592
women 1585
ever 1584
view 1582
remains 1581
f 1580
strong 1579
law 1578
Russian 1577
Y@@ 1575
3 1573
ke 1573
longer 1564
costs 1560
remain 1559
education 1558
ness 1558
king 1557
member 1557
action 1556
Arab 1556
exc@@ 1549
out@@ 1549
life 1547
non 1544
res 1543
each 1542
growing 1540
level 1536
election 1535
put 1533
reforms 1530
ors 1529
emerging 1525
itself 1525
&amp; 1522
peace 1521
me 1512
1 1510
dic@@ 1510
currency 1508
greater 1502
continue 1501
once 1499
further 1498
decades 1498
act 1496
never 1496
form 1494
side 1493
go 1493
citizens 1490
population 1489
exchange 1487
me@@ 1487
approach 1486
qu@@ 1485
ins 1484
J@@ 1480
despite 1480
seems 1477
Greece 1475
regime 1472
ship 1472
sec@@ 1466
wor@@ 1464
every 1463
control 1462
с@@ 1458
lower 1458
et 1455
society 1455
face 1453
bank 1451
benefits 1450
difficult 1450
democratic 1450
former 1446
toward 1444
Western 1441
ya 1441
best 1440
sions 1437
rec@@ 1436
7 1435
business 1432
her 1427
ori@@ 1425
get 1424
ism 1423
ten@@ 1422
provide 1421
left 1421
tic 1418
8 1416
half 1415
my 1413
key 1413
euro 1412
ver@@ 1411
rest 1411
politics 1408
enough 1408
day 1407
ot@@ 1406
ons 1406
pa@@ 1405
ges 1405
efforts 1405
anti 1399
und@@ 1397
recently 1396
number 1395
history 1393
land 1392
resources 1392
children 1391
small 1388
ful 1386
6 1383
South 1383
ah 1383
say 1379
French 1379
ni@@ 1376
ba@@ 1375
der@@ 1375
increasingly 1374
question 1371
fied 1370
perhaps 1368
ck@@ 1365
sen@@ 1361
stri@@ 1361
we@@ 1358
interests 1356
possible 1356
dari 1355
common 1355
ver 1349
ge@@ 1348
War 1341
value 1341
run 1338
dengan 1336
ders 1336
tly 1332
meng@@ 1330
lead 1329
instead 1325
forces 1325
see 1318
sh 1315
to@@ 1315
hard 1313
effective 1312
terms 1311
Middle 1311
sti@@ 1311
1@@ 1310
pres@@ 1307
themselves 1306
sense 1304
mon@@ 1304
A 1303
ants 1300
services 1299
true 1294
ad 1293
workers 1292
dra@@ 1291
af@@ 1290
great 1289
reduce 1288
potential 1288
sol@@ 1287
particularly 1286
ined 1285
balance 1285
The 1284
ces 1284
re 1282
weak@@ 1276
ren@@ 1273
want 1271
50 1270
IMF 1267
together 1266
UN 1261
.@@ 1260
him 1259
simply 1257
know 1256
regional 1256
again 1255
British 1254
stability 1253
б@@ 1252
ard 1251
қ@@ 1249
share 1248
ys 1248
reason 1245
ph@@ 1245
shed 1244
strategy 1242
gener@@ 1239
serious 1238
cap@@ 1237
tre@@ 1236
conflict 1235
president 1234
early 1231
issues 1231
dollar 1228
turn 1228
agreement 1227
ks 1225
к@@ 1223
am 1222
North 1221
il 1219
sing 1219
g 1215
rule 1215
finance 1214
risks 1214
self 1212
believe 1209
3@@ 1202
create 1202
Korea 1199
men 1198
administration 1194
research 1194
credit 1193
care 1189
Con@@ 1188
pada 1188
2@@ 1187
sc@@ 1186
4 1186
ah@@ 1186
ning 1186
gen@@ 1185
eri@@ 1184
party 1183
until 1181
local 1181
Minister 1181
tidak 1180
sup@@ 1180
poverty 1179
9 1176
rules 1175
budget 1173
home 1169
unemployment 1168
р@@ 1167
parties 1166
pay 1163
r 1163
big 1161
issue 1161
impact 1161
--@@ 1158
rising 1157
fall 1156
2008 1153
decade 1150
open 1149
position 1147
third 1147
19@@ 1147
leadership 1145
and@@ 1144
м@@ 1144
ect 1143
investors 1134
ess 1134
о@@ 1134
disp@@ 1133
using 1132
angan 1131
times 1130
ek@@ 1129
ets 1129
V@@ 1128
dalam 1127
si 1127
sted 1126
always 1126
oni@@ 1126
community 1125
ture 1125
mu@@ 1122
aan 1120
inv@@ 1119
German 1119
30 1117
rich 1116
lity 1115
bar@@ 1115
Britain 1113
developed 1111
found 1109
stic 1109
Syria 1109
Soviet 1109
ga@@ 1108
Americans 1107
find 1103
increased 1103
levels 1102
wing 1101
dec@@ 1100
jobs 1099
measures 1097
full 1095
fully 1092
decision 1092
ented 1091
five 1091
и@@ 1091
mp@@ 1091
progress 1088
fin@@ 1088
politicians 1086
systems 1083
according 1082
across 1082
aw@@ 1079
fu@@ 1078
coming 1075
Turkey 1071
taken 1071
mas@@ 1070
ase 1070
similar 1069
app@@ 1068
lack 1067
sel@@ 1066
access 1064
threat 1063
vo@@ 1063
beyond 1061
seem 1061
gas 1061
lic@@ 1060
program 1060
technology 1057
deficit 1057
Council 1056
dist@@ 1054
return 1053
inf@@ 1051
bur@@ 1049
several 1046
ways 1046
think 1045
ously 1044
look 1043
conc@@ 1042
od 1042
deal 1042
5@@ 1041
leading 1041
firms 1041
challenges 1041
violence 1038
whose 1038
groups 1038
significant 1037
tor 1037
atan 1036
necessary 1036
challenge 1035
emp@@ 1035
Palestinian 1034
inc@@ 1034
des 1033
mat@@ 1032
str@@ 1031
post 1031
said 1030
C 1029
bro@@ 1029
young 1028
changes 1027
ai 1027
ear@@ 1026
ani@@ 1026
ant@@ 1025
move 1024
account 1021
aging 1020
ten 1019
ai@@ 1017
food 1015
ght 1014
start 1014
conditions 1013
acc@@ 1012
sis 1011
ited 1009
ensure 1009
ement 1009
done 1009
although 1008
employment 1008
officials 1006
success 1005
cl@@ 1003
respon@@ 1000
4@@ 998
New 997
br@@ 996
stra@@ 996
weapons 995
alism 994
mel@@ 994
hope 992
model 992
pu@@ 992
domin@@ 990
areas 988
amp@@ 988
advanced 988
nation 987
Ukraine 986
consider 983
sustainable 978
failed 978
gg@@ 977
gre@@ 977
exp@@ 977
she 976
information 976
ther@@ 975
pem@@ 975
Pakistan 975
ju@@ 975
production 974
lin@@ 974
xi@@ 973
relations 973
cra@@ 972
predic@@ 970
UK 965
requires 964
modern 963
sem@@ 963
infrastructure 963
Party 963
ging 963
elections 961
taking 961
cor@@ 960
carbon 959
reali@@ 959
opposition 958
main 958
fa@@ 958
away 956
0@@ 955
Le@@ 955
line 955
Central 955
her@@ 955
fy 954
ators 954
consumption 952
banking 952
single 952
а 952
require 950
Italy 949
seen 948
powerful 947
ji@@ 946
four 946
go@@ 945
cu@@ 945
wed 944
ast 943
aid 943
ide@@ 942
massive 941
fear 941
10 940
having 939
majority 938
cul@@ 938
head@@ 937
group 935
sm 933
International 932
ambi@@ 932
cause 931
funds 930
ages 929
finally 928
char@@ 928
average 927
contribu@@ 927
pressure 925
imp@@ 924
failure 923
focus 923
civil 923
v 922
created 922
ka 922
months 921
tahun 921
debate 920
response 920
н@@ 920
Islamic 919
opportunity 918
ini@@ 917
U@@ 914
Prime 914
lebih 914
ines 913
ach@@ 911
ap 911
all@@ 911
Muslim 910
popular 907
ж@@ 906
nor 906
sible 904
sting 903
ality 903
6@@ 902
ger 902
Israeli 902
tion@@ 902
consequences 901
largest 898
culture 897
eh@@ 896
ast@@ 895
decline 895
recovery 895
Commission 894
lost 894
nothing 894
cut 894
ECB 890
working 890
mar@@ 888
ei@@ 886
NATO 886
uses 885
Latin 885
appro@@ 885
effort 884
productivity 883
later 883
doing 883
vol@@ 882
н 882
supply 880
ama 880
prev@@ 879
stat@@ 878
wealth 878
idea 877
ced 877
became 876
/ 875
policymakers 875
influence 875
Japanese 875
mer@@ 875
blo@@ 874
legal 874
ser@@ 873
liber@@ 872
pose 871
val 871
nor@@ 871
media 871
certain 870
ories 870
effects 869
address 869
alone 869
assets 869
official 868
globalization 866
bel@@ 866
annual 865
total 865
increasing 865
ung@@ 864
expected 860
Egypt 860
programs 860
keep 860
rely 859
makes 858
campaign 858
Afghanistan 858
strategic 857
tional 855
leader 854
solution 853
os 852
bad 852
period 851
scale 851
1.@@ 851
data 851
late 851
lives 850
bl@@ 850
fl@@ 850
known 849
bring 849
not@@ 848
values 848
prevent 848
Fed 846
play 846
here 844
give 841
natural 840
worse 839
kem@@ 839
goods 839
Brazil 838
hold 838
fri@@ 838
build 837
defense 835
ki@@ 835
integration 835
top 835
huge 834
ged 833
began 833
benefit 831
cooperation 830
ances 830
mit@@ 830
del@@ 830
vote 830
tation 829
either 829
bonds 829
ada 828
emissions 828
forced 828
Saudi 828
posed 827
recession 827
structural 827
building 826
something 826
freedom 825
jo@@ 825
hol@@ 825
end@@ 825
job 822
ed@@ 821
terrorism 821
water 821
ы 821
G 821
Europeans 820
form@@ 820
loo@@ 820
limited 819
л@@ 819
close 819
Re@@ 818
behind 817
voters 816
exports 816
coun@@ 812
evi@@ 811
pos@@ 810
evidence 810
capacity 809
presidential 809
cy@@ 807
qui@@ 807
ars 807
living 807
deficits 807
corruption 807
taxes 807
Fund 807
let 806
ected 806
ғ@@ 806
eng@@ 805
experience 805
def@@ 805
ational 804
ther 804
things 803
dem@@ 803
atives 803
ened 802
London 801
divi@@ 800
B 800
ingly 798
lar@@ 798
leg@@ 796
ple@@ 796
emer@@ 794
economists 793
achieve 793
effect 792
nearly 792
really 791
situation 791
particular 790
attrac@@ 789
cur@@ 789
turned 789
parts 788
ening 788
fundamental 787
ale 787
ess@@ 787
ward 786
arch@@ 786
largely 786
enh@@ 786
appe@@ 785
Asian 785
Security 784
ms 784
religious 784
actions 784
plan 783
governance 782
gr@@ 782
8@@ 780
est@@ 780
alized 780
lies 780
func@@ 780
cial 779
wn 778
agenda 778
union 777
traditional 777
authorities 777
acy 777
confron@@ 777
following 776
vers 775
allow 775
probably 774
took 774
Nations 773
comes 772
the@@ 772
,000 771
den 771
soon 771
shift 770
aged 770
hand 770
ll 770
gain 769
anti@@ 767
ned 767
kil@@ 767
bat@@ 767
spe@@ 765
highly 765
clearly 764
individual 764
cri@@ 764
bri@@ 763
tan@@ 763
indic@@ 763
table 762
matter 761
40 760
tors 759
held 758
negoti@@ 758
ft 757
attacks 757
sin@@ 756
negotiations 756
1990 756
ining 755
status 755
60 754
confidence 753
environment 753
у@@ 753
avoid 751
fac@@ 751
step 750
S 750
moral 750
tual 748
collapse 747
attention 747
accoun@@ 746
proc@@ 745
P 745
oper@@ 744
ref@@ 744
era 744
eu@@ 743
Z@@ 742
ар@@ 741
vision 740
ately 740
reality 740
0s 739
science 738
tur@@ 738
son 738
cks 738
2010 736
air@@ 735
cing 734
industry 733
successful 733
live 732
enti@@ 732
down@@ 731
ste@@ 731
powers 730
Spain 729
govern@@ 727
relatively 726
kel@@ 726
dent 726
7@@ 726
wrong 725
sto@@ 725
actually 724
ee@@ 723
off@@ 723
cent@@ 722
break@@ 721
cases 721
direct 720
certainly 718
above 718
ore 718
ger@@ 718
vers@@ 718
besar 718
15 717
sta@@ 716
contrast 716
II 716
minister 716
aff@@ 714
sure 714
verse 712
mor@@ 712
Al@@ 711
ry 711
Ri@@ 710
ment@@ 709
enting 709
ff@@ 709
ал@@ 708
rapid 708
por@@ 706
tr@@ 706
conclu@@ 706
comple@@ 706
thing 706
# 705
came 705
ber 704
stop 704
ga 703
regul@@ 702
hu@@ 702
everyone 702
air 701
weak 699
Su@@ 698
competition 697
kes@@ 697
fight 696
mean 695
light 694
elsewhere 693
sist@@ 693
kind 693
outside 692
ghts 691
han 691
call 690
basic 690
ll@@ 690
decisions 689
Kingdom 689
stock 688
produce 687
Rom@@ 687
cities 687
African 687
O 685
understand 685
industrial 684
standards 683
2009 683
tes 683
reli@@ 682
body 681
esses 681
spi@@ 681
fic@@ 681
reducing 681
investments 681
survi@@ 681
opportunities 681
news 680
asset 680
tend 680
contrac@@ 680
ls 679
ground 679
tran@@ 678
25 678
easy 677
cip@@ 677
sch@@ 677
ire 676
ession 676
mit 675
don 675
і 673
goal 673
ological 672
relative 672
mission 672
concerns 672
days 671
alist 671
words 671
deep 671
soci@@ 670
super@@ 670
cro@@ 670
yi@@ 670
che@@ 670
owing 669
fail@@ 669
independent 669
0.@@ 668
dep@@ 667
month 667
ash@@ 667
millions 667
improve 666
creating 666
ory 666
revi@@ 666
reasons 666
mereka 666
net 665
pression 664
hin@@ 664
financing 664
responsibility 663
ones 663
ann@@ 663
larger 663
commitment 663
show 663
tain 663
external 662
St@@ 662
stable 661
reach 661
е 661
willing 660
identi@@ 660
ve@@ 660
tro@@ 659
target 659
outcome 657
protect 657
tac@@ 657
press 657
oli@@ 656
pas@@ 655
lines 655
critical 655
results 655
stu@@ 655
refugees 655
ens 654
ris@@ 654
export 653
behavior 653
innovation 653
T 652
quickly 652
family 651
indi@@ 651
city 651
bul@@ 649
ures 649
cle@@ 649
ku@@ 649
serve 649
environmental 648
alternative 648
movement 647
ell@@ 647
quality 647
bed 646
Mexico 646
include 646
accept 646
anc@@ 645
found@@ 644
beginning 644
September 643
ering 643
cuts 643
boost 642
speci@@ 641
crises 640
becoming 640
established 640
fication 638
assu@@ 638
ist 637
sovereign 636
Great 636
mark@@ 636
rup@@ 636
R 636
ong 636
won 636
fer@@ 635
dly 635
caused 635
invol@@ 635
Greek 635
threat@@ 635
equi@@ 634
asan 633
ish 633
unlikely 632
sanctions 632
general 631
size 631
succ@@ 631
brought 631
disease 630
State 630
management 628
tures 627
performance 627
along 627
Ro@@ 627
basis 626
sha@@ 626
stre@@ 626
counter@@ 626
ur 626
death 625
bra@@ 625
independence 625
educ@@ 624
purch@@ 624
fair 624
197@@ 624
explo@@ 623
stimulus 623
sus@@ 623
Mar@@ 623
prime 623
inclu@@ 623
rel@@ 623
dar@@ 622
bal@@ 622
repe@@ 621
dangerous 621
any@@ 621
pat@@ 621
sides 620
Paris 620
boo@@ 618
ked 618
formed 617
Development 617
class 616
currently 615
corporate 615
helped 615
allowed 615
mean@@ 615
ods 615
intervention 615
ster 614
cultural 614
tersebut 614
dro@@ 613
publi@@ 612
vement 612
meet 611
nar@@ 611
forward 610
inten@@ 610
elected 610
economics 609
produc@@ 609
Washington 609
unfortunately 608
ences 608
Islam 607
provided 607
hy@@ 607
raise 607
recognize 606
report 606
middle 605
dapat 604
9@@ 604
societies 604
invest@@ 604
exten@@ 604
dy 603
gro@@ 602
0,000 602
eventually 602
complex 601
inequality 601
pe 601
revolution 601
border 601
relationship 600
hom@@ 600
histori@@ 600
six 600
surpri@@ 600
ш@@ 599
ow@@ 599
efficient 599
maintain 598
worldwide 598
Internet 598
mili@@ 597
claim 597
meeting 597
Hamas 597
regulation 596
creation 596
2007 595
Ch@@ 595
reserves 595
Congress 595
thinking 595
deb@@ 594
saving 593
finan@@ 593
going 593
entire 592
technologies 592
develop 591
198@@ 591
ake 590
main@@ 589
core 589
ns 588
attack 588
cha@@ 587
ye@@ 587
De@@ 587
austerity 587
vot@@ 587
throughout 586
iting 586
ir 586
roughly 586
pursu@@ 586
bility 586
mental 586
path 586
asi@@ 585
aling 585
yed 585
responsible 585
Palestinians 585
kin@@ 585
poli@@ 583
ws 583
ko@@ 583
negative 583
neither 583
near 582
output 582
meanwhile 582
continued 581
some@@ 581
ordinary 581
lied 580
membership 580
repres@@ 580
generation 580
vered 579
liberal 579
simple 579
gence 578
п@@ 578
tru@@ 578
experi@@ 578
alization 578
households 577
cau@@ 577
appears 577
victory 576
insurance 576
related 576
required 576
exclu@@ 575
positive 575
jud@@ 575
que 575
He@@ 575
gi 574
products 574
essential 573
valu@@ 573
sively 573
aci@@ 573
proposed 571
ia 571
nbsp 571
eption 571
gradu@@ 571
An@@ 571
increases 571
gui@@ 571
int 571
lat@@ 570
concern 570
Barack 570
bs 570
reduction 570
encoura@@ 569
ay@@ 569
ology 569
leave 569
D 569
offer 568
In@@ 568
similarly 568
cou@@ 568
amount 568
warming 567
National 567
sometimes 567
cle 567
emi@@ 567
organizations 567
2.@@ 567
adly 566
lot 566
star@@ 566
answer 566
trillion 566
bom@@ 566
ends 566
additional 565
Ar@@ 565
housing 565
Clinton 564
tin@@ 563
argue 563
gement 563
thought 563
tim@@ 563
ried 562
olo@@ 562
appear 562
нд@@ 562
pur@@ 562
Trump 562
pped 562
row 562
kita 562
ideas 561
regions 561
ats 560
Mo@@ 559
nature 559
Ma@@ 559
ank@@ 559
standing 558
tem@@ 558
source 558
open@@ 558
2015 558
choice 557
gar@@ 557
justi@@ 557
Argentina 557
vis@@ 556
individuals 556
bisa 556
test 555
internal 555
rene@@ 555
anding 554
harus 554
adi@@ 553
prosperity 553
framework 553
terrorist 552
damage 552
loss 552
hood 552
paid 551
mass 551
tively 550
lities 550
impossible 550
drug 550
rich@@ 549
knowledge 549
kon@@ 549
particip@@ 549
ani 549
due 549
tel@@ 548
elling 547
г@@ 547
gs 547
win 546
art 546
des@@ 546
unity 545
elimin@@ 545
occ@@ 544
bang@@ 544
incentives 544
jec@@ 544
agreed 544
savings 543
rein@@ 543
followed 542
2000 542
borders 541
personal 541
gri@@ 540
sia 540
ting@@ 539
existing 539
dollars 539
company 538
fore@@ 538
ner 538
institutional 538
ator 537
comm@@ 537
nations 537
below 537
projects 537
available 537
prof@@ 537
En@@ 536
160 536
ort 536
teri@@ 535
ma 535
rapidly 535
constitu@@ 535
competitive 535
ultimately 535
events 535
borro@@ 535
area 534
gap 533
compar@@ 533
allies 533
center 533
lands 533
Pro@@ 532
sion@@ 532
arily 532
loans 532
assistance 532
advantage 532
ev@@ 532
aimed 531
multi@@ 531
ef@@ 531
ig@@ 531
wers 531
ine@@ 531
aries 530
respect 530
Federal 530
feel 530
continues 529
try 529
chance 529
laws 529
100 528
antly 528
ligh@@ 528
equ@@ 528
Gu@@ 527
Poland 527
dable 527
dge 527
hand@@ 527
trust 526
office 526
reduced 526
fail 525
push@@ 525
inn@@ 525
consist@@ 525
bahwa 525
ima@@ 525
equity 525
ung 524
whole 524
bagi 524
she@@ 524
seek 524
vari@@ 523
can@@ 523
-@@ 523
kat 523
ahead 522
arti@@ 522
logi@@ 522
Ab@@ 522
ol 522
ven@@ 521
grow 521
factors 521
welfare 521
questions 521
mini@@ 521
appar@@ 521
Per@@ 521
changed 520
service 520
direc@@ 520
sk@@ 520
stag@@ 520
baru 519
aring 519
Lebanon 519
з@@ 518
mism 518
wat@@ 518
11 518
extreme 518
ben@@ 517
interven@@ 517
Arabia 517
sek@@ 517
consider@@ 517
wages 517
politically 516
bre@@ 515
organi@@ 515
Pe@@ 515
exec@@ 515
dunia 514
ots 514
structure 514
care@@ 514
val@@ 514
authority 513
sum@@ 513
thousands 513
constra@@ 513
wants 513
thereby 512
att@@ 512
ancing 512
atau 512
ер@@ 511
trying 511
effectively 511
exac@@ 511
Monetary 510
uk 510
overall 510
attemp@@ 510
consumer 510
merely 509
orities 509
providing 509
therefore 509
sist 508
begin 508
So@@ 508
ungan 508
easily 507
moment 507
mark 507
deli@@ 507
via 507
establish 507
General 507
Secretary 507
Ne@@ 507
committed 506
soft 506
principle 506
obvious 505
justice 505
serv@@ 505
embra@@ 504
stak@@ 504
funding 504
suggests 504
ration 504
inde@@ 504
follow 503
conduc@@ 503
1980 503
head 502
facing 502
gains 502
directly 502
protection 501
agree 500
burden 500
flows 500
pla@@ 500
adalah 499
spent 499
Kremlin 499
promote 499
don@@ 498
ept 498
neighbors 498
ements 497
ports 497
YORK 497
sectors 497
businesses 497
prot@@ 497
dah 497
fundament@@ 496
yes 496
claims 496
Gaza 496
unless 496
construction 495
2001 495
reached 494
xed 494
sent 494
stronger 494
2011 494
scientific 494
00 494
historical 494
Bo@@ 494
jected 493
productive 493
descri@@ 493
slow@@ 493
ring 493
separ@@ 493
matters 493
treatment 492
talks 492
Cold 492
consumers 492
transition 492
seemed 491
spec@@ 491
tal@@ 490
ster@@ 490
perc@@ 490
slow 490
Ti@@ 490
game 489
sely 489
built 489
Muslims 489
abilities 489
seeking 488
Eastern 488
cking 488
stand 487
immediate 487
special 486
record 486
expect 486
sco@@ 486
&apos;@@ 486
resp@@ 485
pressed 485
legitimacy 485
your 484
fighting 484
project 484
surplus 484
understanding 484
back@@ 484
coordin@@ 483
tra 483
ute 483
adap@@ 482
zero 482
likewise 482
wide 481
losses 481
eful 481
duc@@ 481
conver@@ 481
ships 480
shing 480
cles 480
targets 480
2012 480
ethnic 479
police 479
Q@@ 479
fra@@ 479
steps 478
undermin@@ 478
nam@@ 478
Nor@@ 478
points 478
ens@@ 477
conventional 477
pro 477
compared 477
oleh 477
regar@@ 477
medi@@ 477
demands 476
bly 476
sufficient 475
z 475
practi@@ 474
exam@@ 474
spread 474
temporary 473
parti@@ 473
loy@@ 473
equal 473
sen 473
technological 473
deci@@ 473
cen@@ 473
industries 472
tious 472
crucial 471
cli@@ 471
summit 471
cies 471
zes 471
viously 471
consensus 470
els 470
enab@@ 469
civili@@ 469
importance 469
shif@@ 469
Di@@ 469
solutions 469
gency 468
ched 468
repor@@ 468
George 468
mul@@ 468
school 468
book 468
save 468
ects 467
pet@@ 467
difference 467
spo@@ 467
dre@@ 467
regulatory 466
advoc@@ 466
condi@@ 466
199@@ 466
tig@@ 465
Bro@@ 465
id 465
ot 465
employ@@ 465
fuel 465
As@@ 465
aran 464
buy 464
rest@@ 464
pel@@ 464
towards 464
Au@@ 464
resol@@ 464
Treaty 464
standard 464
forms 463
Indian 462
2005 462
story 462
contrary 462
produced 462
destro@@ 461
worth 461
happen@@ 461
agreements 461
bit@@ 461
bail@@ 460
widely 460
ending 460
ress 460
usually 460
vast 460
competitiveness 459
fir@@ 459
tor@@ 459
armed 459
read@@ 459
substantial 458
len@@ 458
migration 458
Iranian 457
wel@@ 457
For@@ 457
wage 457
appreci@@ 457
oms 457
provi@@ 457
views 457
army 457
activities 456
dri@@ 456
tou@@ 456
pan@@ 456
Global 456
tent 456
capitalism 455
pre 455
ay 455
break 455
adv@@ 455
goals 455
belie@@ 455
fr@@ 455
bureau@@ 455
preci@@ 455
fre@@ 455
thern 455
secure 455
safety 455
avoi@@ 454
referendum 454
otherwise 454
enga@@ 454
gene@@ 454
none 454
cancer 454
enter@@ 453
clo@@ 453
shows 453
falling 452
post@@ 452
ey 452
correc@@ 451
diplomatic 451
meny@@ 451
unlike 451
child 451
Syrian 451
argument 451
plann@@ 451
earlier 451
coalition 450
propor@@ 450
happen 450
secara 450
primary 450
designed 450
da 450
rali@@ 450
lau@@ 450
stage 449
anything 449
withdra@@ 448
placed 448
partners 448
reti@@ 448
poses 448
present 448
port 447
2013 447
spend 447
adopted 447
expansion 447
shared 447
vital 447
vulnerable 446
remo@@ 446
cal@@ 446
aband@@ 446
achieved 446
lose 445
wars 445
impro@@ 445
av@@ 445
asked 445
temp@@ 444
diversi@@ 444
appoin@@ 444
doc@@ 444
kar@@ 444
December 444
isol@@ 443
stabili@@ 443
toler@@ 443
ton 443
extent 443
saf@@ 443
rupt 443
active 443
struggle 442
lit@@ 442
ate@@ 442
ө@@ 442
hasi@@ 442
doub@@ 442
flexi@@ 442
ases 442
driven 442
yp@@ 441
faces 441
anim@@ 441
arms 441
Reserve 441
various 440
success@@ 440
theory 440
ching 440
pp@@ 440
constitution 440
api 440
excessive 440
pul@@ 440
juga 440
promises 440
cho@@ 440
IC@@ 440
opinion 440
reflects 439
represent@@ 439
hundreds 439
alle@@ 439
ade 438
ail@@ 438
efficiency 438
2014 438
estimated 438
cans 438
provides 438
reflect 438
ukan 438
sm@@ 438
ong@@ 437
lac@@ 437
liquidity 437
fund 437
calls 437
adequate 437
E 436
principles 436
itu 436
previous 435
differences 435
credi@@ 435
tial 435
integr@@ 435
study 434
significantly 434
collective 433
kan@@ 433
doubt 433
eli@@ 433
introduc@@ 432
whereas 432
wh@@ 432
bac@@ 432
struc@@ 432
expectations 431
trend 431
implement@@ 431
lending 431
lik@@ 431
bing 431
whatever 431
focused 430
bank@@ 430
space 430
plac@@ 430
remark@@ 430
Se@@ 430
fol@@ 429
plans 429
November 429
sources 429
formal 428
suggest 428
direction 428
70 428
supported 428
demonstr@@ 428
dam@@ 428
favor 427
hor@@ 427
Sch@@ 427
favor@@ 427
oring 427
obser@@ 427
argued 427
ban@@ 427
sidents 427
argu@@ 427
went 427
tained 426
drugs 426
eled 426
else 425
urg@@ 425
whom 425
normal 425
boom 425
fas@@ 425
takes 425
unds 425
household 424
upon 424
ignor@@ 423
communities 423
abroad 423
eg@@ 423
ety 423
prospects 422
mostly 422
enormous 422
ә@@ 422
prove 422
viol@@ 422
biggest 422
partly 422
desig@@ 421
stand@@ 421
started 421
holders 421
sequ@@ 421
sin 421
collec@@ 421
cr@@ 421
students 421
worked 421
2006 420
limits 420
initi@@ 420
reve@@ 420
fast 420
faced 419
reco@@ 419
Libya 419
ner@@ 419
sters 419
widespread 419
bas@@ 419
trac@@ 418
ese 418
places 418
instru@@ 418
rep@@ 418
formation 418
happened 418
encourage 417
hon@@ 417
enjo@@ 417
mind 417
anded 417
sign 417
permanent 417
threats 417
assum@@ 417
engine@@ 417
12 417
himself 416
causes 416
med 416
incomes 416
radical 416
ple 416
popul@@ 415
safe 415
Sarkozy 414
loc@@ 414
inst@@ 414
democracies 414
creditors 414
pass@@ 414
thre@@ 413
respond 412
un 412
tics 412
arian 412
exist@@ 412
Col@@ 411
default 411
faster 411
property 411
ming 410
expendi@@ 410
pemerintah 410
severe 410
memper@@ 410
concent@@ 409
invest 409
unable 409
becomes 409
sama 409
Sen@@ 409
turning 409
bol@@ 408
federal 408
menjadi 408
bat 408
immigration 408
bai@@ 408
skills 408
York 408
anyone 408
coal 407
€ 407
sy@@ 407
shown 407
consolid@@ 407
models 407
seperti 406
saw 406
ere 406
fru@@ 406
rop@@ 406
ended 406
dan@@ 406
dies 405
counter 405
crimin@@ 405
ought 405
cutting 405
high@@ 405
getting 404
Poli@@ 404
acceler@@ 404
uncertainty 404
low@@ 404
Li@@ 404
ham@@ 404
M 403
ta 403
commercial 403
inci@@ 403
eling 403
Al 403
subsidies 403
instability 402
lec@@ 402
speech 402
forming 402
winn@@ 401
2004 401
worst 401
unan 401
ack 400
possibility 400
danger 400
influ@@ 400
agencies 400
protec@@ 400
everything 400
Vi@@ 399
payments 399
milit@@ 399
rese@@ 399
truth 399
volati@@ 399
changing 399
claim@@ 398
limit 398
contro@@ 398
families 398
analy@@ 398
met@@ 398
hab@@ 397
strengthen 397
giving 397
perubahan 397
ased 397
week 397
18@@ 397
ency 397
raising 396
sovereignty 396
Assad 396
mm@@ 396
uan 396
range 395
push 395
&apos; 395
trig@@ 395
squ@@ 395
promise 395
currencies 395
kes 395
origin@@ 394
vice 394
asion 394
Kosovo 394
rati@@ 394
ү@@ 394
managed 394
thi@@ 393
guarante@@ 393
ffi@@ 393
cat@@ 393
Co@@ 393
Cri@@ 393
revenues 393
lea@@ 393
appropriate 393
mid 392
candidates 392
Fi@@ 392
196@@ 392
factor 392
attempt 392
tedly 391
message 391
imposed 391
latest 391
exist 391
viewed 391
front 391
ami 390
farmers 390
pack@@ 390
tradi@@ 390
continent 390
absence 390
coll@@ 390
alize 390
Mi@@ 390
sures 390
manage 389
Brexit 389
stands 389
option 388
convinc@@ 388
works 388
accounts 388
Court 388
aled 388
supposed 387
uring 387
smaller 387
quarter 387
name 387
manufacturing 386
broad 386
194@@ 386
borrowing 386
compli@@ 386
supp@@ 386
eing 386
ic 386
crimes 385
candidate 385
anan 385
told 385
ker@@ 385
shor@@ 385
addition 385
ps 385
glob@@ 385
holding 385
namun 384
ол@@ 384
fying 384
ekonomi 384
tried 384
cir@@ 384
proposal 384
June 384
remained 383
thy 383
ask 383
running 383
rural 383
Republic 383
involved 383
new@@ 383
қ 383
ells 383
rele@@ 382
bankers 382
Christi@@ 382
rement 382
sou@@ 382
ass 382
treaty 381
round 381
closer 381
bilateral 381
ose 381
macroeconomic 381
relevant 381
tent@@ 381
smo@@ 381
pay@@ 381
constitutional 381
ami@@ 380
diseases 380
drive 380
ce@@ 380
considered 380
conflicts 380
establishment 379
win@@ 379
died 379
ries 379
ler 379
double 379
ential 379
bil@@ 379
identity 379
lers 379
Sp@@ 379
of@@ 379
targe@@ 379
sign@@ 379
migrants 378
fell 378
hit 378
join 378
recognized 378
signed 377
troops 377
erous 377
met 377
bond 377
Ni@@ 377
Economic 377
distribution 376
erg@@ 376
announced 376
ert 376
3.@@ 376
implement 376
presidency 376
improved 376
lah 376
reaching 376
perf@@ 376
deta@@ 376
ara 376
ұ@@ 376
ania 376
helping 376
dig@@ 376
2003 375
mur@@ 375
Gro@@ 375
pr@@ 375
ker 375
urban 375
ban 375
parliament 375
activity 375
hur@@ 375
hands 374
poll@@ 374
trading 374
oc@@ 374
enterpri@@ 374
regard 374
deaths 374
tment 374
wri@@ 374
equally 374
depends 374
cism 373
bles 373
communic@@ 373
precisely 373
owned 373
received 373
ven 373
deeply 373
circumstances 373
F 373
wo@@ 372
highest 372
essen@@ 372
sud@@ 372
sought 372
assess@@ 372
psych@@ 371
mal@@ 371
profi@@ 371
tured 371
Ireland 371
regimes 370
task 370
launched 370
gan@@ 369
ral 369
looking 369
priority 369
person 369
sustained 369
ackno@@ 369
expla@@ 368
mainly 368
context 368
medical 368
sil@@ 368
combined 368
broader 368
specific 368
р 368
goes 367
Mor@@ 367
ff 367
leaving 367
Bal@@ 367
Russians 366
thers 366
legislation 366
operations 366
eting 366
law@@ 366
profession@@ 366
atory 366
raised 366
asp@@ 365
hal 365
missi@@ 365
base 365
Republican 365
nomin@@ 365
pursue 365
ri 364
Indonesia 364
80 364
practice 364
cash 364
capit@@ 364
specul@@ 364
iklim 364
enable 364
fam@@ 364
abor@@ 363
electoral 363
strong@@ 363
ual 363
Georgia 363
enth 363
ague 363
peri@@ 363
suffering 363
ан@@ 363
resulting 362
ай@@ 362
judi@@ 362
tom@@ 362
compens@@ 362
firm 362
hardly 362
universal 362
ints 362
gone 361
member@@ 361
complete 361
asing 361
cum@@ 361
generally 361
oblig@@ 361
expor@@ 360
May 360
allowing 360
final 360
populist 360
20@@ 360
Hong 360
bor@@ 360
disco@@ 359
ст@@ 359
oned 359
comprehensive 359
Organization 359
ies 359
connec@@ 358
coura@@ 358
wer@@ 358
sid@@ 358
quite 358
experts 358
ct@@ 358
capita 358
subject 357
alloc@@ 357
greatest 357
ject 357
ain 357
ction 357
gun 356
deliver 356
forec@@ 356
acks 356
land@@ 356
ared 356
killed 356
gold 356
scientists 356
vention 356
discus@@ 356
moun@@ 356
terrorists 356
victims 356
John 356
easing 355
ongoing 355
ths 355
Sh@@ 355
controls 355
tian 354
tum@@ 354
expensive 354
agricultural 354
cer@@ 354
criti@@ 354
ace 354
promised 354
ell 354
frequ@@ 354
Can@@ 353
cru@@ 353
Mon@@ 353
adop@@ 353
Vladimir 353
field 353
house 353
deposi@@ 353
bru@@ 353
achie@@ 352
satu 352
credibility 352
posing 352
Bu@@ 352
vel@@ 352
arch 352
populations 352
Ara@@ 352
distribu@@ 352
complic@@ 352
associated 352
banyak 352
violent 351
poorest 351
schools 351
improving 351
Revolution 351
cide 351
multilateral 351
initiative 351
diplomacy 351
overwhel@@ 350
entirely 350
everywhere 350
defin@@ 350
dap@@ 350
style 350
weeks 350
dings 350
power@@ 350
cour@@ 350
work@@ 350
medic@@ 350
short@@ 350
ca 350
ony 350
legitimate 350
rhetoric 349
moderni@@ 349
born 349
immigrants 349
imports 349
my@@ 349
diagno@@ 349
meas@@ 349
depend 349
implies 349
protests 349
kom@@ 349
regulators 349
disaster 348
March 348
peaceful 348
poor@@ 348
revenue 348
determin@@ 348
uation 348
amp 348
lesson 347
ans@@ 347
uh 347
ме@@ 347
entrep@@ 347
skil@@ 347
bah@@ 347
devi@@ 347
elds 346
succeed 346
risk@@ 346
intelligence 346
profits 346
und 346
ange 346
decided 346
stimul@@ 346
compu@@ 346
geo@@ 345
nonetheless 345
Trade 345
hum@@ 345
va@@ 345
alliance 345
Iraqi 345
sharply 344
terhadap 344
bubble 344
sebagai 344
sound 344
type 343
dom 343
wanted 343
ken@@ 343
interest@@ 343
talk 343
anks 343
organization 342
belief 342
played 342
alah 342
ready 342
concerned 342
tools 342
Bel@@ 342
eld 342
malaria 342
January 341
kep@@ 341
Moscow 341
co 341
activi@@ 341
cot@@ 341
ill@@ 340
anya 340
partner@@ 340
Merkel 340
strugg@@ 340
bir@@ 340
ata 340
tensions 340
corpor@@ 340
conservative 340
tioning 340
emo@@ 340
bound 340
facilit@@ 339
contribute 339
sl@@ 339
prospect 339
restore 339
pension 338
receive 338
yn@@ 338
estimates 338
participation 338
sight 338
meth@@ 338
generate 338
Saddam 338
migr@@ 338
twenty 338
uti@@ 338
quali@@ 337
utive 337
learn 337
learned 337
sian 337
intellectual 337
ghten@@ 337
House 337
asional 337
emphasi@@ 337
resolution 337
1970 337
backed 336
! 336
ail 336
moving 336
continuing 336
strength 336
hop@@ 336
adjustment 335
Cambridge 335
crats 335
electricity 335
cracy 335
list 335
added 335
characteri@@ 335
monit@@ 335
45 335
ub@@ 334
heart 334
relief 334
ne 334
fic 334
stru@@ 334
options 334
Com@@ 334
operate 334
emerged 334
neg@@ 334
afford 334
positions 334
wal@@ 334
choose 333
pal@@ 333
eight 333
escap@@ 333
fossil 333
rit@@ 333
commodity 333
anj@@ 333
cit 333
undermine 333
lessons 333
bia 333
senti@@ 333
ack@@ 332
bab@@ 332
ensuring 332
dependent 332
training 332
ards 332
pap@@ 332
tax@@ 332
public@@ 332
Ger@@ 331
elite 331
tiveness 331
impose 331
ko 331
guarantee 331
requ@@ 331
Gre@@ 331
fears 331
court 330
room 330
lling 330
Kong 330
gh 330
affairs 330
Ac@@ 329
Nigeria 329
Or@@ 329
calcul@@ 329
difficul@@ 329
ыл@@ 329
July 329
Bar@@ 329
ered 329
Palestine 329
exerci@@ 328
Beijing 328
cement 328
hi 328
mistak@@ 328
returns 327
To@@ 327
cratic 327
visit 327
ured 327
gn@@ 327
green 327
debts 327
orang 327
gian 327
utes 327
alists 327
Constitu@@ 327
Fo@@ 327
hei@@ 326
ат@@ 326
unprecedented 326
willingness 326
defined 326
W. 326
stric@@ 326
rus 326
asy@@ 326
considerable 326
ministers 326
CO2 325
senior 325
stor@@ 325
defen@@ 325
mod@@ 325
pun 325
fulfi@@ 324
structive 324
DC 324
easier 324
fair@@ 324
potentially 324
ners 324
commun@@ 324
patients 323
suggest@@ 323
measure 323
won@@ 323
human@@ 323
bio@@ 323
numbers 323
gir@@ 323
controlled 323
sharp 322
conn@@ 322
Qaeda 322
blame 322
Tim@@ 322
juan 322
minim@@ 322
language 321
gave 321
economist 321
ың 321
akhi@@ 321
zone 321
cross 321
spor@@ 321
elt@@ 320
interpre@@ 320
cent 320
declared 320
leverage 320
Copenhagen 320
colle@@ 320
gl@@ 320
flo@@ 320
looks 320
restructuring 320
dr@@ 320
ales 319
wis@@ 319
nationalist 319
surv@@ 319
ste 319
usah@@ 318
Fr@@ 318
scenario 318
laun@@ 318
sphere 318
neighbor@@ 318
includes 318
diper@@ 318
cas@@ 318
ды 318
degree 317
kerja 317
ney 317
ice 317
imbalances 317
vit@@ 317
deri@@ 317
dered 317
extra@@ 317
uries 317
resistance 317
minority 317
communist 317
cust@@ 317
movements 316
unger 316
skepti@@ 316
seri@@ 316
playing 316
desper@@ 316
person@@ 316
southern 316
deep@@ 316
strategies 316
tet@@ 316
sei@@ 316
ratio 316
gul@@ 316
ken 315
territory 315
fallen 315
recogni@@ 315
determined 315
liberalization 315
seven 315
kin 315
affected 315
unt@@ 315
discrimin@@ 315
prim@@ 315
hanya 315
parliamentary 315
margin@@ 314
virtually 314
Brussels 314
initiatives 314
divided 314
energi 314
Communist 314
rable 314
practices 314
Ex@@ 314
ough 314
cycle 313
percentage 313
combination 313
Taiwan 313
truly 313
consequ@@ 313
mening@@ 313
overcome 313
seriously 313
trou@@ 312
iring 312
oun@@ 312
jumlah 312
University 312
fire 312
dd@@ 312
opponents 312
ie@@ 311
Fin@@ 311
authoritarian 311
ples 311
sport 311
road 311
starting 311
terror 311
pain@@ 311
ut 310
Den@@ 310
vements 310
tah@@ 310
tory 310
product 310
set@@ 310
implications 310
secular 309
telah 309
au 309
ference 309
resource 309
regulations 309
prison@@ 309
deni@@ 309
credible 309
inevitable 309
vering 309
refer@@ 308
Democratic 308
Har@@ 308
prepared 308
die 308
acceptable 308
discipl@@ 307
supporters 307
é@@ 307
col@@ 307
az@@ 307
defeat 307
amounts 307
quar@@ 307
bene@@ 307
ui 307
chil@@ 307
dged 307
distinc@@ 306
tain@@ 306
add 306
believed 306
faci@@ 306
err@@ 306
solidarity 306
Korean 306
religion 306
п 306
sional 306
resolve 306
mechanism 305
reser@@ 305
insu@@ 305
ue 305
tn@@ 305
Go@@ 305
deflation 305
upaya 305
im 305
auth@@ 305
bringing 304
refugee 304
wa 304
typically 304
aim 304
2002 304
rou@@ 304
peripher@@ 304
objectives 304
commitments 304
tered 304
aman 304
civilian 304
reconci@@ 304
promoting 304
shap@@ 304
acqu@@ 304
yo@@ 303
prefer@@ 303
memi@@ 303
nowadays 303
ill 303
driving 303
desire 303
actors 303
ero@@ 303
experienced 303
nationalism 303
arm@@ 303
18 302
destruction 302
immediately 302
bet@@ 302
underlying 302
ehi@@ 302
renew@@ 302
conference 302
zen 302
uri@@ 302
losing 302
commen@@ 302
sett@@ 302
nings 302
bon 301
vil@@ 301
feat@@ 301
got@@ 301
shape 301
Ser@@ 301
attitu@@ 301
rema@@ 301
90 301
clos@@ 301
500 301
opening 301
Parliament 300
od@@ 300
... 300
Sunni 300
twentieth 300
paying 300
geopolitical 300
voted 299
thro@@ 299
occurred 299
expand 299
acted 299
happ@@ 299
accepted 299
edly 299
foc@@ 299
Ken@@ 298
iled 298
version 298
fur@@ 298
fragi@@ 298
suffer 298
fuels 298
compromise 298
HIV 297
net@@ 297
technical 297
AIDS 297
implemented 297
presence 297
decide 297
analysis 297
Egyp@@ 297
SD@@ 297
Th@@ 297
visi@@ 297
ruling 296
planet 296
sym@@ 296
proce@@ 296
nut@@ 296
tioned 296
impe@@ 296
insur@@ 296
operation 296
gue 296
ellor 296
possibly 295
ank 295
challeng@@ 295
choices 295
offers 295
medium 295
expec@@ 295
mortgage 295
reta@@ 295
explain 295
rational 294
radi@@ 294
event 294
adopt 294
intended 294
surprise 294
proved 294
pace 294
lain 293
ki 293
consu@@ 293
IS@@ 293
bottom 293
Fre@@ 293
privati@@ 293
occur 293
Shia 293
sustain 293
meant 293
kebijakan 293
ern@@ 293
extremi@@ 293
crime 293
represents 292
offered 292
forcing 292
battle 292
ling@@ 292
gained 292
signs 292
closed 292
help@@ 292
long@@ 292
mechanisms 292
accumul@@ 292
barriers 292
setting 292
ech@@ 292
rever@@ 292
drop 292
pressing 291
Car@@ 291
mobili@@ 291
declining 291
satis@@ 291
fle@@ 291
fal@@ 291
equivalent 290
deser@@ 290
taxpay@@ 290
appeared 290
cious 290
restric@@ 290
board 290
slowdown 290
renminbi 290
fewer 290
bear 290
hopes 289
annya 289
physical 289
14 289
ss 289
grown 289
In 289
faith 289
aches 289
Po@@ 289
necessarily 289
vacc@@ 289
rative 288
supporting 288
dependence 288
economically 288
spiri@@ 288
transparency 288
aya 288
disa@@ 288
knows 288
arkan 288
Depression 287
ames 287
ads 287
lian 287
anni@@ 287
terr@@ 287
developments 287
Wall 287
moderate 287
structures 287
critics 287
after@@ 287
universities 287
excess 287
ous@@ 286
systemi@@ 286
mach@@ 286
ght@@ 286
reasonable 286
Abe 286
shr@@ 286
stream 286
sing@@ 286
objective 286
sistem 286
less@@ 286
institution 286
served 285
anish 285
outh 285
Comm@@ 285
Israelis 285
solve 285
outcomes 285
ze@@ 285
oning 285
flow 285
ection 285
leads 285
tal 285
maintaining 285
poin@@ 285
explan@@ 285
issued 284
causing 284
liferation 284
puni@@ 284
manipul@@ 284
Mu@@ 284
Serbia 284
Sa@@ 284
Italian 283
deeper 283
Islamist 283
trends 283
Si@@ 283
figu@@ 283
agri@@ 283
fif@@ 283
prosec@@ 283
Jord@@ 283
heavily 282
kept 282
studies 282
healthy 282
shi@@ 282
pon@@ 282
· 282
securities 282
advance 281
investi@@ 281
networks 281
arri@@ 281
worry 281
dramatically 281
imagine 281
share@@ 281
dramatic 281
statisti@@ 281
genuine 281
soldi@@ 280
protection@@ 280
Financial 280
usual 280
inher@@ 280
mistake 280
fat 280
carry 280
whi@@ 280
flationary 280
summer 280
dictator@@ 280
October 280
stance 280
mandate 280
revolution@@ 280
Govern@@ 280
illi@@ 280
fem@@ 280
obstac@@ 279
achieving 279
zi@@ 279
proposals 279
acts 279
han@@ 279
tari@@ 279
settlement 279
expen@@ 279
recognition 279
tability 279
motiv@@ 279
intern@@ 279
humanitarian 279
establishing 279
peny@@ 279
Taliban 279
keeping 279
transfer 278
lows 278
employe@@ 278
host 278
crow@@ 278
Che@@ 278
fil@@ 278
elites 278
perceived 278
atten@@ 278
cele@@ 278
ti 278
gran@@ 278
iness 278
ena 278
ca@@ 278
collap@@ 278
addressing 278
linked 277
putting 277
sor@@ 277
demonstrated 277
may@@ 277
team 277
exi@@ 277
sibi@@ 277
unilater@@ 277
promising 277
ense 277
surely 276
strengthening 276
sell 276
balanced 276
Jewish 276
determine 276
estim@@ 276
estate 276
administ@@ 276
essions 276
bang 276
perat@@ 276
chief 276
speak@@ 275
Cameron 275
ority 275
disin@@ 275
pol@@ 275
utan 275
rank@@ 275
Pre@@ 275
Gul@@ 275
bin@@ 275
wom@@ 275
sharing 275
gaining 275
annually 275
modest 274
wei@@ 274
innov@@ 274
hours 274
heavy 274
aggregate 274
essed 274
engage 274
V 274
itable 274
benef@@ 274
gres@@ 274
conven@@ 274
reflected 274
pollu@@ 274
regardless 274
hosti@@ 273
occupation 273
Me@@ 273
foot@@ 273
billions 273
ord@@ 273
Republi@@ 273
homes 273
Je@@ 273
Australia 273
criticism 273
ein 273
lear@@ 273
ective 273
aly@@ 273
nevertheless 273
requirements 272
anda 272
beberapa 272
vir@@ 272
Democrats 272
Treasury 272
weight 271
materi@@ 271
ches 271
emy 271
thir@@ 271
dynamic 271
bon@@ 271
players 271
allow@@ 271
suffer@@ 271
coloni@@ 271
bit 271
dialogue 271
represent 271
costly 271
persu@@ 270
altern@@ 270
Turk@@ 270
hal@@ 270
investasi 270
ury 270
classi@@ 270
pattern 269
aggressive 269
academi@@ 269
resist@@ 269
mer 269
addressed 269
understood 269
incen@@ 269
fig@@ 269
discussion 269
aki@@ 268
newspap@@ 268
ан 268
restrictions 268
Lu@@ 268
multi 268
sang@@ 268
je@@ 268
perspective 268
Chanc@@ 268
я@@ 268
ump@@ 268
prec@@ 268
ын@@ 267
Def@@ 267
insi@@ 267
wind 267
extrem@@ 267
recei@@ 267
twi@@ 267
ethi@@ 267
ouse 267
differ@@ 267
menj@@ 267
lin 267
exper@@ 267
digit@@ 266
ian 266
sal@@ 266
las@@ 266
Chi@@ 266
liter@@ 266
Un@@ 266
exit 265
weden 265
Man@@ 265
193@@ 265
Nobel 265
democra@@ 265
populi@@ 265
yers 264
Char@@ 264
campaig@@ 264
nat@@ 264
Kim 264
contra@@ 263
diver@@ 263
acked 263
with@@ 263
arrangements 263
IS 263
damp@@ 263
sig@@ 263
erb@@ 262
1999 262
aten 262
lar 262
moder@@ 261
desi@@ 261
philosop@@ 261
intensi@@ 261
ina 261
subsi@@ 261
gor@@ 260
chemi@@ 260
kers 260
gin@@ 260
legi@@ 260
tika 260
Hung@@ 259
robu@@ 259
Berlin 259
April 259
AR@@ 259
ala 259
quantitative 259
OECD 258
17 258
seem@@ 258
thin@@ 258
illu@@ 258
N 257
Naz@@ 257
spit@@ 257
get@@ 257
kl@@ 257
ua 257
outs 257
stopp@@ 257
lim@@ 256
our@@ 256
lab@@ 256
Hum@@ 256
tribu@@ 256
sensi@@ 256
ret 256
pun@@ 255
opposi@@ 255
ams 255
Rec@@ 255
dang@@ 255
fortunately 255
wait 254
л 254
4.@@ 254
sci@@ 254
ja 254
Pakist@@ 254
ater@@ 254
partner 253
stitu@@ 253
bollah 253
dul@@ 253
16 253
fron@@ 253
gin 253
progres@@ 253
ana 252
prin@@ 252
port@@ 252
ologi@@ 252
arm 252
200 252
Ke@@ 252
hr@@ 252
sustain@@ 252
hat@@ 252
eks 252
é 252
No@@ 251
ts@@ 251
Committee 251
uro@@ 251
Cha@@ 251
inevit@@ 251
imperi@@ 251
journali@@ 251
tell 250
avi@@ 250
yer 250
peac@@ 250
bak@@ 250
compani@@ 249
advanta@@ 249
beg@@ 249
asser@@ 249
lled 249
England 249
ас@@ 248
wider 248
та@@ 248
ел@@ 248
urs 248
depen@@ 248
uns 248
oud 247
demon@@ 247
pati@@ 247
195@@ 246
Amerika 246
Vietnam 246
provin@@ 246
X@@ 246
jour@@ 246
Mc@@ 246
lie 246
kn@@ 246
ath 246
chroni@@ 246
Blair 246
wle@@ 246
ret@@ 246
defini@@ 246
universi@@ 246
bahan 245
August 245
edi@@ 245
entr@@ 245
tially 245
bub@@ 245
Jo@@ 244
lan@@ 244
aggres@@ 244
ager 244
ution 243
call@@ 243
á@@ 243
Is@@ 243
Singap@@ 242
arly 242
13 241
agen@@ 241
Net@@ 241
lang@@ 241
tests 241
mans 241
gender 240
them@@ 240
los@@ 240
internation@@ 240
politik 240
plat@@ 240
ils 239
Portugal 239
Ber@@ 239
bet 239
Lab@@ 239
stin@@ 239
Euro 239
online 238
1997 238
contin@@ 238
gy 238
ss@@ 238
ath@@ 238
ues 237
Yu@@ 237
adju@@ 237
proper@@ 237
prosp@@ 237
Venezuela 237
ark@@ 236
opp@@ 236
Sudan 236
citi@@ 236
rat@@ 236
ople 236
budgets 235
indu@@ 235
kat@@ 235
Sum@@ 235
lob@@ 235
physi@@ 234
Street 234
nu@@ 234
U 234
ro 234
BR@@ 234
compe@@ 233
David 233
tot@@ 233
omi@@ 233
bes 232
esti@@ 232
ament 231
cc@@ 231
mption 231
innovative 230
Febru@@ 230
let@@ 230
commit@@ 230
material 230
sex@@ 230
politici@@ 230
timi@@ 230
ld 229
27@@ 229
inet@@ 229
astern 229
argum@@ 228
Dar@@ 228
35 228
fe 228
vin@@ 228
2030 228
enter 228
autom@@ 227
phen@@ 227
Liber@@ 227
demi@@ 227
absor@@ 227
announ@@ 227
autonom@@ 227
sky 226
conf@@ 226
Pri@@ 226
1998 226
vely 225
adi 225
quo 225
import@@ 225
therap@@ 225
disc@@ 225
rus@@ 224
ist@@ 224
fer 224
epide@@ 224
у 224
Chile 224
Medi@@ 224
Mah@@ 224
fund@@ 224
strength@@ 223
transpar@@ 223
Gs 223
asses 223
demographi@@ 223
yak 222
fest@@ 222
aim@@ 221
ach 221
й 221
dio@@ 221
associ@@ 221
й@@ 220
ow 220
harm@@ 220
extre@@ 220
transfers 219
Jer@@ 219
stry 219
moment@@ 219
Atlanti@@ 219
1989 219
seh@@ 218
dence 218
Kur@@ 218
limate 218
sili@@ 218
effec@@ 218
oh@@ 218
Ale@@ 217
ino@@ 217
Mubarak 217
Plan 217
nation@@ 217
ular 216
ld@@ 216
destabili@@ 216
la 216
offen@@ 216
confi@@ 216
Sah@@ 216
emen 216
Be@@ 216
eed 216
Hi@@ 215
felt 215
mortg@@ 215
did@@ 215
sever@@ 214
ails 214
dor@@ 214
pes@@ 214
Sou@@ 214
illegal 214
Abbas 214
bus@@ 214
tern@@ 214
mobi@@ 214
plan@@ 214
tex@@ 214
intensive 213
Chur@@ 213
manufac@@ 213
pragmati@@ 213
Kar@@ 213
Ha@@ 213
falls 213
sat@@ 213
DP 212
Ad@@ 212
defe@@ 212
reflec@@ 212
hat 212
wan@@ 211
ordin@@ 211
ahu 211
alth 211
hau@@ 211
ң 211
san@@ 211
promin@@ 211
Paul 210
ys@@ 210
stro@@ 210
Ta@@ 210
1991 210
ration@@ 209
vulner@@ 209
stration 209
bun@@ 209
anian 209
ep 209
sent@@ 208
Afgh@@ 208
produ@@ 208
fel@@ 208
\ 208
non@@ 208
posi@@ 208
territori@@ 208
ation@@ 207
Thailand 207
ball 207
uba 207
wards 207
bag@@ 207
QE 206
ula 206
versi@@ 206
mand@@ 206
prote@@ 206
patri@@ 205
wit@@ 205
essor 205
он@@ 205
syn@@ 205
Erdoğan 205
kal@@ 204
zz@@ 204
typ@@ 204
automati@@ 203
uns@@ 203
We@@ 203
75 203
lag@@ 203
Sin@@ 203
eign 203
num@@ 203
Ru@@ 203
Sal@@ 202
2016 202
blin@@ 202
reason@@ 201
hel@@ 201
Cor@@ 201
omin@@ 201
tle 201
Par@@ 200
concern@@ 200
recor@@ 200
ket@@ 200
kno@@ 200
aps 199
300 199
impor@@ 199
usi@@ 199
essi@@ 199
Gen@@ 199
regi@@ 199
Mal@@ 198
Keynes 198
ty@@ 198
elec@@ 198
Donald 198
fortun@@ 197
FS@@ 197
Ko@@ 197
Spr@@ 197
mus@@ 197
eter 196
buil@@ 196
plau@@ 196
reck@@ 196
Berlusconi 196
spr@@ 196
pain 196
ame 195
ui@@ 195
rais@@ 195
19 195
situ@@ 194
veness 194
plu@@ 194
ault 194
ре@@ 194
ks@@ 194
industri@@ 194
Ir@@ 193
mali@@ 193
demo@@ 193
enth@@ 192
stem 192
abi@@ 192
ritten 192
ultim@@ 192
Burma 192
som@@ 191
Mad@@ 191
2020 191
vor@@ 190
anced 190
om 190
substanti@@ 190
ett@@ 190
pra@@ 189
turns 189
Kyoto 189
Bas@@ 189
elector@@ 189
jects 189
fici@@ 188
absolute 188
aliforni@@ 187
ems 187
diplom@@ 187
volution 187
resul@@ 187
addafi 187
alo@@ 186
flu@@ 186
Mao 186
parado@@ 186
ror 186
Philipp@@ 186
eping 186
lig@@ 186
imm@@ 186
taining 185
Ahmadine@@ 184
dents 184
Engli@@ 184
22 184
stan 184
frag@@ 184
10@@ 184
Alli@@ 184
tenden@@ 184
Hollande 183
continu@@ 183
batt@@ 183
24 183
Musharraf 183
opo@@ 183
promot@@ 183
nis 182
soli@@ 182
Med@@ 182
xim@@ 182
Cent@@ 182
das@@ 182
dow@@ 182
Bosni@@ 182
althy 182
tan 181
mani@@ 181
declin@@ 181
va 181
amin 180
amm@@ 180
gel@@ 180
tives 180
duk@@ 180
27 180
Hussein 180
Na@@ 180
weap@@ 179
Chávez 179
kur@@ 179
ble@@ 179
Os 179
tz@@ 178
fini@@ 178
aria 178
Afrika 178
ins@@ 178
scen@@ 177
Wil@@ 177
sektor 177
plant 177
makers 177
21 177
J 177
alli@@ 177
stal@@ 176
occup@@ 176
thodo@@ 176
Mil@@ 176
Invest@@ 175
ateg@@ 175
&#93; 175
&#91; 175
Mexi@@ 174
Agen@@ 174
Partner@@ 174
aden 174
rid 174
voc@@ 174
ran@@ 174
enty 173
auto@@ 173
selves 173
ен@@ 173
paganda 173
graphi@@ 172
Res@@ 172
Am@@ 172
simp@@ 172
optimi@@ 172
ka@@ 172
с 172
NA 172
Pi@@ 172
tiv@@ 171
Institute 171
ques@@ 171
bel 171
Shi@@ 171
eme 171
ands 171
ң@@ 171
Islami@@ 171
techni@@ 171
Justi@@ 171
accep@@ 170
Euro@@ 170
Nu@@ 170
к 170
lle 170
bli@@ 170
princip@@ 169
foli@@ 169
elt 169
atri@@ 169
tech@@ 169
Sec@@ 169
Som@@ 169
volution@@ 169
Bill 169
great@@ 168
em 168
enei 168
wish 168
1,@@ 168
eless 168
shment 168
Sta@@ 168
maj@@ 167
UN@@ 167
NG@@ 167
chan@@ 167
Demo@@ 167
manu@@ 167
provo@@ 167
Xi 167
Ho@@ 167
ASEAN 167
quot@@ 166
23 166
Econ@@ 166
dest 166
Le 166
cker 166
systemati@@ 166
consi@@ 166
tar@@ 166
issu@@ 166
emis@@ 166
siden@@ 165
consum@@ 165
CE@@ 165
gets 165
Robert 164
в@@ 164
gering 164
verage 164
ene 164
gem@@ 164
hous@@ 163
WTO 163
PP 163
fare 163
suffici@@ 163
Angela 162
Malaysia 162
anta@@ 162
lock@@ 162
prob@@ 162
NA@@ 162
Fran@@ 162
Olympi@@ 162
Reagan 162
bin 161
2050 161
EC 161
electri@@ 161
Millenni@@ 161
Ji@@ 161
yne@@ 161
ges@@ 161
Banglades@@ 161
atholi@@ 161
symboli@@ 161
environ@@ 161
tens 161
cher 161
fs 160
ern 160
ices 160
Ku@@ 160
hen 160
ein@@ 160
fami@@ 160
uss 159
Forum 159
Bern@@ 159
reduc@@ 159
eas@@ 159
dis 159
nationali@@ 159
Hit@@ 159
Myanmar 159
ffs 159
Dec@@ 159
priv@@ 158
fort@@ 158
28 158
Tur@@ 158
preced@@ 158
City 158
tually 157
kri@@ 157
clas@@ 157
rie@@ 157
Ukra@@ 157
atastrophe 157
ew 156
tations 156
La@@ 156
ford 156
hund@@ 156
intellec@@ 156
quanti@@ 156
immen@@ 155
Ste@@ 155
mise 155
blu@@ 155
aus@@ 155
territ@@ 155
beit 155
nec@@ 155
signific@@ 155
accept@@ 154
policy@@ 154
gration 154
ush 154
Indi@@ 154
mal 154
War@@ 154
tradition@@ 154
Moh@@ 154
Ju@@ 153
1992 153
moni@@ 153
stan@@ 153
victi@@ 153
wledge 152
fit 152
spar@@ 152
sla@@ 152
legisl@@ 152
gan 151
xon 151
Dra@@ 151
sensus 151
simi@@ 151
FT@@ 151
ski 151
apit@@ 151
competi@@ 150
1994 150
Greensp@@ 150
relation@@ 150
Fatah 150
Du@@ 149
ums 149
gate 149
Pen@@ 149
gosla@@ 149
rigi@@ 149
lemma 149
16@@ 149
ra 149
gni@@ 149
Shar@@ 148
ond 148
fan@@ 148
agre@@ 148
block@@ 148
dung@@ 148
theo@@ 148
Ameri@@ 148
stood 148
lam@@ 147
17@@ 147
Mit@@ 147
CI@@ 147
mut@@ 147
intro@@ 147
versu@@ 147
jun@@ 147
adequ@@ 146
Str@@ 145
US@@ 145
dur@@ 145
Ra@@ 145
Proto@@ 145
lan 145
Tu@@ 145
Frie@@ 144
balances 144
tik 144
eign@@ 144
wise 144
typi@@ 144
multin@@ 144
camp@@ 143
deter@@ 143
Ebola 143
lage 143
lli@@ 143
ES@@ 143
ise 143
canc@@ 143
plus 143
Chira@@ 142
facto 142
like@@ 142
Ba@@ 142
HA@@ 142
fak@@ 142
resu@@ 142
Nicol@@ 142
Lo@@ 141
bot@@ 141
Ob@@ 141
alis@@ 141
eth@@ 141
enced 141
dictat@@ 140
That@@ 140
accor@@ 140
Bur@@ 140
gal 140
by@@ 140
ush@@ 140
pover@@ 140
Qu@@ 140
alem 140
vie@@ 140
integri@@ 139
Tri@@ 139
Princeton 139
201@@ 139
zen@@ 139
rei@@ 139
Jean 139
sour@@ 139
expan@@ 139
Sau@@ 139
implic@@ 138
tivity 138
sten 138
Frank@@ 138
65 138
ater 138
anization 138
à 138
guar@@ 137
1995 137
emplo@@ 137
wer 137
Bor@@ 136
Milosevi@@ 136
tida@@ 135
Pu@@ 135
Hillary 135
dens 135
infra@@ 135
Bi@@ 135
halt 135
lier 135
settle@@ 135
Thak@@ 134
Pra@@ 134
Goog@@ 134
every@@ 134
figh@@ 134
Wi@@ 134
AI@@ 134
transatlanti@@ 133
bud@@ 133
Front 133
enz@@ 133
gun@@ 133
charac@@ 133
dam 133
Hu@@ 133
Y 133
problemati@@ 132
redu@@ 132
geri@@ 132
norm@@ 132
struktur 132
modi@@ 132
15@@ 131
laut 131
org@@ 131
organis@@ 131
Wo@@ 131
ç@@ 131
ft@@ 131
Ang@@ 130
genu@@ 130
Mich@@ 130
orit@@ 130
adjust@@ 130
dynami@@ 130
Iraq@@ 130
curr@@ 130
zations 130
requi@@ 130
q@@ 130
Mark@@ 130
ffer 129
sibly 129
ever@@ 129
mot@@ 129
wan 129
produk@@ 129
volu@@ 129
busin@@ 129
ffer@@ 128
abo@@ 128
ume 128
nov@@ 128
tage 128
incre@@ 127
Wol@@ 127
amoun@@ 127
ops 127
dom@@ 127
т 127
bran@@ 127
ario 127
alien@@ 127
gene 126
tee 126
Wor@@ 126
Sun@@ 126
gar 126
treat@@ 126
formi@@ 126
ekonom@@ 126
west@@ 126
poten@@ 125
з 125
bar 125
utions 125
event@@ 125
neighb@@ 124
impli@@ 124
Del@@ 124
Syri@@ 124
zens 124
effici@@ 124
etri@@ 124
Ann@@ 124
Zi@@ 123
commodi@@ 123
bers 123
individu@@ 123
ok 123
Brazi@@ 123
onents 123
mati@@ 123
mitt@@ 122
alt 122
gen 122
ests 121
thous@@ 121
apa 121
baga@@ 121
klas@@ 121
Afri@@ 121
commer@@ 120
sanc@@ 120
oll@@ 120
defici@@ 120
kam@@ 120
м 120
я 120
mess@@ 119
Administration 119
Liby@@ 118
turing 118
ek 118
ni 118
ig 118
Ki@@ 118
bes@@ 118
Argent@@ 118
bis@@ 118
Pop@@ 118
bark@@ 118
Mus@@ 117
arrange@@ 117
follow@@ 117
ruption 117
propos@@ 117
IP@@ 117
ece 117
Emp@@ 117
tempor@@ 117
solven@@ 117
uli@@ 116
Pol@@ 116
avo@@ 116
Jun@@ 116
del 116
0 116
ader 116
offici@@ 116
Do@@ 116
promo@@ 115
dah@@ 115
grow@@ 115
chen 114
Gaz@@ 114
behavi@@ 114
ц@@ 114
eck 114
scho@@ 114
Ben@@ 113
thei@@ 113
Chri@@ 113
Bank@@ 112
Fu@@ 112
Bre@@ 112
dau@@ 112
bridge 111
ф@@ 111
religi@@ 111
atastrop@@ 110
Ah@@ 110
fis@@ 109
ita 109
risiko 109
ample 109
gang 109
kun@@ 108
и 108
step@@ 108
hap@@ 108
free@@ 108
lag 108
,@@ 107
absol@@ 107
Her@@ 107
where@@ 107
refor@@ 107
ander@@ 106
mes 106
sage 106
anders 105
jum@@ 105
drin@@ 105
Sel@@ 105
combin@@ 105
Power 105
domesti@@ 105
arr@@ 105
Inter@@ 105
susta@@ 105
lie@@ 105
Dis@@ 104
Cam@@ 104
Arti@@ 104
abri@@ 103
whol@@ 103
farm@@ 103
cla@@ 103
eci@@ 103
sav@@ 102
inte@@ 102
epti@@ 102
rief 102
certain@@ 102
­ 101
ander 101
� 101
wr@@ 100
gungs@@ 100
rought 100
eh 100
gas@@ 99
Men@@ 99
200@@ 99
strategi@@ 99
objec@@ 99
tin 98
xis 98
stark 98
Politi@@ 98
Joh@@ 98
denti@@ 98
Tha@@ 98
Rich@@ 98
App@@ 98
text 97
Economi@@ 97
stances 97
relati@@ 97
Fl@@ 97
Georgi@@ 97
onald 97
Progra@@ 97
Af@@ 96
ith 96
fort 96
authorit@@ 96
sten@@ 96
pak@@ 96
tries 96
alter 96
Fe@@ 96
chs 95
relev@@ 95
tz 95
А@@ 95
occur@@ 95
scienti@@ 95
Nigeri@@ 95
avail@@ 95
Sing@@ 94
strate@@ 94
civi@@ 94
sle@@ 94
cht 94
H 94
L 94
Sy@@ 94
Uni@@ 94
unia 94
ó@@ 94
Tr@@ 94
2,@@ 94
zer 94
lok@@ 94
э@@ 93
zu@@ 93
Austra@@ 93
institu@@ 93
hil@@ 93
langu@@ 93
Tru@@ 93
heav@@ 93
ually 93
Initiative 93
circum@@ 93
Des@@ 92
gab@@ 92
develop@@ 92
are@@ 92
Fir@@ 91
Asi@@ 91
IP 91
Im@@ 90
Pa@@ 90
basi@@ 90
trau@@ 90
Te@@ 90
vul@@ 90
retary 89
tau@@ 89
republi@@ 89
Op@@ 89
West@@ 89
percei@@ 89
mir 89
Sol@@ 89
Scho@@ 89
Vol@@ 89
dal@@ 88
betra@@ 88
Kon@@ 88
dest@@ 88
phi@@ 88
dise@@ 88
Gold@@ 87
anz@@ 87
Est@@ 87
bein@@ 87
Holl@@ 87
bagai 87
gung 86
jen@@ 86
perman@@ 86
Lag@@ 86
ior 86
tol@@ 86
prehen@@ 86
K 86
kus@@ 86
mp 86
Mis@@ 86
tung 85
uncertain@@ 85
hang 85
tat@@ 85
My@@ 85
Gi@@ 85
offi@@ 85
Wah@@ 84
Stu@@ 84
das 84
Cy@@ 84
Gol@@ 84
j 84
Ita@@ 84
mil@@ 84
fall@@ 83
Sach@@ 83
parli@@ 83
sien 83
wu@@ 83
Trans@@ 83
Industri@@ 83
op 83
zer@@ 83
multilater@@ 83
Ge@@ 83
servi@@ 83
through@@ 83
konf@@ 82
intel@@ 82
ession@@ 82
tho@@ 81
kus 81
asion@@ 81
degre@@ 81
Kin@@ 80
emerg@@ 80
sun@@ 80
Br@@ 80
whe@@ 80
essive 80
hier@@ 80
frame@@ 79
ideologi@@ 79
unic@@ 79
Kore@@ 79
nology 79
engen 79
goti@@ 78
minist@@ 78
feld 78
Sad@@ 78
fik@@ 78
extern@@ 77
subst@@ 77
rö@@ 77
° 77
vict@@ 76
sug@@ 76
Ver@@ 76
will@@ 76
ums@@ 75
EA@@ 75
gest@@ 75
gent@@ 75
bi 75
che 75
iti@@ 75
prakti@@ 74
ich@@ 74
Lat@@ 74
Fra@@ 74
lying 74
pag@@ 74
ren 74
Coun@@ 73
Serbi@@ 73
appropri@@ 73
tural 73
mom@@ 73
EC@@ 73
Kat@@ 72
+ 72
urity 72
signi@@ 72
kor@@ 72
Bri@@ 72
Jan@@ 71
о 71
servative 71
hen@@ 71
eig@@ 71
trilli@@ 71
ternal 71
_ 71
Pat@@ 71
sians 71
abil@@ 71
Pal@@ 71
lus@@ 71
uture 70
ethni@@ 70
DS 70
valent 70
aus 70
pemer@@ 70
cti@@ 70
thin 70
Ol@@ 70
í@@ 70
macro@@ 70
ym@@ 70
kol@@ 70
yle 70
imag@@ 70
ul 69
Dru@@ 69
erci@@ 69
Bra@@ 69
institution@@ 69
untu@@ 69
W 69
wir@@ 69
suppor@@ 68
streng@@ 68
aro@@ 68
ssi@@ 68
Arabi@@ 68
Hin@@ 67
dar 67
lei@@ 67
ade@@ 67
Ter@@ 67
lt 67
Min@@ 67
Resol@@ 67
enorm@@ 67
vor 66
son@@ 66
inta@@ 66
cil 66
restruc@@ 66
dou@@ 65
Prin@@ 65
Т@@ 65
Bang@@ 65
world@@ 65
rum 65
ete 65
bas 65
nit@@ 65
ie 65
Bei@@ 64
ament@@ 64
ler@@ 64
sad 64
lia 64
Қ@@ 64
reas@@ 64
viron@@ 64
vez 64
wo 64
urities 64
£ 63
Tra@@ 63
univers@@ 63
politi@@ 63
stly 63
Stand@@ 63
dient 63
recon@@ 63
è@@ 63
aner 62
ange@@ 62
ь@@ 62
shar@@ 62
Plat@@ 62
Pau@@ 62
rea 62
zo@@ 61
Stra@@ 61
gabe 61
deca@@ 61
beru@@ 61
kos 61
Gr@@ 61
sexu@@ 61
larg@@ 61
capac@@ 61
dea@@ 60
sus 60
ddle 60
fun@@ 60
opini@@ 60
mar 60
sam@@ 60
Bundes@@ 60
ehr@@ 59
Kir@@ 59
tom 59
refu@@ 59
tw@@ 59
gang@@ 59
И@@ 59
vo 59
sie@@ 59
äu@@ 59
Institu@@ 58
Mat@@ 58
sph@@ 58
run@@ 58
addres@@ 58
scher 58
sident 58
tel 57
atori@@ 57
rat 57
barri@@ 57
ups 57
tren@@ 57
produkti@@ 57
rot@@ 57
obil@@ 56
struction 56
CO@@ 56
acher 56
conflic@@ 56
Reform 56
eff@@ 55
Spe@@ 55
Bud@@ 55
seper@@ 55
ols 55
Agenda 55
jah@@ 54
Mach@@ 54
Win@@ 54
Eli@@ 54
Glob@@ 54
Indone@@ 54
х@@ 54
Phi@@ 54
ï@@ 54
ligi@@ 54
ful@@ 54
gum@@ 54
fers 53
sover@@ 53
inge 53
andel@@ 53
Pap@@ 53
hart 53
onds 53
zy@@ 52
Gra@@ 52
Wei@@ 52
establi@@ 52
Mechan@@ 52
ñ@@ 52
reach@@ 52
tivi@@ 52
Nat@@ 52
apital 51
3,@@ 51
At@@ 51
ring@@ 51
System 51
chen@@ 51
Intel@@ 51
lev@@ 51
Prote@@ 51
Ren@@ 51
Solidar@@ 51
Ph@@ 50
Infra@@ 50
sition 50
terse@@ 50
bert 50
Strategi@@ 50
sche@@ 50
chie@@ 50
later@@ 49
ú@@ 49
Angel@@ 49
aren 49
Eurozone 49
Kor@@ 49
indepen@@ 49
sibility 49
ń@@ 49
Р@@ 49
vili@@ 49
eng 49
stark@@ 49
aut 49
progra@@ 48
Venezuel@@ 48
Gei@@ 48
len 48
sel 48
energi@@ 48
ado@@ 48
add@@ 48
inst 48
¥ 47
Gri@@ 47
ign@@ 47
ember 47
klu@@ 47
hing@@ 47
konsu@@ 47
candid@@ 47
Minist@@ 47
Tro@@ 46
dex 46
opport@@ 46
Г@@ 46
Rus@@ 46
X 46
Bet@@ 45
Tai@@ 45
Б@@ 45
flation 45
kredi@@ 45
Dur@@ 45
eller 45
comprehen@@ 45
Terror@@ 45
Milit@@ 45
El@@ 45
Jour@@ 45
sche 45
shal@@ 45
spra@@ 45
dine@@ 45
gmati@@ 45
Mas@@ 45
bt 44
paya 44
Mul@@ 44
q 44
wen@@ 44
Atom@@ 44
º 44
olds 44
kli@@ 44
staun@@ 44
fisk@@ 44
acro@@ 43
kra@@ 43
Stre@@ 43
ab 43
The@@ 43
akti@@ 43
quo@@ 42
000 42
Fis@@ 42
caus@@ 42
technologi@@ 42
prospec@@ 42
stabi@@ 42
ech 42
Green@@ 42
ć 42
billi@@ 42
kum@@ 42
М@@ 42
jakan 42
š@@ 42
egal 42
Deut@@ 41
IV 41
Imp@@ 41
Sovi@@ 41
Put@@ 41
ingdom 41
gel 41
angs@@ 41
Malaria 41
onom@@ 41
Е@@ 41
verb@@ 41
klim 41
los 41
Ak@@ 41
fore 41
dies@@ 41
Land 41
ladi@@ 41
asser 41
Hei@@ 40
eins 40
4,@@ 40
Kom@@ 40
cken 40
atlanti@@ 40
rom 40
uro 40
bare 40
lemm@@ 39
Ж@@ 39
Ш 39
reven@@ 39
Hal@@ 39
dru@@ 39
ю@@ 39
sau@@ 39
ellen 39
• 39
Er@@ 39
ei 39
ae@@ 39
Portu@@ 39
lands@@ 39
sistance 39
efs 39
ghly 38
perspec@@ 38
Tech@@ 38
Viet@@ 38
gress 38
titu@@ 38
etary 38
rhetori@@ 38
Z 38
annu@@ 37
dem 37
eler@@ 37
konserv@@ 37
lung 37
ene@@ 37
AS@@ 37
Koh@@ 36
Bom@@ 36
lifer@@ 36
Fun@@ 36
there@@ 36
une@@ 36
derung 36
Nation@@ 36
Tre@@ 36
kamp@@ 36
ollar 36
bren@@ 36
ministeri@@ 35
Kl@@ 35
jem@@ 35
sag@@ 35
Indu@@ 35
beha@@ 35
Oper@@ 35
negar@@ 35
в 35
nie 35
doch 35
parliament@@ 35
kti@@ 35
kriti@@ 35
kaum 35
radik@@ 34
curren@@ 34
sels 34
tet 34
dren 34
Dialo@@ 33
lass 33
morali@@ 33
ungs@@ 33
Lin@@ 33
Stat@@ 33
pli@@ 32
enge 32
Stru@@ 32
economi@@ 32
Isla@@ 32
ob 32
struktu@@ 32
schi@@ 32
Zu@@ 32
riti@@ 32
conv@@ 32
Tran@@ 32
sni@@ 32
lipp@@ 32
Gü@@ 32
Bl@@ 32
ч@@ 32
Provin@@ 32
erie 32
Irak 31
Regi@@ 31
ergi@@ 31
ã@@ 31
Kri@@ 31
quick@@ 31
Quar@@ 31
stes 31
OR@@ 31
region@@ 30
Sor@@ 30
Nich@@ 30
alition 30
.000 30
Treas@@ 30
agi@@ 30
tun 30
ubahan 30
Hy@@ 30
ente 30
Hil@@ 30
х 30
Gar@@ 30
eil 30
Super@@ 29
Fren@@ 29
mut 29
Д@@ 29
agement 29
Ein@@ 29
Eis@@ 29
dung 29
ender 29
TO 29
Um@@ 29
vels 29
eit 29
ply 29
normal@@ 29
ould 29
Inflation 29
Malay@@ 29
unbe@@ 29
К@@ 28
П@@ 28
von 28
nee@@ 28
fest 28
zin 28
chall@@ 28
ь 28
Bli@@ 28
legitim@@ 28
heavi@@ 28
Bot@@ 28
sah 28
distri@@ 27
esp@@ 27
obs 27
tern 27
kul@@ 27
Ka@@ 27
Brasi@@ 27
bot 27
Sich@@ 27
Ei@@ 27
dialo@@ 27
Zer@@ 27
aig@@ 27
Intern@@ 27
Q 27
0.000 27
isla@@ 27
Stabi@@ 26
atis@@ 26
Wel@@ 26
Kan@@ 26
ž@@ 26
Terror 26
Fer@@ 26
easi@@ 26
rements 26
Kol@@ 26
roni@@ 26
aut@@ 26
neu@@ 26
vious 26
Migration 26
quote 26
Rei@@ 25
eth 25
− 25
auer 25
atast@@ 25
Chance 25
xit 25
agan 25
solidi@@ 24
Dollar 24
tt 24
tat 24
Por@@ 24
similar@@ 24
anz 24
rek@@ 24
Tem@@ 24
ats@@ 24
Koso@@ 24
principl@@ 24
elit@@ 24
sch 24
ł@@ 23
ild 23
dless 23
aggre@@ 23
stabil@@ 23
ante 23
Haf@@ 23
Ret@@ 23
Yor@@ 22
Fol@@ 22
miss@@ 22
Europe@@ 22
agno@@ 22
Pot@@ 22
gangs 22
Legi@@ 22
ô@@ 21
het@@ 21
best@@ 21
º@@ 21
wah@@ 21
anno@@ 21
ür@@ 21
spre@@ 21
Transpar@@ 21
0,@@ 21
ften 21
Nov@@ 21
milli@@ 21
lebi@@ 21
С@@ 21
oz@@ 21
О@@ 21
intelli@@ 21
utting 21
diplomati@@ 21
mus 20
particul@@ 20
bele@@ 20
Ant@@ 20
Bil@@ 20
terrori@@ 20
lige 20
Programme 20
ehem@@ 20
kong 20
nah@@ 20
All@@ 20
Atl@@ 20
progno@@ 19
Sti@@ 19
Ұ@@ 19
С 19
Peri@@ 19
B. 19
demokrati@@ 19
aida 19
Rah@@ 19
dig 19
sych@@ 19
Ahma@@ 19
Son@@ 19
kani@@ 19
Diplom@@ 19
lief 19
ding@@ 19
oft 19
jet@@ 19
elle 19
Kenn@@ 19
IM@@ 19
ih@@ 19
spek@@ 19
mier@@ 19
Lie@@ 19
ш 19
Fund@@ 18
Problem 18
kro@@ 18
drei 18
Organis@@ 18
cipl@@ 18
В 18
Camer@@ 18
Fami@@ 18
Fall 18
Priv@@ 18
gut 18
uner@@ 18
kas 18
despi@@ 18
kle@@ 18
sth@@ 18
decla@@ 18
Chin@@ 18
Moment 18
Fat@@ 18
dership 18
haus@@ 17
WF 17
ehr 17
addi@@ 17
onen 17
Exper@@ 17
dire@@ 17
unter 17
Deflation 17
Moder@@ 17
tieth 17
kla@@ 17
Ur@@ 17
derer 17
erity 17
ktur 17
Alternative 17
Nation 16
stell@@ 16
Augu@@ 16
Innovation 16
Pati@@ 16
eine 16
kapit@@ 16
Real@@ 16
unpreced@@ 16
Sk@@ 16
berapa 16
Eng@@ 16
presiden@@ 16
Kamp@@ 16
Palest@@ 16
vern@@ 16
щ@@ 16
wand@@ 16
auf@@ 16
enheit 16
Fahr@@ 16
fiz@@ 16
Sek@@ 16
bure@@ 16
tiger 16
USA 16
tl@@ 16
domini@@ 15
aga@@ 15
lich@@ 15
nis@@ 15
rapi@@ 15
other@@ 15
Dem@@ 15
ele@@ 15
suring 15
‑ 15
ural 15
velop@@ 15
В@@ 15
ont 15
neigh@@ 15
ün@@ 15
Aut@@ 15
Ide@@ 15
É@@ 15
quidi@@ 15
bew@@ 14
д 14
wick@@ 14
eim@@ 14
atisti@@ 14
Plan@@ 14
Cour@@ 14
Gener@@ 14
Sub@@ 14
phy@@ 14
essen 14
gei@@ 14
Art 14
sterity 14
sourc@@ 14
Europ@@ 14
Pun@@ 14
beginn@@ 14
heb@@ 14
Status 14
Volks@@ 14
sens 14
Н@@ 14
ê@@ 14
Develop@@ 14
Bes@@ 13
aber 13
krati@@ 13
Ө 13
econom@@ 13
І@@ 13
Lock@@ 13
boli@@ 13
puli@@ 13
â 13
Hypo@@ 13
Juni 13
Systems 13
koh@@ 13
ende 13
ache 13
Parli@@ 13
til 13
Lon@@ 13
ante@@ 13
Ш@@ 12
Wis@@ 12
haf@@ 12
jap@@ 12
Generation 12
Á@@ 12
kontro@@ 12
Kun@@ 12
dern 12
dramati@@ 12
Migr@@ 12
inist@@ 12
Region 12
ween 12
sam 12
Bush@@ 12
bilater@@ 12
still@@ 12
Refor@@ 12
wei 12
Pr@@ 12
iland 12
kebi@@ 12
deral 12
hist@@ 12
konom@@ 12
vier 12
undes@@ 12
esse 12
ör@@ 12
Extre@@ 11
kein@@ 11
Deutsch@@ 11
Sie@@ 11
Bla@@ 11
Emis@@ 11
fossi@@ 11
Milli@@ 11
schie@@ 11
gend 11
komple@@ 11
aktu@@ 11
Hus@@ 11
Universi@@ 11
intah 11
Princ@@ 11
Off@@ 11
Pres@@ 11
Mand@@ 11
Geor@@ 11
Sinn 11
twen@@ 11
Hong@@ 11
zu 11
ele 11
Stim@@ 10
ö@@ 10
Beh@@ 10
deu@@ 10
Ern@@ 10
Х@@ 10
Populi@@ 10
entives 10
limm@@ 10
reds 10
Bru@@ 10
Integration 10
kre@@ 10
rech@@ 10
fig 10
positi@@ 10
eres 10
effor@@ 10
bey@@ 10
formance 10
Flu@@ 10
Tren@@ 9
forman@@ 9
zip@@ 9
umul@@ 9
die@@ 9
Mom@@ 9
ecially 9
Oktober 9
stec@@ 9
Schu@@ 9
minde@@ 9
Fern@@ 9
og@@ 9
Л@@ 9
hin 9
ş@@ 9
energ@@ 9
Ү@@ 9
onal@@ 9
Not@@ 9
stens 9
leh@@ 9
nur 9
Der 9
Vision 9
Lib@@ 9
Identi@@ 9
Inv@@ 8
frei@@ 8
Was@@ 8
ademi@@ 8
Э@@ 8
ю 8
У@@ 8
llen 8
Nord@@ 8
nei@@ 8
Sei@@ 8
ğ@@ 8
ü@@ 8
Sit@@ 8
Org@@ 8
Clin@@ 8
Lei@@ 8
Anti@@ 8
Schul@@ 8
Erdo@@ 8
bung 8
Fil@@ 8
Stagnation 8
sie 8
Moderni@@ 8
Spi@@ 8
ffici@@ 8
Republik 8
ktu@@ 8
ira@@ 8
wes@@ 8
ficits 8
Kra@@ 8
Dro@@ 8
œ@@ 8
pens@@ 7
aller@@ 7
ande 7
zeit@@ 7
wid@@ 7
kei@@ 7
Janu@@ 7
₂ 7
fang 7
fs@@ 7
eli 7
Н 7
krieg 7
Renminbi 7
Inte@@ 7
muli@@ 7
mei@@ 7
kel 7
Analy@@ 7
geb@@ 7
imple@@ 7
him@@ 7
Spit@@ 7
Refer@@ 7
ynami@@ 7
bish@@ 7
hinter@@ 7
angel@@ 7
● 7
contr@@ 7
ere@@ 7
mals 7
Devi@@ 7
.. 7
aten@@ 7
Ele@@ 7
Religi@@ 7
Opposition 7
Russ@@ 7
Schi@@ 7
Nah@@ 7
gether 7
bei@@ 7
orie 7
eils 7
einf@@ 7
etz 7
lk@@ 7
sein 7
Länder 7
rug 6
utz@@ 6
Spar@@ 6
satz 6
amen 6
rem 6
@ 6
tions@@ 6
banken 6
aty 6
sinn@@ 6
daran 6
Juli 6
Religion 6
pher@@ 6
risi@@ 6
stead 6
Sym@@ 6
urop@@ 6
stac@@ 6
trie@@ 6
Deutschland 6
chang@@ 6
angel 6
Ф@@ 6
˚ 6
Mushar@@ 6
Kop@@ 6
losop@@ 6
agen 6
Commit@@ 6
system@@ 6
eren 6
brit@@ 6
oft@@ 6
Vor@@ 6
aler 6
program@@ 6
wadays 6
gno@@ 6
flation@@ 6
Tali@@ 6
ffen 6
ahe@@ 6
unities 6
wollen 6
solid@@ 6
gs@@ 6
Liquidi@@ 6
á 6
š 6
nie@@ 6
gem 6
1. 6
Land@@ 6
herr@@ 5
whel@@ 5
Partn@@ 5
™ 5
Kultur@@ 5
fang@@ 5
Mann 5
nt 5
zel@@ 5
Rez@@ 5
Zei@@ 5
haps 5
Compu@@ 5
bis 5
terror@@ 5
ück 5
trag@@ 5
Kampf 5
Pf@@ 5
Problems 5
Gest@@ 5
syri@@ 5
Bran@@ 5
lich 5
percent@@ 5
endum 5
Zeit@@ 5
promis@@ 5
merek@@ 5
etz@@ 5
 5
je 5
acht 5
ö 5
Spitzen@@ 5
nen@@ 5
Davi@@ 5
immedi@@ 5
Aus@@ 5
nam 5
enor@@ 5
Б 5
Internation@@ 5
ations@@ 5
Vene@@ 5
Ok@@ 5
Ф 5
onger 5
det 5
tur 5
proble@@ 5
Mech@@ 5
Gas@@ 5
abe 5
Reform@@ 5
bei 5
aller 5
Billi@@ 5
dap 5
Zah@@ 5
* 5
kam 5
= 5
č@@ 5
lang 4
eton 4
ahr@@ 4
Technologi@@ 4
Position 4
Gel@@ 4
enst@@ 4
¡ 4
lead@@ 4
heit 4
Ent@@ 4
diger 4
heu@@ 4
programme 4
diffi@@ 4
Mai 4
spru@@ 4
î@@ 4
һ@@ 4
else@@ 4
Inform@@ 4
ön@@ 4
quantit@@ 4
eignty 4
Terrori@@ 4
velop 4
atl@@ 4
ε@@ 4
pf@@ 4
enen 4
Gren@@ 4
ffe 4
ktat@@ 4
О 4
Journali@@ 4
Reser@@ 4
solidar@@ 4
Japan@@ 4
agne 4
Die 4
ich 4
veau 4
Stur@@ 4
aum 4
teu@@ 4
Epi@@ 4
bau@@ 4
unter@@ 4
ō@@ 4
Engagement 4
für 4
Nul@@ 4
humanit@@ 4
öh@@ 4
ф 4
 4
unge@@ 4
Fest@@ 4
zun@@ 4
rump@@ 4
eties 4
lü@@ 3
isra@@ 3
Peking 3
vidu@@ 3
Й@@ 3
Ö 3
wever 3
Sark@@ 3
‎ 3
ø@@ 3
Mittel@@ 3
more@@ 3
zur@@ 3
Ь@@ 3
tigen 3
enz 3
Ю 3
Ost@@ 3
± 3
unist 3
ж 3
Europa 3
europ@@ 3
Rest 3
bst@@ 3
abli@@ 3
islami@@ 3
achen 3
reland 3
Oc@@ 3
Völk@@ 3
jek@@ 3
Instru@@ 3
amas 3
tg@@ 3
addaf@@ 3
organisation 3
tem 3
ē 3
Soli@@ 3
Putins 3
Investi@@ 3
è 3
lien 3
bola 3
hunder@@ 3
Innov@@ 3
househ@@ 3
Regime 3
macht 3
Tag@@ 3
ben 3
deutsche 3
dustri@@ 3
merz@@ 3
Redu@@ 3
â@@ 3
Politik 3
recht 3
hr 3
makro@@ 3
ş 3
ös@@ 3
echnologi@@ 3
Situation 3
fft 3
sei 3
Energie@@ 3
andes 3
über 3
jing 3
Dynami@@ 3
Frei@@ 3
Hand@@ 3
Ө@@ 3
gyp@@ 3
kei 3
Kli@@ 3
Neu@@ 3
Briti@@ 3
Them@@ 3
Intervention 2
г 2
mittel@@ 2
Ғ@@ 2
å 2
Altern@@ 2
ynes 2
Ә@@ 2
Organisation 2
atie 2
poo@@ 2
alen 2
¼ 2
länder 2
ę@@ 2
Unter@@ 2
õ 2
zur 2
ч 2
Î@@ 2
etheless 2
kaner 2
ahr 2
ű@@ 2
swer@@ 2
Zy@@ 2
Ó@@ 2
Köni@@ 2
allen 2
Ü@@ 2
Hand 2
unver@@ 2
deten 2
fern 2
Markt 2
Kraft 2
ssen 2
ū@@ 2
Führer 2
Landes 2
Х 2
zip 2
kuti@@ 2
Mosk@@ 2
zw@@ 2
fen 2
Wir@@ 2
stoff 2
ș@@ 2
ó 2
sident@@ 2
ellen@@ 2
leger 2
Fein@@ 2
Finan@@ 2
lange 2
ú 2
э 2
openhagen 2
Chá@@ 2
atin 2
kore@@ 2
Schulden@@ 2
ł 2
Rechts@@ 2
Merk@@ 2
kung 2
weis@@ 2
ò 2
ohn@@ 2
Partner 2
pared 2
́ 2
Waffen 2
К 2
deut@@ 2
bs@@ 2
ğ 2
Proz@@ 2
Ange@@ 2
å@@ 2
Д 2
sach@@ 2
scht 2
unser@@ 2
noch 2
vention@@ 2
struktur@@ 2
Krem@@ 2
Konf@@ 2
europa 2
fein@@ 2
Venezu@@ 2
wich@@ 2
minbi 2
erk@@ 2
č 2
ı@@ 2
sow@@ 2
Ober@@ 2
sches 2
oren 2
Erdoğ@@ 2
Š@@ 2
staat 2
Jap@@ 2
Rak@@ 2
Mein@@ 2
whate@@ 2
liens 2
É 2
Č@@ 1
sische 1
cht@@ 1
Ira@@ 1
ologie 1
klein@@ 1
Finanz@@ 1
spap@@ 1
Energi@@ 1
Kyo@@ 1
Obamas 1
auch 1
enzen 1
Spiel@@ 1
Premier@@ 1
ë@@ 1
gests 1
viel 1
forni@@ 1
frei 1
Tradi@@ 1
ingen 1
Weg 1
Fonds 1
verab@@ 1
sich 1
schn@@ 1
Leu@@ 1
Å@@ 1
ȃ@@ 1
Industrie@@ 1
Grund@@ 1
Dollars 1
mü@@ 1
Ч@@ 1
Forschungs@@ 1
cks@@ 1
Beri@@ 1
herrsch@@ 1
krise 1
Westen 1
ə@@ 1
Argument 1
Zeit 1
Schwei@@ 1
Ю@@ 1
haft 1
Kre@@ 1
国@@ 1
灾@@ 1
Gruppe 1
eten 1
Frau 1
Form 1
Wirtschafts@@ 1
luss 1
ersch@@ 1
statt 1
Jah@@ 1
Minister@@ 1
tig 1
trieben@@ 1
Geld@@ 1
Risiko 1
tere 1
tliche 1
Israeli@@ 1
werte 1
ā@@ 1
openha@@ 1
Infrastruktur 1
Spra@@ 1
schaft 1
Mubar@@ 1
nen 1
Stro@@ 1
Zwi@@ 1
blick 1
anderer 1
heim@@ 1
bau 1
Berlus@@ 1
bald 1
lose@@ 1
Millen@@ 1
zah@@ 1
ț@@ 1
schaffen 1
Я@@ 1
Luft@@ 1
guli@@ 1
gew@@ 1
zeit 1
einer 1
begrün@@ 1
wur@@ 1
wirtschafts@@ 1
Rat 1
gemein@@ 1
uli 1
ertes 1
wides@@ 1
Gem@@ 1
Konz@@ 1
raum 1
Ital@@ 1
usam@@ 1
Terr@@ 1
xt 1
apos@@ 1
Volk 1
去@@ 1
nisse 1
Meinung 1
strö@@ 1
steh@@ 1
utin 1
Teil@@ 1
Chaos 1
geh@@ 1
eher 1
wann 1
nali@@ 1
Willen 1
乐@@ 1
grafi@@ 1
reicher 1
幸@@ 1
Isra@@ 1
eigen@@ 1
stoff@@ 1
ã 1
ъ@@ 1
erer 1
sä@@ 1
Platz 1
theless 1
hier 1
Berluscon@@ 1
Kinder 1
Industrie 1
Frieden 1
ien 1
tut 1
≤ 1
Kapitalismus 1
Handels@@ 1
fairs 1
Welt 1
äts@@ 1
dopp@@ 1
getan 1
Diskus@@ 1
schen@@ 1
Akti@@ 1
Metho@@ 1
Ô@@ 1
Musli@@ 1
retten 1
sse 1
Aust@@ 1
Ö@@ 1
Län@@ 1
smus 1
Klein@@ 1
Schw@@ 1
tür@@ 1
assen 1
Stag@@ 1
祸 1
began@@ 1
Initi@@ 1
städ@@ 1
Hä@@ 1
Tei@@ 1
zent@@ 1
Ж 1
‒ 1
Afghani@@ 1
zum 1
teilung 1
Wissenschaft 1
Denk@@ 1
verhe@@ 1
werk 1
ē@@ 1
besti@@ 1
tief 1
gt 1
limi@@ 1
Prei@@ 1
sions@@ 1
А 1
Ô 1
ì@@ 1
ä@@ 1
dien@@ 1
ś@@ 1
ŕ 1
schu@@ 1
Ž@@ 1
usti@@ 1
äl@@ 1
Sü@@ 1
frie@@ 1
glau@@ 1
言 1
Sieg 1
Mod@@ 1
Demon@@ 1
İ@@ 1
refuge@@ 1
宣@@ 1
Ұ 1
Chinas 1
¨ 1
Stelle 1
entral@@ 1
elen 1
Person 1
Angst 1
Geh@@ 1
Hoch@@ 1
