, 295050
die 201236
. 199797
der 155464
und 128699
in 85267
zu 71338
den 62693
von 47107
das 42179
ist 40580
- 38850
eine 37883
es 37809
für 35040
des 34176
auf 34149
sich 34146
&quot; 33772
dass 32665
@-@ 32397
nicht 31579
im 29343
ein 29277
als 28355
mit 27241
ver@@ 25565
sie 24211
um 22000
werden 21929
dem 21691
er 21555
ten 20866
en 19379
an 19263
wie 18947
sind 18390
er@@ 18093
einer 18025
auch 17752
te 17172
wird 17049
be@@ 16377
hat 16248
t 15317
aus 14774
haben 14228
aber 13531
oder 13398
diese 13241
einen 12867
an@@ 12492
über 12393
ge@@ 12375
durch 12308
wenn 12221
e 12137
bei 12010
Ver@@ 11991
ung 11764
sch@@ 11644
zur 11237
k@@ 11165
: 11137
so 11019
einem 10974
ihre 10930
t@@ 10889
un@@ 10715
st@@ 10495
) 10486
( 10480
vor 10255
nur 10167
wir 10106
nach 10054
gen 10050
sein 10008
noch 9996
man 9924
s@@ 9645
en@@ 9557
aus@@ 9533
ein@@ 9498
K@@ 9458
s 9114
f@@ 8890
T@@ 8670
war 8580
mehr 8574
ab@@ 8505
ungen 8300
d@@ 8277
S@@ 8267
auf@@ 8219
sten 8114
ert 8060
USA 8027
eren 8016
n@@ 7806
dieser 7779
An@@ 7752
ter 7704
sche 7693
können 7621
schen 7621
z@@ 7526
was 7515
kann 7485
B@@ 7385
doch 7304
D@@ 7158
Welt 7153
dies 7115
ge 7076
über@@ 7015
zu@@ 6997
zum 6878
% 6875
Sch@@ 6852
ent@@ 6775
vor@@ 6738
M@@ 6699
g@@ 6680
eines 6653
b@@ 6651
wurde 6604
seine 6516
Er@@ 6458
m@@ 6376
gegen 6306
Menschen 6285
G@@ 6279
; 6231
unter 6214
H@@ 6188
Länder 6124
würde 6073
in@@ 5988
P@@ 5935
F@@ 5934
zwischen 5909
? 5876
könnte 5872
Regierung 5794
müssen 5765
Be@@ 5723
W@@ 5712
EU 5688
ern 5683
l@@ 5648
China 5636
zi@@ 5625
Ab@@ 5581
Jahren 5546
A@@ 5537
ch@@ 5525
Jahr 5501
ü@@ 5458
re@@ 5442
L@@ 5404
st 5385
de 5374
R@@ 5321
am 5321
E@@ 5280
erung 5189
Aus@@ 5155
ti@@ 5113
h@@ 5085
i@@ 5083
lichen 5065
Europa 5053
ihrer 5010
Vor@@ 5009
immer 4981
Ein@@ 4954
während 4936
g 4924
US 4898
keine 4879
o@@ 4851
andere 4838
bis 4800
ä@@ 4792
politischen 4690
viele 4670
ungs@@ 4666
scher 4665
Land 4650
tigen 4649
ar@@ 4642
anderen 4590
gibt 4569
si@@ 4502
au@@ 4497
um@@ 4454
liche 4443
nen 4441
Ländern 4417
w@@ 4416
lich 4389
al@@ 4386
muss 4385
politische 4355
da 4295
gen@@ 4249
erte 4242
e@@ 4240
ger 4209
men 4209
selbst 4204
sollte 4192
z 4170
a 4155
le@@ 4148
n 4131
alle 4106
wurden 4101
Finanz@@ 4090
unter@@ 4064
Re@@ 4043
dazu 4033
ste 4014
sch 3999
seiner 3998
ende 3998
Ge@@ 3988
enden 3987
erten 3951
N@@ 3944
tet 3942
damit 3926
Zeit 3915
Jahre 3884
at@@ 3884
se 3879
ter@@ 3871
r@@ 3855
neue 3842
ihren 3824
Auf@@ 3809
sondern 3806
cht 3798
el@@ 3788
ger@@ 3778
u@@ 3757
C@@ 3744
heute 3738
o 3710
gt 3708
tung 3705
ö@@ 3702
ere 3693
geben 3690
d 3689
waren 3673
ri@@ 3642
Dollar 3640
wäre 3640
ohne 3639
a@@ 3636
gel@@ 3634
denen 3634
letzten 3630
führen 3622
Politik 3620
her@@ 3620
tatsächlich 3617
ich 3613
seit 3613
dieses 3582
li@@ 3576
mi@@ 3566
ale 3562
chen 3556
Z@@ 3523
sollten 3502
In@@ 3500
viel 3495
Staaten 3479
sp@@ 3472
ei@@ 3467
St@@ 3464
ur@@ 3445
vom 3445
diesem 3418
ken 3385
es@@ 3373
le 3371
ni@@ 3368
weniger 3359
ellen 3328
elle 3317
lassen 3315
uns 3301
di@@ 3297
weil 3293
ak@@ 3288
Wirtschafts@@ 3281
l 3260
allerdings 3241
ber@@ 3237
Russland 3228
alen 3205
de@@ 3200
etwa 3193
ft 3192
gi@@ 3164
O@@ 3156
Wirtschaft 3151
den@@ 3142
gehen 3129
ihr 3116
rei@@ 3112
k 3106
Entwicklung 3099
Kon@@ 3094
I@@ 3086
ange@@ 3083
jedoch 3079
et@@ 3076
kommen 3052
wieder 3047
zwei 3047
i 3045
halten 3025
p@@ 3023
ali@@ 3004
Wachstum 3003
ra@@ 2991
stellen 2986
könnten 2983
sogar 2974
ts@@ 2969
f 2937
fen 2914
Über@@ 2913
Regierungen 2902
nun 2901
neuen 2894
gung 2883
end 2882
on@@ 2880
or@@ 2868
würden 2865
gesch@@ 2844
kon@@ 2842
m 2818
Unternehmen 2797
obwohl 2792
bar 2791
machen 2790
diesen 2783
Präsident 2783
dabei 2780
&amp; 2778
sen 2772
tionen 2765
darauf 2729
det 2708
am@@ 2681
ens 2662
ob 2659
tige 2654
sehr 2644
wo 2638
len 2635
der@@ 2635
ts 2634
al 2634
meisten 2633
ung@@ 2628
gegenüber 2627
dafür 2622
weiter 2600
ges@@ 2599
dann 2595
Macht 2594
ation 2570
Un@@ 2569
kt 2560
v@@ 2560
che 2560
Krise 2559
licher 2555
bi@@ 2547
Landes 2539
jetzt 2537
ben 2536
ch 2535
J@@ 2526
einige 2514
geb@@ 2507
hin@@ 2500
also 2496
Millionen 2485
politik 2484
sowie 2482
sen@@ 2478
aufgrund 2474
wei@@ 2465
ach@@ 2464
bereits 2462
eri@@ 2451
hatte 2424
wirtschaftlichen 2417
ten@@ 2415
tes 2404
bringen 2398
em 2397
eh@@ 2382
wer@@ 2376
sti@@ 2375
lei@@ 2370
geht 2368
tig 2364
angesichts 2363
Zu@@ 2355
Milliarden 2352
deren 2349
V@@ 2340
as 2337
it@@ 2323
Unterstützung 2317
europäischen 2314
as@@ 2312
seinen 2302
ern@@ 2300
y@@ 2299
Maßnahmen 2297
stehen 2285
steht 2271
ihnen 2269
chten 2268
durch@@ 2267
Investitionen 2250
kein 2249
zwar 2237
schw@@ 2235
Um@@ 2233
la@@ 2224
davon 2222
ut@@ 2212
Chinas 2209
Problem 2207
indem 2204
Frage 2203
ma@@ 2194
globalen 2189
em@@ 2159
wirtschaftliche 2156
ir@@ 2149
ol@@ 2148
großen 2147
besteht 2147
Deutschland 2134
lie@@ 2126
ot@@ 2125
BIP 2123
tern 2113
ro@@ 2102
on 2098
Ende 2093
große 2087
be 2084
tra@@ 2082
ek@@ 2080
tion 2080
Banken 2078
ausge@@ 2077
ck@@ 2072
vielleicht 2066
Nach@@ 2060
elt 2056
vi@@ 2043
amerikanischen 2043
nehmen 2031
tete 2026
us@@ 2024
schaft 2016
drei 2013
schon 2011
tun 2009
j@@ 1998
ebenso 1997
Prozent 1997
ler 1991
Iran 1984
daher 1976
om@@ 1975
sich@@ 1975
Japan 1971
insbesondere 1966
ati@@ 1960
Fall 1956
Rolle 1955
eigenen 1951
Probleme 1950
innerhalb 1937
natürlich 1937
nung 1933
Region 1926
Kosten 1925
liegt 1925
internationalen 1923
Steuer@@ 1915
Demokratie 1908
heit 1905
Grund 1904
finden 1902
Weise 1902
ul@@ 1901
fe 1895
Teil 1893
and@@ 1892
5 1880
all@@ 1879
stischen 1876
stand 1874
ang@@ 1873
hei@@ 1871
än@@ 1871
hin 1870
leben 1869
zurück@@ 1869
ör@@ 1868
Eurozone 1866
Vereinigten 1866
ün@@ 1861
Irak 1859
Art 1859
th@@ 1855
hal@@ 1855
gut 1855
Krieg 1846
auszu@@ 1845
beiden 1844
Politiker 1838
rech@@ 1834
fer@@ 1831
darüber 1829
hätte 1826
ff@@ 1823
Leben 1804
se@@ 1802
setzen 1799
Staats@@ 1797
tigt 1788
Zukunft 1788
anzu@@ 1786
weit 1784
etwas 1783
internationale 1777
dung 1773
el 1768
cht@@ 1765
unsere 1762
Weg 1760
Indien 1758
Lage 1754
r 1752
Welt@@ 1751
Haushalts@@ 1751
fi@@ 1743
ell 1738
allem 1735
ank@@ 1733
Sicherheit 1728
b 1726
Auswirkungen 1718
bt 1717
ne 1714
hen 1710
sei 1708
reichen 1707
so@@ 1703
ins 1703
scheint 1702
öffentlichen 1702
stische 1701
kl@@ 1691
lagen 1689
geh@@ 1689
Ex@@ 1688
Europas 1686
schi@@ 1684
wi@@ 1678
ziehen 1678
ab 1676
einmal 1671
legen 1665
eu@@ 1663
warum 1657
gew@@ 1656
sowohl 1654
ru@@ 1654
Union 1651
globale 1650
denn 1647
ari@@ 1644
wenig 1643
sehen 1640
är@@ 1638
einfach 1636
bei@@ 1636
me 1633
sk@@ 1630
Unter@@ 1626
weitere 1624
treten 1623
ür@@ 1619
vielen 1616
Geld 1613
macht 1613
et 1610
Großbritannien 1609
Euro 1606
äu@@ 1602
Israel 1601
schaffen 1600
fast 1595
op@@ 1594
Ent@@ 1593
beispielsweise 1592
zei@@ 1584
bleiben 1583
dessen 1581
is@@ 1579
ini@@ 1578
schaften 1578
ganz 1578
Amerika 1573
wahrscheinlich 1572
weiterhin 1572
aller 1571
he@@ 1570
bel@@ 1570
Staat 1567
Frauen 1564
Reformen 1560
sieren 1550
Geschichte 1549
Ziel 1548
ben@@ 1547
fl@@ 1545
aten 1544
Institutionen 1543
teten 1542
einzu@@ 1542
ersten 1539
Di@@ 1539
Obama 1536
lich@@ 1532
darin 1531
2@@ 1531
schul@@ 1530
u 1528
Frankreich 1523
zen 1518
at 1517
Sicherheits@@ 1512
Europäischen 1510
ationen 1508
gef@@ 1505
ß@@ 1502
kommt 1501
chte 1500
Führung 1499
Ar@@ 1498
trotz 1497
2 1497
Pro@@ 1496
lange 1494
chinesischen 1494
aler 1489
ender 1487
ta@@ 1485
sin@@ 1485
ag@@ 1483
men@@ 1480
kan@@ 1478
sches 1478
erungen 1475
Handels@@ 1471
gestellt 1470
ang 1467
allen 1462
Bedeutung 1460
20 1459
ann@@ 1458
160 1457
3 1456
war@@ 1456
ah@@ 1453
voll@@ 1452
Entwicklungs@@ 1449
Präsidenten 1448
land 1444
ven 1444
ster 1442
schließlich 1441
tliche 1439
ord@@ 1436
# 1435
oni@@ 1434
bleibt 1431
heiten 1431
beim 1431
tischen 1429
erst 1428
Amerikas 1427
hatten 1422
genommen 1418
genau 1418
amerikanische 1415
fest@@ 1415
Kapital@@ 1410
teil@@ 1408
Rei@@ 1403
Rück@@ 1402
reich@@ 1402
System 1401
nach@@ 1401
Arbeits@@ 1397
nahme 1396
mit@@ 1395
nt 1394
ko@@ 1392
and 1388
utz@@ 1384
x@@ 1384
Bevölkerung 1380
il@@ 1380
da@@ 1378
tä@@ 1378
erhalten 1378
falls 1377
De@@ 1376
wirk@@ 1375
sagen 1373
Bush 1372
stellung 1370
3@@ 1368
stellt 1368
v 1367
Al@@ 1367
deutlich 1367
tre@@ 1366
seinem 1365
nichts 1364
Partei 1362
weise 1362
geführt 1360
Aut@@ 1359
7 1359
anz@@ 1358
besser 1351
gkeit 1351
te@@ 1351
abzu@@ 1349
wollen 1349
ihrem 1347
alten 1346
erreichen 1346
ker 1346
Lösung 1346
siert 1345
ne@@ 1338
lässt 1337
ismus 1333
führt 1330
hinaus 1328
solche 1326
sor@@ 1325
Her@@ 1325
liches 1324
lichkeit 1324
Gesundheits@@ 1322
sh@@ 1319
8 1318
ativen 1313
6 1304
Ko@@ 1303
soll 1303
tlichen 1302
Beispiel 1302
gs 1301
lediglich 1300
Schulden@@ 1300
Ur@@ 1300
außerdem 1294
Schulden 1293
zudem 1293
europäische 1293
Beziehungen 1290
Bereich 1290
ani@@ 1289
enten 1289
nationalen 1287
hr@@ 1287
ze 1285
kaum 1285
Mit@@ 1284
nie 1278
weltweit 1277
tigung 1276
IWF 1275
möglicherweise 1273
Putin 1271
mer 1271
str@@ 1270
bedeutet 1269
gest@@ 1269
zusammen@@ 1269
Westen 1268
stark 1268
zwei@@ 1268
Nor@@ 1263
ser@@ 1261
Mittel@@ 1260
rä@@ 1259
1 1256
sierung 1255
klar 1254
Bürger 1254
gab 1254
alles 1252
derartige 1251
liegen 1248
cken 1248
tiert 1248
lung 1247
bare 1245
1@@ 1244
gend 1242
stra@@ 1242
bieten 1241
tr@@ 1241
to@@ 1241
rit@@ 1240
eln 1240
weisen 1237
for@@ 1237
har@@ 1235
tungen 1235
anderer 1235
ßen 1234
baren 1233
sta@@ 1232
äl@@ 1228
New 1227
ech@@ 1226
nächsten 1225
Osten 1223
is 1221
Gesellschaft 1220
gr@@ 1216
dort 1214
wären 1213
kom@@ 1212
ori@@ 1210
fol@@ 1210
tragen 1209
ges 1209
Grund@@ 1204
ar 1204
besonders 1201
ses 1201
ß 1201
öffentliche 1200
ihm 1200
sion 1199
or 1199
Tatsache 1198
Öl@@ 1197
ans 1192
wider@@ 1191
Ma@@ 1189
punkt 1188
Kredit@@ 1188
äre 1185
Interessen 1181
Neu@@ 1180
Gewalt 1178
dern 1178
politischer 1178
sei@@ 1177
Inflation 1176
Kinder 1176
Strategie 1176
Wachstums@@ 1175
Au@@ 1173
digen 1173
Bemühungen 1172
erungs@@ 1172
erkennen 1172
unden 1171
nbsp 1168
50 1163
sionen 1162
pro 1160
Erfolg 1160
fin@@ 1160
worden 1160
mer@@ 1159
keinen 1159
statt 1157
wohl 1155
Einfluss 1154
Recht 1153
gende 1153
arbeiten 1152
Wert 1151
2008 1150
Ziele 1150
derzeit 1148
möglich 1148
daran 1147
enen 1147
anz 1147
tigkeit 1146
zunehmend 1145
allein 1143
nachdem 1143
Kom@@ 1142
Griechenland 1141
Bei@@ 1138
chinesische 1137
Risiken 1136
Qu@@ 1135
mo@@ 1135
recht 1128
kte 1127
gleich@@ 1127
im@@ 1126
las@@ 1125
qu@@ 1124
gefähr@@ 1124
Ansatz 1122
ihn 1122
eher 1121
größten 1118
Richtung 1115
Mitglieder 1115
wissen 1114
oft 1111
genden 1110
4 1109
gte 1106
gten 1106
Kontrolle 1105
besch@@ 1105
Einkommen 1104
Möglichkeit 1103
all 1102
jeder 1102
Kampf 1099
hoch 1099
Lebens@@ 1099
man@@ 1098
dete 1098
Bet@@ 1096
Folgen 1095
hätten 1093
isch 1093
tive 1092
fung 1091
Regierungs@@ 1091
hinsichtlich 1090
4@@ 1090
erenden 1090
bedeut@@ 1090
Ausgaben 1089
tiger 1088
system 1088
fallen 1087
ll@@ 1087
ig@@ 1087
mm@@ 1087
5@@ 1085
bet@@ 1085
wel@@ 1083
ie@@ 1082
Energi@@ 1082
wert 1080
anischen 1079
verhindern 1078
Ressourcen 1077
Armut 1077
ms 1076
offen@@ 1076
gern 1076
Mo@@ 1075
zehn 1075
los 1075
unde 1075
helfen 1073
führte 1072
Bo@@ 1072
Druck 1069
br@@ 1068
ente 1067
wichtige 1066
gemacht 1064
Zei@@ 1062
ver 1061
9 1060
neu@@ 1060
bereit 1059
welche 1058
eller 1058
kün@@ 1057
Wahlen 1057
beide 1056
erste 1054
fäl@@ 1053
tlich 1052
wirklich 1051
par@@ 1051
ihres 1049
Militär@@ 1048
Gegen@@ 1047
Europäische 1047
ers 1047
Ber@@ 1046
Lei@@ 1046
0er 1045
setzt 1044
Markt@@ 1043
lage 1043
sicher@@ 1043
smus 1042
af@@ 1041
U@@ 1038
äch@@ 1038
Russlands 1036
essen 1035
Amerikaner 1035
fizi@@ 1035
A 1034
For@@ 1032
Parteien 1032
bisher 1032
enzen 1028
anders 1028
Grenzen 1028
bil@@ 1028
lösen 1028
unserer 1027
hoch@@ 1026
eig@@ 1026
ad@@ 1025
Haupt@@ 1024
unterstützen 1024
vergangenen 1022
krise 1021
Türkei 1021
nisse 1020
frei@@ 1020
Mi@@ 1020
versch@@ 1020
ho@@ 1019
zumindest 1016
ber 1015
Best@@ 1012
finanzi@@ 1012
lo@@ 1011
Fragen 1011
Entscheidung 1011
dlichen 1011
Gefahr 1011
weltweiten 1011
kur@@ 1009
-@@ 1009
Ergebnis 1008
Li@@ 1008
leg@@ 1007
üh@@ 1006
steigen 1002
anten 999
y 999
gleichzeitig 998
anische 998
braucht 998
verk@@ 998
we@@ 997
irgend@@ 996
Vergangenheit 996
gute 995
Weltwirtschaft 995
mu@@ 994
hi@@ 993
aufzu@@ 991
ären 991
berei@@ 990
Nahen 990
fünf 989
fall 989
Finanzkrise 988
En@@ 987
len@@ 986
Außen@@ 985
Atom@@ 985
konnte 984
Rahmen 984
pi@@ 984
os 982
lin@@ 982
einigen 982
Sti@@ 980
mal 980
arbei@@ 980
gebracht 979
lungen 979
Volkswirtschaften 979
jene 978
Spar@@ 977
ieren 976
stärker 976
Ö@@ 976
alismus 976
Syrien 975
aufge@@ 975
ur 974
hervor@@ 973
ou@@ 973
Arbeit 972
prä@@ 971
gewal@@ 970
Märkte 970
Afrika 970
h 970
Ru@@ 970
Form 968
Nationen 968
russischen 967
staaten 967
emp@@ 967
of 966
sicht 966
tungs@@ 966
ie 966
wen@@ 965
lang@@ 964
seines 964
ster@@ 963
privaten 962
err@@ 962
erreicht 962
gän@@ 962
ations@@ 960
tion@@ 959
6@@ 959
stre@@ 958
net 958
schließen 957
fü@@ 957
mäch@@ 955
übersch@@ 955
gra@@ 955
Stabilität 954
ob@@ 953
me@@ 950
dennoch 948
Frei@@ 947
ast@@ 947
dlich 947
zw@@ 944
länder 944
Zusammenarbeit 944
gleichen 943
Wahl 943
stri@@ 942
potenzi@@ 941
tions@@ 941
dadurch 941
dig@@ 939
Anteil 937
hier 937
anti@@ 936
Asien 936
genug 935
Bank 935
einzige 935
Nieder@@ 933
hohen 933
denken 932
nämlich 932
sel 932
ap@@ 931
Herausforderungen 929
fte 928
ität 928
mittel@@ 927
schnell 927
Mittel 926
teil 926
uss 925
Schw@@ 925
Nachfrage 924
19@@ 923
Hilfe 923
kam 922
licht 921
nen@@ 921
ück@@ 920
später 920
tief@@ 918
Gemeinschaft 918
zurück 917
größte 917
spar@@ 916
spr@@ 916
je 916
schaf@@ 915
Risiko 915
wichtig 913
Wirtschaftswachstum 913
ehen 913
EZB 912
Markt 911
inter@@ 911
viel@@ 911
neu 910
Entscheidungen 909
fer 909
gar 909
pro@@ 909
häufig 909
brauchen 908
ex@@ 908
vier 908
schei@@ 907
Wei@@ 906
gilt 906
hält 906
tritt 905
Jahres 905
höch@@ 905
oh@@ 905
Op@@ 904
gerade 904
Rezession 903
fra@@ 903
standen 903
zer@@ 902
handelt 901
Grundlage 901
.@@ 901
bes@@ 899
schung 899
grün@@ 898
Prozess 898
Zahl 897
zeigen 895
oll@@ 895
fördern 893
erende 893
gang 893
sollen 892
rich@@ 892
Wahl@@ 891
8@@ 891
treffen 890
schwer 890
Me@@ 889
habe 889
einf@@ 889
tieren 889
sicher 888
lit@@ 888
enz 887
su@@ 886
sorgen 884
alisierung 884
ent 884
ssen 884
jüngsten 883
fragen 883
Ukraine 882
inn@@ 882
wenden 881
zeit 881
о@@ 881
sam@@ 881
30 880
ler@@ 880
entwickeln 880
Öffentlichkeit 879
Wieder@@ 878
tens 875
län@@ 873
Jahrhunderts 872
po@@ 871
deshalb 871
hohe 870
ebenfalls 870
Selbst@@ 869
Seite 868
aktuellen 868
tische 867
unternehmen 867
teilen 867
he 866
Globalisierung 866
Bes@@ 865
eg@@ 865
effizi@@ 864
lu@@ 864
Herausforderung 864
indi@@ 864
richten 863
einander 863
nete 863
Zugang 862
gemein@@ 861
tig@@ 859
groß@@ 858
gesetz@@ 858
Mehrheit 858
Im@@ 856
luss 855
ziert 855
glauben 855
führung 854
ation@@ 854
ische 854
bung 854
Schritt 854
nationale 853
Bildung 851
lang 850
rück@@ 850
are 850
Handel 850
trotzdem 850
letz@@ 850
erfolg@@ 850
beru@@ 849
stell@@ 849
geworden 848
Kol@@ 848
elen 848
erhöhen 847
Par@@ 846
Situation 846
eit 846
bevor 845
lau@@ 845
nis 844
tsch@@ 843
1,@@ 842
min@@ 842
to 841
stat@@ 841
Groß@@ 841
Mon@@ 840
unge@@ 840
wieder@@ 839
deut@@ 839
geri@@ 838
etz@@ 838
Bank@@ 837
sprechen 837
relativ 835
Ak@@ 834
betrachtet 833
zusammen 832
wahr@@ 831
est@@ 831
abge@@ 831
Sp@@ 831
staatlichen 830
sozi@@ 830
kosten 830
Regime 830
langen 830
wes@@ 830
weiteren 830
erg@@ 829
maßnahmen 829
spielen 826
Prä@@ 826
hinter 825
Klimawandel 825
wür@@ 825
mittel 825
tz@@ 824
Bedrohung 824
Mar@@ 824
Infrastruktur 824
Arbeitslosigkeit 823
Regeln 822
üt@@ 822
dar@@ 821
Revolution 821
krie@@ 821
erer 820
bra@@ 820
Rechts@@ 820
Eigen@@ 819
10 819
wobei 819
kti@@ 819
Gen@@ 818
bo@@ 817
xi@@ 816
verbessern 816
Vertrauen 816
Die 816
setzung 816
Sozial@@ 815
träge 815
Bezug 815
Ro@@ 815
stan@@ 815
diejenigen 814
Veränderungen 814
ner 812
Kommission 812
Frieden 812
mehr@@ 811
Erholung 810
mp@@ 810
schläge 810
einge@@ 810
schä@@ 810
Investoren 809
Res@@ 809
brei@@ 809
zeigt 808
197@@ 808
Hälfte 807
verbrei@@ 806
Interesse 806
ingen 805
mei@@ 805
Jahrhundert 805
staatliche 805
Mal 803
nachhal@@ 803
Gruppe 800
gesehen 800
Y@@ 799
cher 799
laut 798
ße 798
Energie@@ 798
Vi@@ 798
Sie 798
Bedingungen 797
ha@@ 797
uren 797
jede 795
NATO 795
letztlich 795
bald 794
Land@@ 794
deten 793
rie@@ 793
einschließlich 793
verb@@ 792
regi@@ 792
wegen 791
Höhe 791
7@@ 791
zunächst 790
höhere 790
tät 790
Gruppen 789
Mu@@ 789
ersch@@ 788
gei@@ 788
Zinsen 788
ander@@ 787
Banken@@ 787
Abkommen 787
teilt 787
zugleich 786
arabischen 786
и@@ 786
neuer 785
Verantwortung 785
Preis@@ 784
kol@@ 784
nimmt 784
Währungs@@ 784
Jahrzehnten 783
por@@ 782
ell@@ 780
Führungs@@ 780
entwickelten 780
C 779
kor@@ 779
Integration 779
inzwischen 778
üch@@ 778
manche 778
wer 778
produ@@ 777
ehr@@ 776
,@@ 776
Verhandlungen 776
us 776
fu@@ 775
handeln 774
dienen 774
Angst 774
gemeinsam 773
Anfang 773
Zentralbank 773
fahr@@ 773
erter 772
ec@@ 772
per@@ 771
sieht 771
auen 770
sum@@ 770
mag 770
ke 770
gabe 769
Afghanistan 769
p 768
lan@@ 768
sse 768
dliche 767
Mis@@ 767
ment@@ 766
Vorteile 766
sozialen 766
glich 765
dar 765
Italien 764
Ebene 764
Gemein@@ 763
x 763
sel@@ 763
politisch 763
UN 762
beg@@ 762
Bereichen 761
anzen 761
ologi@@ 761
Haushalte 761
Po@@ 761
Inter@@ 761
zus@@ 760
Reaktion 759
ing@@ 759
jedes 759
amm@@ 758
bau 758
end@@ 758
größere 757
Klima@@ 757
kraft 757
frie@@ 757
entwickelt 756
oren 756
0@@ 755
rup@@ 755
Bil@@ 755
Schutz 754
Per@@ 754
will 753
S 752
woh@@ 752
schwer@@ 752
seh@@ 752
gemeinsame 751
tem 751
Preis 751
prei@@ 751
esen 750
Fortschritte 750
Möglichkeiten 750
leisten 750
Freiheit 749
Man@@ 749
schen@@ 749
britischen 749
land@@ 747
ischen 747
Entwicklungsländern 746
Wähler 746
gem@@ 746
ls 746
Schaffung 746
rate 745
Friedens@@ 744
scheinen 743
alität 743
esti@@ 743
heits@@ 743
ften 742
Fed 741
lag@@ 741
mmung 740
verringern 740
bekommen 739
russische 739
nten 739
eini@@ 737
ich@@ 737
ging 737
sektor 736
vität 735
Preise 735
ales 734
bestehen 734
2010 734
Tag 732
zahlen 732
Terrorismus 732
gemeinsamen 732
zug 731
schie@@ 731
schätz@@ 731
Folge 731
40 730
iert 730
Ökonomen 729
Ausmaß 728
kten 728
Kredite 727
wertung 727
Fähigkeit 727
folg@@ 727
dig 726
gewinnen 725
9@@ 725
überhaupt 725
wäl@@ 725
kost@@ 725
Dis@@ 724
Europäer 724
freien 724
gaben 724
nungen 723
kul@@ 723
Stand@@ 723
Hoffnung 722
neten 722
zieh@@ 721
Hei@@ 721
nte 721
darunter 721
eng@@ 720
bot 720
gewesen 720
recht@@ 720
ing 720
Macht@@ 719
lose 718
Führer 718
dr@@ 717
ckt 717
Firmen 716
damals 716
ach 716
Produktion 716
mäß@@ 716
Rich@@ 716
haf@@ 715
vers@@ 715
Korruption 715
Pakistan 714
Woh@@ 714
her 714
Flu@@ 714
Kapital 713
wendung 713
haltung 713
no@@ 712
versuchen 712
tel@@ 712
beitragen 711
stisch 711
Su@@ 711
üst@@ 711
feh@@ 710
Wohlstand 710
drück@@ 709
Zw@@ 708
ändern 708
Verfügung 708
folgen 708
Gegensatz 707
Durch@@ 707
Bel@@ 706
ment 706
kun@@ 705
Sü@@ 705
erforderlich 705
Seiten 704
konnten 704
bel 703
do@@ 703
wirtschaft 703
Volkswirtschaft 703
onen 702
geln 702
licherweise 701
systeme 700
eigene 700
paar 699
gs@@ 699
wichtiger 698
ene 698
fahren 697
ens@@ 697
gar@@ 697
London 697
großer 697
Bundes@@ 696
Ansicht 696
zurückzu@@ 695
eres 695
Geld@@ 694
glichen 694
wichtigsten 694
genen 694
Geldpolitik 693
Chance 693
pas@@ 692
Energie 692
größ@@ 692
Debatte 692
ausgaben 691
Antwort 691
Stra@@ 691
nutzen 691
stoff@@ 690
asi@@ 689
Werte 689
Konflikt 689
ater 688
Se@@ 688
schein@@ 687
preise 687
lt 687
ligen 686
stei@@ 686
Technologien 686
kräfte 684
ase 684
Zusammen@@ 683
September 683
sische 682
liber@@ 682
zahl@@ 682
haft 682
wirtschaftlicher 682
Strategien 682
profitieren 682
Steuern 681
pen@@ 681
spie@@ 681
pl@@ 681
stän@@ 681
Entwicklungsländer 681
äuß@@ 681
glau@@ 680
unterstützt 680
währ@@ 680
Umwelt@@ 680
spiel@@ 680
Anstieg 679
ermöglichen 679
gesamten 679
2009 679
UNO 678
markt 678
bar@@ 678
reiben 677
chs 677
tert 677
bekannt 677
Or@@ 676
bietet 676
Geri@@ 676
Ti@@ 676
Reihe 675
weder 675
Brasilien 675
gegeben 675
15 674
mon@@ 673
gh@@ 673
akti@@ 673
demokratischen 672
schützen 671
ache 669
bewer@@ 669
Kur@@ 669
reich 669
teilweise 669
Nutzen 669
To@@ 668
betrachten 668
trieben 668
voll 668
Ju@@ 667
hol@@ 667
satz 666
ft@@ 666
wä@@ 666
Vereinten 665
durchaus 664
Zinssätze 664
technologi@@ 664
bauen 664
sischen 664
Förderung 663
dungen 663
Sektor 663
Wandel 663
25 663
beinahe 663
Fehler 662
hier@@ 661
Anzahl 661
besten 659
durchschnit@@ 659
Bürger@@ 659
ums 658
langfristigen 658
tiges 657
ma 657
ds 657
Gesundheit 657
schn@@ 656
zunehmen 656
Lu@@ 655
Bi@@ 655
momentan 655
finanzielle 654
ernsthaf@@ 654
nungs@@ 654
klu@@ 654
Ri@@ 654
Notwendigkeit 654
soziale 654
wirken 653
höher 653
Süd@@ 653
D 653
reiche 653
Ni@@ 653
schwierig 653
mis@@ 652
insgesamt 652
lungs@@ 652
Arbeitsplätze 652
effekti@@ 651
unver@@ 651
Thema 650
gelegt 648
dau@@ 648
Spanien 648
gleich 647
Poli@@ 646
ine 646
für@@ 645
wand@@ 645
Aktien@@ 645
ken@@ 645
märkte 644
gerech@@ 644
P 643
wahlen 643
sol@@ 643
starken 643
langfristige 643
Hinblick 642
gungen 642
Einsatz 642
Weltbank 642
nahmen 642
ki@@ 641
bringt 641
Behörden 641
zäh@@ 641
c 640
weg 640
verstehen 639
Kar@@ 639
wodurch 639
krati@@ 639
Kredi@@ 639
scht 639
Zentralbanken 638
stu@@ 638
Idee 637
bewe@@ 637
Zusammenhang 637
ordnung 637
fähigkeit 636
Bar@@ 636
Pra@@ 635
form@@ 635
wichtigen 635
und@@ 634
Euro@@ 634
fort@@ 634
andel@@ 634
O 633
c@@ 633
CO2 633
Ergebnisse 633
Le@@ 633
Fre@@ 633
mark@@ 632
verur@@ 632
Verfassung 632
Fein@@ 632
Ausland 632
heutigen 632
gel 631
versucht 631
digung 631
llen 631
bank@@ 630
verantwortlich 630
kommuni@@ 630
Medien 630
Finanzierung 630
militärische 630
Ägypten 630
bedarf 630
leicht 629
zeich@@ 629
alisi@@ 629
gering@@ 628
ganzen 628
zusetzen 627
notwendig 627
Forschung 627
Aufgabe 627
tro@@ 627
nissen 626
verloren 625
frage 625
mü@@ 625
dire@@ 625
enth@@ 624
märkten 624
stellte 623
zerstör@@ 622
starke 622
führ@@ 621
zeu@@ 621
0,@@ 621
überall 621
fa@@ 621
führten 620
stattdessen 620
private 620
schem 619
fähi@@ 619
dürfte 618
unabhängi@@ 618
kn@@ 618
Ä@@ 617
westlichen 617
ks 617
schuldung 617
Plan 617
Aufmerksamkeit 617
stände 616
benden 616
Versuch 616
Putins 616
jährlich 615
banken 615
gesagt 614
Zins@@ 614
Währung 614
Fällen 614
Net@@ 613
systems 613
dauer@@ 613
zent@@ 613
dien@@ 613
rund 612
niemand 611
darf 611
Daten 611
kapit@@ 610
Wider@@ 610
Sen@@ 610
achen 609
darum 609
vielmehr 609
ritten 609
britische 609
sto@@ 609
ck 608
trag 608
verfügen 608
Trans@@ 608
ard 607
Verbesserung 607
B 606
je@@ 606
orienti@@ 605
ba@@ 605
Jahrzehnt 605
0.000 605
Wechselkur@@ 604
grenz@@ 604
derung 604
Zusammenbruch 604
bru@@ 604
tel 603
Investitions@@ 603
öff@@ 602
Che@@ 601
gesetzt 601
60 600
Krie@@ 600
Meinung 600
Staates 600
Unabhängigkeit 600
ess@@ 600
Pri@@ 600
Nord@@ 599
ja 599
Regionen 598
bruch 598
G 598
läng@@ 597
dis@@ 597
Dienstleistungen 597
Ch@@ 596
lossen@@ 596
Menschenrechte 596
zweite 596
pf@@ 596
ähn@@ 596
ac@@ 595
schafft 594
reck@@ 594
spezi@@ 594
Do@@ 594
nah@@ 594
Zeiten 594
solchen 594
leich@@ 593
Mitte 593
ren@@ 592
Opfer 592
Medi@@ 592
Hamas 592
tri@@ 592
Status 591
Teil@@ 591
mente 591
stoffe 590
Ele@@ 590
anstatt 590
Saudi 589
mor@@ 589
Rechte 589
zah@@ 589
Ne@@ 589
nötig 589
seien 588
Ober@@ 588
2007 587
kurzfristi@@ 587
lichkeiten 587
kontrolli@@ 586
losen 586
demokrati@@ 585
konzentrieren 585
lossen 584
bessere 583
Gel@@ 583
kriti@@ 583
ähr@@ 582
vermeiden 582
verlang@@ 582
ate 581
Schwierigkeiten 581
Jahrzehnte 581
verfügt 580
grund 580
persön@@ 579
Hand 579
Gu@@ 578
ög@@ 578
du@@ 577
Ost@@ 577
Gesellschaften 577
Lo@@ 577
Emissionen 577
Krieges 577
wor@@ 577
zü@@ 576
Wer@@ 576
Ir@@ 576
aktuelle 576
völlig 576
unser 576
Ungleichheit 576
länger 576
leh@@ 576
mir 575
ste@@ 575
schlech@@ 575
wech@@ 575
größeren 574
ut 574
Einzel@@ 574
enz@@ 574
Koh@@ 574
Mor@@ 574
Rückgang 574
ober@@ 574
leiden 574
gelöst 574
statt@@ 574
tu@@ 574
schlagen 573
Zentral@@ 573
Beginn 573
gent@@ 573
Zeitpunkt 573
institution@@ 573
brechen 573
bin@@ 573
gewi@@ 572
West@@ 572
Präsidentschafts@@ 572
All@@ 572
abkommen 570
erhöh@@ 570
nei@@ 570
Washington 570
wur@@ 570
tere 569
weiter@@ 569
gewis@@ 568
Kopf 567
stec@@ 567
/ 567
welt@@ 567
w 567
Premierminister 567
Gleich@@ 567
dige 567
eten 566
erfordert 566
jeden 566
getan 566
beschäf@@ 565
wesen 564
somit 564
hunder@@ 564
ausländische 564
lität 564
stieg 564
res 563
jedem 563
berech@@ 563
verfolgen 562
Liber@@ 562
genannten 562
übernehmen 562
trä@@ 562
under@@ 561
Fi@@ 561
Gesetz@@ 561
angen 560
demokratische 559
verlieren 559
folge 559
gu@@ 559
vorher@@ 558
Öl 557
greif@@ 557
Kre@@ 557
wir@@ 557
kre@@ 557
Wachstums 557
dagegen 556
ländern 556
Dinge 556
kore@@ 556
stärken 556
herrsch@@ 555
sü@@ 555
stärk@@ 555
beschrän@@ 554
Teilen 554
lag 554
Ordnung 554
fe@@ 553
deu@@ 553
Instru@@ 553
zufolge 553
zweitens 553
zy@@ 552
Fr@@ 552
res@@ 552
Punkt 551
enorme 551
fern 551
gene 551
Barack 551
Char@@ 550
War@@ 550
R 550
techni@@ 550
Rest 549
kommenden 549
Sanktionen 549
sau@@ 549
prü@@ 549
brauch 549
ehemaligen 548
lö@@ 548
kehr@@ 548
app@@ 548
kulturel@@ 548
kürzlich 547
heißt 547
Monaten 547
Einführung 547
Konflik@@ 547
zogen 546
legt 546
altung 546
Zer@@ 546
eindeutig 546
Billionen 546
verlassen 545
erneut 545
Paris 545
ös@@ 545
Inflations@@ 545
ungsp@@ 544
Nachbarn 544
Parlament 544
geber 544
außerhalb 543
französischen 543
minister 543
wachstum 543
Privat@@ 543
Minder@@ 543
quote 543
2015 543
bu@@ 543
Geh@@ 543
Effek@@ 542
lle 542
geschlossen 542
Kommuni@@ 542
2,@@ 542
notwen@@ 542
Bericht 541
erfolgreich 541
mehrere 541
öh@@ 541
Modell 541
Bu@@ 540
Kraft 540
Lehr@@ 540
schu@@ 540
enormen 540
herr@@ 539
stru@@ 539
manchmal 539
digt 539
volle 538
bewusst 538
Absch@@ 538
Japans 538
bli@@ 538
National@@ 537
Am@@ 537
Technologie 537
mut@@ 537
Handel@@ 537
islami@@ 537
setz@@ 537
teilung 536
entscheiden 536
tn@@ 536
ffen 536
wenige 536
sechs 536
Anleihen 535
einzi@@ 535
lands@@ 535
verschär@@ 535
fangen 534
lern 534
wesentlich 534
Informationen 534
höheren 534
komplex@@ 534
Kor@@ 533
Krankheiten 533
förder@@ 533
bezeich@@ 533
Ide@@ 533
defizit 532
dischen 532
gewährleisten 532
fein@@ 532
erhöht 531
ete 531
suchen 531
Kultur 531
handel@@ 531
dungs@@ 530
Kern@@ 530
sicherung 529
ant@@ 529
Plan@@ 529
sachen 529
natür@@ 529
leider 529
hand@@ 529
sprech@@ 528
Generation 528
Finanzmärkte 528
fest 528
Programm 527
befinden 527
Spiel 527
sien 527
Verhalten 527
Islami@@ 527
Ausbildung 526
100 526
Bewegung 526
geo@@ 526
diplomati@@ 526
verschiedenen 526
kurz 526
erstens 526
Flüchtlinge 526
sichts@@ 526
Umsetzung 525
wo@@ 525
beizu@@ 525
tö@@ 525
druck 525
ommen 524
Rech@@ 524
ep@@ 524
Fortschritt 524
stehende 524
Chancen 524
Mexiko 524
Mitgliedsstaaten 523
gehören 523
Faktoren 523
Volks@@ 523
Vol@@ 523
zieren 522
sätze 522
unmöglich 522
Einkommens@@ 522
ons 522
Gesamt@@ 522
erster 521
mich 521
Vergleich 521
aren 521
bs@@ 521
gebil@@ 521
investieren 521
son@@ 521
wär@@ 521
armen 521
militärischen 521
ed@@ 521
Geschäfts@@ 520
radik@@ 520
kenn@@ 520
teu@@ 520
bl@@ 519
bemü@@ 519
At@@ 519
erwarten 519
zentr@@ 518
Gei@@ 518
&apos; 518
kung 518
Gesetz 517
daraus 517
ologie 516
Lösungen 516
ank 516
ethni@@ 516
pa@@ 516
zuvor 516
eigen@@ 516
Palästin@@ 516
bekan@@ 516
Wohl@@ 515
groß 515
Glau@@ 515
schwäch@@ 515
untern@@ 515
auer 514
mangel@@ 514
mögen 513
Position 513
gesellschaft@@ 513
Internationalen 513
weist 513
programm 513
Verteidigungs@@ 513
pe@@ 513
Nahrungs@@ 513
raten 512
wach@@ 512
übri@@ 512
Erd@@ 512
äh@@ 512
Todes@@ 512
2000 512
Aust@@ 511
Extre@@ 510
eter 510
neues 510
hinter@@ 510
Vermögen@@ 510
Falle 510
best@@ 510
Überein@@ 510
Berei@@ 509
zweiten 509
Ange@@ 509
rechte 508
dert 508
offensichtlich 507
Spiel@@ 507
ld 507
Realität 507
Wahrheit 506
Imp@@ 506
gezeigt 506
tigten 506
schlecht 506
ist@@ 506
ssi@@ 506
Waffen 506
deutschen 506
direkt 506
besitz@@ 506
Organisationen 506
grundlegende 506
Außenpolitik 506
derart 505
internationaler 505
ums@@ 505
tru@@ 505
Organisation 505
bs 505
Har@@ 505
teri@@ 504
soli@@ 504
Sit@@ 504
erklärt 504
jüng@@ 503
pp@@ 503
weltweite 503
lige 503
mt 503
wachsende 503
Niveau 503
Armen 502
fälle 502
Sie@@ 502
tsp@@ 501
E 501
morali@@ 501
tenden 501
senken 501
stie@@ 501
Ta@@ 501
Israels 500
Bekämpfung 500
T 500
berücksich@@ 500
YORK 500
Schul@@ 500
Monat 500
fall@@ 499
Gründe 499
außer 499
teren 499
ktur 499
fordert 498
Haltung 498
Kongress 498
finanziellen 498
schwieri@@ 498
Gefühl 498
nahe 498
gem 498
richtung 497
Kohlen@@ 497
Aktivitäten 497
Lin@@ 497
gekommen 497
schlag 497
Leben@@ 497
igen 497
mitteln 496
barer 496
behörden 496
Bevölkerungs@@ 496
unterstütz@@ 496
Anreize 496
Pr@@ 496
geschaffen 496
Gelegenheit 495
Islam 495
Entscheidungsträger 495
Platz 495
Tr@@ 495
ph@@ 495
ai@@ 494
Wettbewerb 494
veröffent@@ 494
heben 494
dra@@ 494
Staat@@ 494
Erklärung 493
2011 493
00 493
ass@@ 493
Ideen 493
Än@@ 492
ließen 492
kämp@@ 491
erwartet 491
ignori@@ 491
2001 491
wachsenden 491
jen@@ 490
Konflikte 490
ris@@ 490
produk@@ 490
sä@@ 490
Kri@@ 490
els 489
verbunden 488
gesamte 488
nö@@ 488
erklären 488
inde@@ 488
erkannt 487
Polen 487
mäßig 487
196@@ 487
billi@@ 487
reicht 487
Sowjetunion 487
zo@@ 486
Analy@@ 486
eigentlich 486
örper@@ 486
ingt 486
Hinsicht 486
1990er 486
Tat 485
kas 485
Arabien 485
ets 485
lat@@ 485
enti@@ 485
Führ@@ 485
utzt 484
ließ 484
reagieren 484
Zahlungs@@ 484
Angriff 484
Armee 484
Sieg 484
hängt 483
kleine 483
gender 482
kleinen 482
Lateinamerika 482
benö@@ 482
gend@@ 482
Wasser@@ 482
begann 481
halten@@ 481
trau@@ 481
stes 481
bin 481
ku@@ 481
fehl@@ 481
treiben 481
benen 481
rasch 481
Palästinenser 480
Männer 480
Indi@@ 480
ige 480
Industri@@ 480
shal@@ 480
lieben 480
entweder 480
legi@@ 480
abhängig 479
nu@@ 479
Schritte 479
lien 479
droh@@ 479
barkeit 478
erken@@ 478
krieg 478
uner@@ 478
Reform 478
Gegenteil 478
wiederum 478
Clinton 478
klein@@ 477
jener 477
pre@@ 477
jüngste 477
kurzem 476
meine 476
dient 476
erk@@ 476
Internet 476
prozess 475
bten 475
niedri@@ 475
Eigent@@ 475
wün@@ 475
Anti@@ 475
sitz@@ 475
Amt 474
heraus@@ 474
198@@ 473
modernen 473
Dezember 473
.000 473
ungefähr 473
stens 473
Mitgliedschaft 472
Konjunktur@@ 472
ürz@@ 472
Bau@@ 472
mein@@ 472
untergraben 472
hilfe 472
Kräfte 472
posi@@ 472
2012 472
н@@ 472
fällt 471
Bru@@ 471
spek@@ 471
palästinensischen 471
entsprech@@ 471
produkti@@ 471
anderswo 470
bilden 470
vorgesch@@ 470
ad 470
japanischen 470
täts@@ 470
verein@@ 470
einander@@ 470
Weltkrieg 470
europa 470
häu@@ 470
dru@@ 469
tl@@ 469
Nich@@ 469
Opposition 469
Schi@@ 469
fal@@ 469
selben 468
Alternative 468
reali@@ 468
früher 468
bür@@ 468
gres@@ 468
Akti@@ 467
tor 467
stischer 467
dramati@@ 466
bte 466
Drittel 466
fän@@ 466
sa@@ 466
wa@@ 466
Verwal@@ 466
dürfen 466
ien 466
Zweiten 465
gegenwärtigen 465
örder@@ 465
sub@@ 465
ät 465
unser@@ 465
ett@@ 465
deutsche 464
führenden 464
prakti@@ 464
steh@@ 464
cks 464
junge 463
George 463
Tage 463
ans@@ 463
Aufstieg 463
tim@@ 463
Sk@@ 463
gewähl@@ 462
olo@@ 462
mar@@ 462
ei 462
ütz@@ 461
entlichen 461
wachsen 461
sischer 461
schwung 461
lück@@ 461
genauso 460
dringend 460
umfas@@ 460
versu@@ 460
om 460
unseren 459
Schuld@@ 459
alte 459
tern@@ 459
ff 459
18@@ 459
letzte 459
Aspek@@ 458
ative 458
zunehmen@@ 458
Produktivität 458
Terror@@ 458
Hand@@ 458
führer 458
Unternehmens@@ 458
unterschie@@ 458
ausgesetzt 457
zahlt 457
Kandidaten 457
spra@@ 457
mindestens 457
langfristig 457
Behandlung 456
ager 456
Bildungs@@ 456
Jah@@ 456
vernünf@@ 456
behaupten 456
Widerstand 456
französische 456
bewegen 455
gezwungen 455
Ungleich@@ 455
bele@@ 454
Spannungen 454
Dar@@ 454
weiß 454
beginnen 454
israelischen 454
org@@ 453
gri@@ 453
2005 453
krank@@ 453
Programme 453
Verringerung 453
ven@@ 452
gehört 452
wider 452
Viel@@ 452
tigte 452
Kin@@ 452
kaufen 452
inien 452
betra@@ 451
Sache 451
sinn@@ 451
hielt 451
markt@@ 451
haften 451
umfassen@@ 451
führende 451
zufrie@@ 451
tivi@@ 450
per 450
fordern 450
wie@@ 450
Emp@@ 450
Sicht 449
aden 449
hän@@ 449
Wettbewerbsfähigkeit 449
Brenn@@ 449
niedrig@@ 449
Liquidi@@ 449
schafts@@ 449
ähnliche 448
vorzu@@ 448
Ger@@ 448
wirtschafts@@ 448
Fonds 448
Massen@@ 448
Afri@@ 448
oben 447
verantwor@@ 447
blo@@ 447
hafte 447
Erfahrung 447
nationaler 447
terung 447
dam@@ 447
ant 447
bestä@@ 446
falsch 446
Hypothek@@ 446
seln 446
Teile 446
Einwander@@ 446
entsch@@ 446
jahr@@ 446
halt 446
reifen 445
äts@@ 445
Beziehung 445
akzeptieren 445
positi@@ 445
Produktions@@ 445
Initiative 445
bevölkerung 445
sierte 444
glei@@ 444
Voraus@@ 444
Untersuch@@ 443
begr@@ 443
vertei@@ 443
verstärkt 443
sive 442
rieben 442
dsch@@ 442
jungen 442
star@@ 442
behalten 442
tnisse 442
boten 442
wissen@@ 442
2013 442
tal@@ 441
ermöglicht 441
kontro@@ 441
etabli@@ 441
Schwellenländer 441
praktisch 441
leistungen 440
programme 440
nahm 440
offen 440
trag@@ 440
zig 440
Al 440
funktionieren 440
2014 440
beein@@ 439
beträch@@ 439
Vereinbar@@ 439
räu@@ 439
Wahrscheinlichkeit 439
ef@@ 439
Libanon 439
Obamas 439
Entwicklungen 439
Kriegs@@ 439
Stabi@@ 438
akzep@@ 438
globaler 438
hil@@ 438
geord@@ 438
the@@ 438
findet 438
Hän@@ 438
Verhältnis 438
versorgung 438
klas@@ 438
Lie@@ 438
weiterer 438
zukünf@@ 437
wann 437
Verbindung 437
ähnlich 437
außer@@ 437
afrika 437
Kalten 436
Großteil 436
ahr 436
ats 436
bereich 436
Versprechen 436
Wissenschaft 436
Vision 436
wichtigste 435
los@@ 435
Ministerpräsident 435
Trump 435
gangen 435
deck@@ 434
weit@@ 434
Umfang 434
kel 434
gestiegen 434
toren 434
kein@@ 434
gang@@ 434
stabi@@ 434
entgegen@@ 434
konfrontiert 434
bit@@ 434
werk 434
Demokratien 434
Sozi@@ 433
port@@ 433
zeichnet 433
regionale 433
Währungsfonds 433
näh@@ 433
energi@@ 433
stehenden 433
erklärte 432
begrenz@@ 432
greifen 432
erzeu@@ 432
weis@@ 432
erzielen 431
в@@ 431
Mach@@ 431
Personen 431
mung 431
Maß@@ 431
regel@@ 431
Vertreter 430
leistung 430
vermutlich 430
Truppen 430
Is@@ 430
etzen 430
Staatsanleihen 430
dies@@ 430
unbe@@ 430
ehmen 430
einzelnen 429
pol@@ 429
reduzieren 429
Chinesen 429
kehren 429
sions@@ 429
zeit@@ 428
fossi@@ 428
kenntnis 428
freilich 428
äche 428
regierung 428
anges@@ 427
teile 427
Ausdruck 427
steigern 427
ht 426
bestimmt 426
üche 426
wahren 426
regionalen 426
Experten 426
siven 426
rum 426
El@@ 426
strukturi@@ 426
Depression 425
einst 425
früh@@ 425
B. 425
beteili@@ 425
Vertrag 425
Nordkorea 425
elten 425
Basis 425
Potenzial 425
sie@@ 425
Unsicherheit 425
nde 425
kraft@@ 425
wandel@@ 424
Beri@@ 424
eben 424
Wasser 424
stellten 424
Verbrechen 424
flu@@ 423
Tsch@@ 423
funktion@@ 423
fas@@ 423
fonds 422
I 422
größer 422
spiegelt 422
ökonom@@ 422
Fern@@ 422
Stadt 422
ort 422
verl@@ 422
gni@@ 422
ehm@@ 422
November 422
Stelle 422
derartigen 422
andes 421
kamen 421
ments 421
dene 421
geld@@ 421
Mangel 421
Regulierung 421
schien 421
bezieh@@ 421
Menschen@@ 421
Erhöhung 421
Hin@@ 420
Regulierungs@@ 420
ermu@@ 420
fun@@ 420
möglichen 420
Pat@@ 420
beste 420
verz@@ 420
befindet 420
Verbündeten 420
forder@@ 419
Linie 419
nächste 419
anhalten@@ 419
dro@@ 419
rali@@ 419
Hilfs@@ 419
alt 419
Netz@@ 419
gewähr@@ 419
gegensei@@ 418
hauptsächlich 418
lässi@@ 418
Konsens 418
Lockerung 418
Regierungschefs 418
adi@@ 418
Tren@@ 417
staat 417
2006 417
wahl 417
steigt 417
medizini@@ 417
Nation@@ 417
lin 417
ühr@@ 417
bildung 416
ates 416
Vorstellung 415
70 415
Kindern 415
folgt 415
Rückkehr 415
vieler 415
mel@@ 415
geschä@@ 415
Angele@@ 415
Agenda 414
griff 414
Immobilien@@ 414
denden 414
investi@@ 414
ffe 414
ativ 414
Patienten 414
bedeuten 414
Är@@ 413
bank 413
hören 413
losigkeit 413
Verfassungs@@ 413
verschie@@ 413
Diktat@@ 412
lebens@@ 412
weiten 412
zentrale 411
Aussch@@ 411
lock@@ 411
one 411
herrscht 411
echte 411
stimmung 411
mas@@ 411
Win@@ 411
schrän@@ 411
raum 411
retten 411
Wäh@@ 411
vermei@@ 410
Exporte 410
mismus 410
Den@@ 410
sidenten 410
Hoch@@ 410
lim@@ 409
Hinter@@ 409
Unterschiede 409
Stimmen 409
passen 409
ganze 409
193@@ 409
tigkeiten 409
Regimes 409
enheit 409
neben 409
pet@@ 408
swer@@ 408
mieren 408
vern@@ 408
Ern@@ 408
Sy@@ 408
Gesam@@ 408
onnen 408
werfen 408
Tra@@ 408
grund@@ 408
tende 407
ches 407
läu@@ 407
Früh@@ 407
sek@@ 407
stark@@ 407
2004 407
scho@@ 407
Themen 407
arbeitet 406
kra@@ 406
sowje@@ 406
net@@ 406
zes 406
Menge 406
normalerweise 406
fisk@@ 406
finanzieren 405
Durchschnit@@ 405
Südkorea 405
Gar@@ 405
apazitäten 405
gegangen 405
derer 405
genannte 404
Aussichten 404
Som@@ 404
Szen@@ 404
Kompromis@@ 404
erlau@@ 403
trie@@ 403
kanische 403
sichern 403
lü@@ 403
Hau@@ 403
Gesch@@ 403
garanti@@ 403
Dro@@ 403
struktur@@ 403
Büro@@ 403
Krisen 402
Zweifel 402
au 402
solange 402
essen@@ 402
Gipfel 402
Währungen 401
beruht 401
194@@ 401
einhei@@ 401
Scho@@ 401
Leute 401
geschi@@ 401
kunft 401
hau@@ 400
arbeiter 400
effek@@ 400
ziele 400
Stu@@ 400
politi@@ 400
trägt 400
norm@@ 400
bewältigen 400
ändert 400
Reser@@ 400
Refer@@ 400
ätz@@ 399
Zi@@ 399
Mann 399
Rohstoff@@ 399
Augen 399
Ökonomie 399
erheblich 399
luss@@ 399
ko 399
lisierung 399
sat@@ 399
Fehl@@ 398
beln 398
General@@ 398
jenigen 398
Gesetze 398
tleren 398
Beschäftigung 398
Gründen 398
Krankheit 398
schließ@@ 397
Forschungs@@ 397
Rahmen@@ 397
niedrigen 397
! 397
Hö@@ 397
geraten 397
Königreich 397
Botschaft 397
gruppen 397
Familien 396
behörde 396
erscheinen 396
Kan@@ 396
ze@@ 396
lä@@ 396
gele@@ 396
grundlegenden 396
Rom@@ 395
zwingen 395
gnis 395
gül@@ 395
angemessen@@ 395
Forderungen 395
bemerken@@ 395
Engagement 395
Gr@@ 395
Wahlkamp@@ 395
Sek@@ 395
ausländischen 395
kraten 394
Fo@@ 394
ichten 394
organi@@ 394
Direk@@ 394
zung 394
Ara@@ 394
Wissenschaftler 394
miteinander 394
Kapitalismus 394
eingesetzt 394
politisches 394
tief 394
kürz@@ 394
wonach 393
funktioniert 393
Flüchtling@@ 393
spricht 393
weis 393
vorhan@@ 393
bau@@ 393
kommens 393
keits@@ 393
Mensch@@ 393
achtet 393
alisten 393
jenen 392
Indiens 392
Struktur@@ 392
Terroristen 392
drit@@ 392
Juni 392
Bl@@ 392
Anstrengungen 392
Phase 391
riesi@@ 391
histori@@ 391
Märkten 391
Studie 391
nern 391
Leistungen 391
Rett@@ 391
selbstverständlich 391
glob@@ 391
überra@@ 390
kischen 390
heu@@ 390
Bün@@ 390
Kreml 390
städ@@ 390
ständigen 389
gehöri@@ 389
Verluste 389
Mitglieds@@ 389
Brexit 389
sicht@@ 389
danach 388
zahl 388
gehalten 388
Waffen@@ 388
ursprüng@@ 388
Legitimität 388
überdies 388
früheren 387
rangi@@ 387
verbess@@ 387
Beitrag 387
Besu@@ 387
endlich 387
Systems 387
bezeichnet 387
Produkte 387
Tod 387
Steu@@ 387
Grenze 386
leiten 386
lichem 386
freie 386
Wiederauf@@ 386
schlimm@@ 386
grundle@@ 386
Monate 386
Rak@@ 386
intern@@ 386
Sum@@ 386
ario 386
argumenti@@ 386
Innovation 385
lernen 385
produktion 385
Amtszeit 385
Finanzinstitu@@ 385
Schwer@@ 385
fel@@ 385
ys 385
sitz 385
wus@@ 385
Administration 385
guten 384
stä@@ 384
Wil@@ 384
Untern@@ 384
ide@@ 384
Kurs 384
same 384
inen 384
Natur 384
rom 384
schlimmer 383
Fähigkeiten 383
fähig 383
sun@@ 383
Lauf@@ 383
lektu@@ 383
Argentinien 383
ret@@ 382
Konsu@@ 382
verfolgt 382
Partner 382
fand 382
möchte 381
wirtschaftlich 381
Umständen 381
staat@@ 381
kommen@@ 381
genie@@ 381
darstellt 381
anderes 380
beschleuni@@ 380
zwan@@ 380
Luft@@ 380
zep@@ 380
richtungen 380
Instabilität 380
Namen 380
ci@@ 380
laufen 379
ament@@ 379
hoffen 379
Vorteil 379
zukünftige 379
miss@@ 379
Universi@@ 379
Erwärmung 379
Mark@@ 379
bilität 378
Men@@ 378
Trend 378
verringert 378
ökonomischen 378
с@@ 378
menten 378
gas@@ 378
Klimawandels 378
Prinzipien 378
stütz@@ 378
entscheidend 378
frei 378
dienst@@ 378
Ereignisse 378
besu@@ 378
erie 378
wäh@@ 377
No@@ 377
zustellen 377
meiner 377
Spra@@ 377
Wege 377
geschehen 377
gewöhn@@ 377
Annahme 377
Proz@@ 376
argumentieren 376
zur@@ 376
beding@@ 376
täten 376
Raum 376
erweisen 376
of@@ 376
ins@@ 376
drei@@ 376
ande 375
1. 375
Erfahrungen 375
Stro@@ 375
Ort 375
angeht 375
zusätzliche 375
hoh@@ 375
machte 375
Kosovo 375
Tran@@ 375
profi@@ 375
reserven 375
ira@@ 375
brau@@ 375
Prote@@ 375
Hinder@@ 375
frühen 374
Industrie@@ 374
darstellen 374
kla@@ 374
Off@@ 374
beenden 374
griechischen 374
entscheidender 374
derzei@@ 374
afrikanischen 374
ark@@ 373
sprach 373
gan@@ 373
testen 373
lik@@ 373
т@@ 373
Investi@@ 373
realen 373
präsen@@ 373
fristi@@ 373
unterschiedlichen 373
Noten@@ 373
aut 373
ßt 372
nütz@@ 372
Sich@@ 372
vier@@ 372
projek@@ 372
reise 372
Tri@@ 372
ban@@ 372
niedrig 372
genheiten 372
Bal@@ 372
fre@@ 372
trakti@@ 372
plötz@@ 371
We@@ 371
nis@@ 371
maß@@ 371
müsste 371
unterschei@@ 371
Gol@@ 371
Pap@@ 371
Verlust 371
samen 371
waffen 371
traditionellen 370
3,@@ 370
Mechan@@ 370
endes 370
erweise 370
ünsti@@ 370
Kritik 370
Nuklear@@ 370
utzung 369
porte 369
Export@@ 369
gegenwärtig 369
ig 369
agi@@ 369
atastrop@@ 369
strategische 369
brachte 369
bestimmte 368
nachhaltige 368
bereit@@ 368
Inform@@ 368
bestehenden 368
Ter@@ 368
Bedürf@@ 368
2003 368
reguli@@ 367
Sub@@ 367
republi@@ 367
strategischen 367
bezahlen 367
Finanzi@@ 367
zun@@ 367
Verteidigung 367
Steigerung 367
größtenteils 367
Katastrophe 367
Deutschlands 367
gezogen 367
industri@@ 367
gewählt 366
är 366
ausreichend 366
Regi@@ 366
Risiko@@ 366
steuern 366
steigenden 366
erheb@@ 366
Zent@@ 366
bilater@@ 366
populi@@ 366
Verbrauch@@ 366
Tradi@@ 365
Stim@@ 365
verwendet 365
Erwartungen 365
voraus@@ 365
strategi@@ 365
fri@@ 365
nden 365
So@@ 365
beigetragen 364
strukturel@@ 364
п@@ 364
Argument 364
beschränkt 364
Bauern 364
reibt 364
setzte 364
Umfeld 364
langsam 364
kauf@@ 364
defizite 364
Muslime 364
unger 363
Wirkung 363
Defizite 363
ordini@@ 363
ents 363
erseits 363
Maß 363
ehemalige 363
gleiche 363
konvention@@ 363
handels@@ 362
änder@@ 362
Einkommen@@ 362
mö@@ 362
gerichtet 362
Arten 362
dische 362
steuer 362
tür@@ 362
asiatischen 362
bende 362
Fer@@ 361
lass 361
Schwei@@ 361
iranischen 361
llt 361
umfassende 361
Vorschlag 361
Republik 361
erwar@@ 361
Ära 361
fiz@@ 361
zusätz@@ 360
rus@@ 360
ante 360
verursacht 360
Demon@@ 360
ön@@ 360
ständig 360
Problemen 360
Mehr@@ 360
20@@ 360
Menschenrechts@@ 360
sm@@ 360
schneller 359
offiziellen 359
sagte 359
musste 359
Verhand@@ 359
behin@@ 359
Hong@@ 359
will@@ 359
wehr@@ 358
steigende 358
öffentlich 358
blei@@ 358
strategie 358
warten 358
sy@@ 358
Behaup@@ 358
hör@@ 358
richtige 358
esse 358
militäri@@ 357
Einnahmen 357
port 357
Verbindungen 357
fang@@ 357
Anzeichen 357
forderungen 357
multilater@@ 357
füh@@ 357
sierten 357
anschließ@@ 357
wert@@ 357
eck 357
gab@@ 357
bedingungen 357
Beam@@ 357
richtig 357
setzungen 357
He@@ 357
bekämpfen 357
kredi@@ 356
Verbraucher 356
infolgedessen 356
bri@@ 356
müssten 356
Federal 356
unabhängig 356
Klim@@ 356
freund@@ 355
Institu@@ 355
innen 355
Schaden 355
Gegner 355
umzu@@ 355
formuli@@ 355
taus@@ 355
Einigung 355
Diskussion 355
reicher 355
pri@@ 355
glück@@ 355
entspricht 354
ga@@ 354
erfordern 354
Ausweitung 354
kämpfen 354
unwahrscheinlich 354
Lohn@@ 354
günsti@@ 354
Leistungsbilanz@@ 354
Atomwaffen 354
verstärken 354
Schwellen@@ 354
erscheint 353
Renten@@ 353
extern@@ 353
allgemein 353
Demokrati@@ 353
hy@@ 353
lekti@@ 353
herzustellen 353
ertes 353
schle@@ 353
entschieden 353
verbun@@ 353
sig@@ 353
Geheim@@ 353
jährigen 353
kehrt 353
rel@@ 353
eng 353
Streit@@ 353
Städte 352
einkommen 352
offizielle 352
erlei 352
Priv@@ 352
Spit@@ 352
acht 352
angel@@ 352
Bri@@ 352
ktion 352
it 352
Mus@@ 351
bestand 351
ktion@@ 351
Progno@@ 351
Industrieländern 351
As@@ 351
veran@@ 351
werke 351
Arbeitskräfte 351
Russen 351
leistungs@@ 351
spielt 351
geschei@@ 351
get@@ 350
Miss@@ 350
Bom@@ 350
chtsh@@ 350
Schwellenländern 350
Nat@@ 350
aum 350
Familie 350
zunehmende 350
Beschäftigungs@@ 350
oli@@ 350
1980er 350
tin@@ 349
rat 349
Dynamik 349
weite 349
erweiter@@ 349
Militär 349
Sorgen 349
York 349
Moment 349
Anrei@@ 349
Pi@@ 348
existi@@ 348
Abhängigkeit 348
niedriger 348
diskuti@@ 348
west@@ 348
Bürgern 348
gelungen 348
nor@@ 347
elte 347
chts@@ 347
ökonomische 347
Januar 347
80 347
islamischen 347
europäi@@ 347
feld 347
äm@@ 347
samer 347
japanische 347
egal 347
Partei@@ 346
acher 346
einzel@@ 346
Universitäten 346
Spitzen@@ 346
Woche 346
fehlt 346
Volk 346
Bereitschaft 345
such@@ 345
redu@@ 345
defin@@ 345
westliche 345
rieb 345
sichten 345
gehend 345
tnis 345
schwei@@ 345
kräften 345
hängen 345
Eli@@ 345
Verbreitung 345
р@@ 344
$ 344
verfüg@@ 344
Wun@@ 344
Staats- 344
streben 344
genheit 344
wachsen@@ 344
solidi@@ 343
schwin@@ 343
Kamp@@ 343
wohner 343
Binnen@@ 343
hand 343
holen 343
Zivili@@ 342
Landwirtschaft 342
ümm@@ 342
Vier@@ 342
zusätzlich 342
Te@@ 342
schaft@@ 342
ner@@ 342
Währungsunion 342
kanischen 342
höher@@ 342
enter 342
üsse 341
fort 341
Verpflichtungen 341
begrün@@ 341
klär@@ 341
ure 341
Ölpreise 341
ständige 341
Reserve 341
Worten 341
autorit@@ 340
Studien 340
vollständig 340
Verständnis 340
Tech@@ 340
Arbeitnehmer 340
gingen 340
absol@@ 340
mitt@@ 340
ance 340
entstehen 340
Schätz@@ 340
F 340
rank@@ 340
Löhne 340
gegen@@ 339
Frau 339
unterschiedliche 339
jeweiligen 339
heim@@ 339
staatlicher 339
nahezu 339
erle@@ 339
sicherzustellen 339
program@@ 339
uni@@ 339
Frem@@ 339
abzi@@ 338
000 338
Bro@@ 338
moderne 338
eingeschrän@@ 338
dah@@ 338
Parlament@@ 338
Priorität 338
verpflichtet 338
Einheit 338
Nul@@ 338
angeblich 338
werk@@ 338
Anleger 338
keiner 337
Grenz@@ 337
risi@@ 337
verschiedene 337
basi@@ 337
makro@@ 337
Sol@@ 337
reagi@@ 337
igte 337
diger 337
spor@@ 337
Mod@@ 337
fiel 336
Anlei@@ 336
Stärkung 336
häl@@ 336
Reform@@ 336
Wochen 336
fan@@ 336
überwiegend 336
hoben 336
fün@@ 336
hoher 336
März 336
lar@@ 336
zuzu@@ 336
gefallen 336
verursach@@ 336
esses 335
Gewinne 335
nationali@@ 335
aner 335
а@@ 335
Sorge 335
läuft 334
Zy@@ 334
Stur@@ 334
dä@@ 334
weiger@@ 334
entscheidende 334
lichte 334
Geschä@@ 334
utes 334
Waren 334
solcher 334
öp@@ 334
ren 334
aufzubauen 333
Dialo@@ 333
Mai 333
Cambridge 333
lös@@ 333
arch@@ 333
niemals 333
ute 333
Arabi@@ 333
einnahmen 333
wahrschein@@ 333
Übergang 333
üben 332
schlechte 332
Konferenz 332
Unterschied 332
anc@@ 332
ka 332
Libyen 332
zählen 332
Deut@@ 331
lien@@ 331
einzigen 331
antwor@@ 331
е@@ 331
Ansichten 331
Fu@@ 331
enorm 331
hielten 331
stands@@ 331
Gespräche 331
Herrschaft 331
eingeführt 331
ichte 330
ähnlicher 330
Schicksal 330
worfen 330
Rendi@@ 330
Bran@@ 330
zt 330
Produktivitäts@@ 330
Impf@@ 330
Innovationen 330
Epi@@ 330
zutage 330
bislang 330
Identität 330
limm@@ 329
Peri@@ 329
xis 329
Akteure 329
wissenschaft@@ 329
sieben 329
tt 329
Westens 329
Systeme 329
U 329
entfernt 329
alem 329
bungen 329
flexi@@ 329
fällig 329
lautet 329
go@@ 328
jähri@@ 328
mussten 328
att@@ 328
up@@ 328
menschlichen 328
unmittel@@ 328
erkan@@ 328
Wissen 328
Ökonomien 328
tei@@ 328
20. 328
selbst@@ 328
aten@@ 328
Na@@ 328
Veränderung 328
verhindert 327
Vorsitz@@ 327
gü@@ 327
sicherungs@@ 327
sterben 327
Treffen 327
werde 327
ufen 327
Internation@@ 327
erin 327
Mitglied 327
Anpass@@ 327
hr 327
verteilung 327
Kat@@ 326
Nation 326
Pa@@ 326
Sinn 326
Großen 326
denk@@ 326
investitionen 326
riffen 326
vertr@@ 326
achten 326
gsten 326
Subventionen 326
opp@@ 326
Anhänger 326
Intervention 326
läufig 325
hä@@ 325
Juli 325
Con@@ 325
Wladimir 325
verlu@@ 325
religiösen 325
italien@@ 325
Medikamente 325
Soldaten 325
nieder@@ 325
Min@@ 325
aufen 324
Kontinent 324
Beteili@@ 324
W. 324
diesel@@ 324
Mäch@@ 324
son 324
verpflich@@ 324
volu@@ 324
ergreifen 324
Alli@@ 324
gefunden 324
kli@@ 324
Assad 324
Stärke 323
ele@@ 323
stellungen 323
mittlerweile 323
agen 323
anderem 323
dlicher 323
Män@@ 323
erfüllen 323
sicherheit 323
Ausnahme 323
siv 322
Intel@@ 322
Änderungen 322
stabilität 322
hervor 322
verbin@@ 322
jährlichen 322
freiheit 322
gerich@@ 322
könne 321
Haushalt 321
Fiskal@@ 321
Rede 321
ameri@@ 321
gelten 321
eben@@ 320
Anerkennung 320
fs 320
Nutzung 320
europ@@ 320
Sa@@ 320
gelei@@ 320
Produk@@ 320
höh@@ 320
mögliche 320
spartn@@ 320
erleich@@ 320
stabil@@ 320
umzusetzen 319
Stell@@ 319
Kinder@@ 319
gebaut 319
wirkt 319
sphäre 319
jemals 319
enkt 319
Malaria 319
Verfahren 319
gerungen 319
zehn@@ 319
Gas@@ 319
erforder@@ 319
plan@@ 319
ehmer 318
flü@@ 318
ativer 318
beeinflussen 318
einiger 318
wollte 318
Gläubiger 318
täu@@ 318
Industrie 318
andererseits 318
Ziel@@ 318
Regel 318
nicht@@ 318
peri@@ 318
tweise 318
öffentlicher 317
integri@@ 317
wies 317
überwinden 317
Schulen 317
Politikern 317
Prinzip 317
des@@ 317
Senkung 317
rechten 317
wom@@ 317
allgemeinen 317
Gaza 317
ss@@ 317
kri@@ 316
mmt 316
Glaubwürdigkeit 316
strö@@ 316
konkre@@ 316
proz@@ 316
John 316
stimmen 316
spiel 315
tation 315
massive 315
formen 315
Arbeitslosen@@ 315
allzu 315
meinen 315
arme 315
Fuß@@ 315
Krisen@@ 315
Leistung 315
Aktion@@ 315
Sarkozy 315
lichten 315
weiteres 315
Reak@@ 314
ns 314
Dollars 314
Str@@ 314
domini@@ 314
Völk@@ 314
gelassen 314
schwieriger 314
überzeugt 314
Souveränität 314
Umwelt 313
Konsum 313
schlägen 313
kehr 313
Faktor 313
ere@@ 313
fürchten 313
Asiens 313
äß@@ 313
preis 312
sage 312
palästinen@@ 312
erwiesen 312
Theorie 312
ausgeh@@ 312
ürzen 312
AIDS 312
zahlungen 312
Invest@@ 312
dacht 312
verschm@@ 312
zin 312
ats@@ 312
besei@@ 312
Br@@ 311
Schuld 311
benötigt 311
les 311
bewaff@@ 311
drängen 311
2002 311
liens 311
verabschie@@ 311
Größe 311
amerikanischer 311
muslimischen 311
schätzen 311
Not@@ 311
allgemeine 310
thin 310
erneuer@@ 310
überrasch@@ 310
umfassenden 310
manchen 310
lig 310
Arbeiter 310
ermaßen 310
haus@@ 309
Diplomatie 309
Mitgliedern 309
begonnen 309
Gerechtigkeit 309
grafi@@ 309
ket@@ 309
Einw@@ 309
Arbeitsmarkt 309
Vermögenswerte 309
Übersch@@ 309
Car@@ 309
heraus 309
illi@@ 309
ah 309
Kontro@@ 308
vol@@ 308
Compu@@ 308
bevor@@ 308
Aufbau 308
Unru@@ 308
zügi@@ 308
desto 308
kompli@@ 308
Schlüssel@@ 308
Gericht 308
Finanzminister 308
· 308
verstän@@ 308
ont 308
tionsk@@ 308
indischen 308
Verein@@ 307
afri@@ 307
Israelis 307
wachstums 307
Entscheidungs@@ 307
kurzfristig 307
drängt 307
Strukturreformen 307
Maße 307
zipi@@ 307
Boden 307
Kombination 307
sache 307
Indonesien 307
Sonder@@ 307
öl@@ 306
nachzu@@ 306
Griechenlands 306
wah@@ 306
tat 306
frü@@ 306
sätz@@ 306
dende 306
voller 306
Güter 306
Fund@@ 305
priv@@ 305
dor@@ 305
doppelt 305
gewöhnlich 305
ters 305
Tages@@ 305
Häus@@ 305
flüsse 305
strebt 305
195@@ 304
Energien 304
Pres@@ 304
tors 304
gliche 304
gewissen 304
Migranten 304
historischen 304
Grad 304
199@@ 304
Nationalismus 304
Buch 304
Mädchen 304
Kampagne 303
jewei@@ 303
Initiativen 303
vergleich@@ 303
schnell@@ 303
Gefän@@ 303
Überzeu@@ 303
Kämp@@ 303
Belast@@ 303
Projekt 303
wissenschaftlichen 303
israelische 303
weg@@ 303
willi@@ 302
Hal@@ 302
Beru@@ 302
zweifellos 302
Person 302
psych@@ 302
überzeu@@ 302
chts 302
sam 302
Produ@@ 302
Ha@@ 302
Treib@@ 302
angewiesen 302
verändert 302
M 301
mischen 301
reiten 301
Chaos 301
est 301
nachfrage 301
Großbritanniens 301
gestalten 301
tie@@ 301
Perspek@@ 301
jah@@ 300
win@@ 300
erfü@@ 300
Republikaner 300
Pf@@ 300
pakist@@ 300
Frankreichs 300
Kreditver@@ 300
umgesetzt 300
sofern 300
Anpassung 300
verwal@@ 300
Arbeitsplätzen 300
bereiten 299
Gleichgewicht 299
arabische 299
lokalen 299
nam@@ 299
Hi@@ 299
loh@@ 299
dynami@@ 299
Fest@@ 299
Nachbar@@ 299
entwickelte 299
Besch@@ 299
Erfol@@ 299
Generationen 299
belie@@ 299
lokale 299
gste 299
echnologi@@ 299
Konsequenzen 299
Der 299
verhe@@ 299
ägyp@@ 298
500 298
säm@@ 298
ton 298
erinn@@ 298
kro@@ 298
unterdessen 298
trit@@ 298
ack@@ 297
HIV 297
partei@@ 297
Bestand@@ 297
Koalition 297
ausch 297
wächst 297
wohlhab@@ 297
Spe@@ 297
Pu@@ 297
tierten 297
sucht 297
Scheitern 297
gene@@ 297
Chri@@ 297
к@@ 297
fühlen 297
fak@@ 297
90 297
größerer 297
Renminbi 297
sektors 297
falt 297
troffen 296
Devi@@ 296
Real@@ 296
Gedank@@ 296
griech@@ 296
glie@@ 296
demi@@ 296
tradition@@ 296
ktive 296
Wirklichkeit 296
Denk@@ 296
gewinn@@ 296
wiederholt 295
stärksten 295
innen@@ 295
bern 295
Wertpap@@ 295
sis 295
außen 295
richtigen 295
überzeugen 295
rolle 295
selten 295
Brut@@ 295
Mein@@ 295
begrenzt 295
stimmt 294
sion@@ 294
netz@@ 294
offizi@@ 294
digkeit 294
Konzept 294
Ira@@ 294
tatsäch@@ 294
Wachstum@@ 294
lauf@@ 294
stoßen 294
sche@@ 294
erzielt 294
Fahr@@ 294
system@@ 294
qualifizi@@ 293
fr@@ 293
Straf@@ 293
Quar@@ 293
Wor@@ 293
Arbei@@ 293
ländi@@ 293
sagt 293
Anspruch 293
Meinungs@@ 293
Eliten 293
schlechter 293
schulden 293
extre@@ 293
träch@@ 293
entschei@@ 293
Migration 293
Marktes 292
unbedingt 292
ada 292
Solidarität 292
woll@@ 292
oftmals 292
Merkel 292
störung 292
Arbeitsplat@@ 292
außen@@ 292
gungs@@ 292
wendet 292
abi@@ 292
Fil@@ 292
zei 292
Finanzsystem 292
heb@@ 292
ong 292
ausgehen 292
entsprechend 291
zweifel@@ 291
Drogen@@ 291
bestimmten 291
Aktien 291
Notenbank 291
verbessert 291
errei@@ 291
äußerst 291
denheit 291
beträgt 291
Zuge 291
schwachen 290
Peking 290
humanit@@ 290
Wah@@ 290
staatlichkeit 290
werte 290
schmerz@@ 290
Kultur@@ 290
dasselbe 290
koh@@ 290
gering 290
frem@@ 290
gewichte 290
Spi@@ 290
umt 290
anien 290
äten 289
union 289
theit 289
zeichnen 289
Rat 289
bestimmen 289
stoffen 289
kräf@@ 289
konkur@@ 289
passiert 289
Sicherheitsrat 289
unzureich@@ 289
alter 289
assung 289
sammlung 289
massiven 288
Staatsschulden 288
... 288
tau@@ 288
trieben@@ 288
Qualität 288
rechter@@ 288
Sinne 288
aktiv 288
beobach@@ 288
gemäß 288
ermor@@ 288
ohn@@ 288
Städten 288
wissenschaftliche 288
rufen 288
osen 288
sicherlich 288
tierte 288
kal@@ 287
Intern@@ 287
hinzu@@ 287
Kranken@@ 287
begeg@@ 287
Bedenken 287
Projekte 287
entwicklung 287
Partnerschaft 287
gangs 287
mini@@ 287
ministerium 286
möglichkeiten 286
tei 286
Populi@@ 286
denke 286
gefährlich 286
glaubwür@@ 286
Kluft 286
bess@@ 286
schlu@@ 286
blie@@ 286
fassen 286
steuer@@ 286
zugrunde 286
Reduzierung 286
erlebt 286
reale 286
Mat@@ 286
Kommunismus 285
dere 285
Roh@@ 285
ärmsten 285
ideologi@@ 285
gebung 285
menschliche 285
üb@@ 285
erhebliche 285
Wes@@ 285
tut 285
ling 285
bah@@ 285
folgte 285
Fach@@ 285
Prei@@ 285
Umgang 285
Justi@@ 285
gessen 284
flus@@ 284
Problems 284
gn@@ 284
Kandid@@ 284
Konkurren@@ 284
einsetzen 284
verändern 284
läss@@ 284
fern@@ 284
halb 284
chtet 284
handel 284
eist@@ 284
Ersparnisse 284
Überwachung 284
operation 284
Brüssel 284
Zahlen 284
wiesen 284
verli@@ 284
unruhi@@ 283
Ob@@ 283
reib@@ 283
Wissen@@ 283
ausgedrückt 283
aktionen 283
Kapit@@ 283
Journali@@ 283
emen 283
Son@@ 283
Gef@@ 283
ve@@ 283
gegenwärtige 283
vorüber@@ 282
sexu@@ 282
rechts@@ 282
jemand 282
aida 282
Religion 282
them@@ 282
Blick 282
lauf 282
Gaz@@ 282
samkeit 282
senkungen 282
finanziert 282
Serbi@@ 282
dnis 282
stoff 282
Gefahren 282
veau 281
wirksam 281
Beobachter 281
jährliche 281
z. 281
betrifft 281
In 281
drücken 281
entscheiden@@ 281
Super@@ 281
Einklang 281
gere@@ 281
12 281
anhaltende 281
iere 280
Voll@@ 280
ehr 280
impli@@ 280
Handeln 280
11. 280
lan 280
Dienst@@ 280
orität 280
ffenen 280
gewich@@ 280
dritte 280
Einfl@@ 280
Welth@@ 280
amp@@ 280
ti 280
verkaufen 280
Eing@@ 279
öffent@@ 279
moder@@ 279
leihen 279
expor@@ 279
konzentriert 279
letzter 279
Fol@@ 279
ffizienz 279
mäh@@ 279
veränder@@ 279
Ka@@ 279
waffen@@ 279
Erweiterung 279
dem@@ 279
sön@@ 279
probleme 279
oritäten 279
zwangs@@ 279
ligkeit 279
angem 278
geben@@ 278
kapital 278
stecken 278
zigen 278
behandelt 278
öpf@@ 278
zeuge 278
Demokraten 278
Sym@@ 278
Funktion@@ 278
wählen 278
Gebur@@ 278
Transparenz 278
offenen 278
still@@ 278
Beschränkungen 278
getroffen 278
tren@@ 278
Sh@@ 278
Schule 278
Pläne 278
Nachricht 278
N 277
Bestimmungen 277
derartiger 277
beispiel@@ 277
unmittelbar 277
Wahr@@ 277
gestütz@@ 277
Taliban 277
Dien@@ 277
zige 277
Amts@@ 277
präsent@@ 277
Prozent@@ 277
gemäß@@ 277
erneu@@ 277
mat@@ 277
Irland 277
kanern 277
refor@@ 277
akt 277
rump@@ 277
Gre@@ 277
Versch@@ 276
tin 276
künf@@ 276
Methoden 276
Stru@@ 276
beginn@@ 276
gehens@@ 276
Oktober 276
Pol@@ 276
abgesch@@ 276
bedroht 276
Wechselkurs 276
Zwischen@@ 276
genau@@ 276
ange 276
fass@@ 276
krimini@@ 276
Zeitraum 276
hingegen 276
Methode 276
behauptet 276
IC@@ 276
Angriffe 276
schutz 276
Gebieten 276
vorbei 276
trifft 276
sonst 275
stärkere 275
X@@ 275
modell 275
Argumente 275
altern@@ 275
atoren 275
Verantwor@@ 275
Vertr@@ 275
ards 275
organisation 275
Willen 275
Juden 275
Industrieländer 275
ausschließlich 275
Befürwor@@ 275
Rhetorik 275
hart 275
zahlreiche 275
geleitet 275
hänom@@ 274
dürften 274
Gold@@ 274
schwächen 274
oper@@ 274
Kritiker 274
rug 274
gruppe 274
sorgung 274
ährung 274
krisen 274
Georgien 274
besseren 274
enga@@ 274
tsin@@ 274
Lehren 274
Mand@@ 274
ks@@ 274
Jord@@ 274
gesprochen 274
Saddam 274
Fälle 273
Wirtschaf@@ 273
Kir@@ 273
stitu@@ 273
Deflation 273
ehmern 273
konserv@@ 273
Moskau 273
zte 273
Interventionen 273
konsu@@ 273
negativen 273
geprägt 273
Präsidentschaft 273
Sektoren 273
tausende 273
ca 273
Zivilgesellschaft 273
klare 273
kauf 273
Straßen 272
erinnern 272
Austra@@ 272
Kontin@@ 272
Bushs 272
Gebiet 272
gesund@@ 272
Terror 272
mobi@@ 272
Spekul@@ 272
individu@@ 272
moralische 272
Hum@@ 272
Haushal@@ 272
sätzen 272
Mah@@ 272
kamp@@ 272
kurz@@ 272
Zunahme 271
Front 271
gegrün@@ 271
Kun@@ 271
ele 271
Aussicht 271
resp@@ 271
IS 271
gesun@@ 271
ild 271
Proteste 271
traditionelle 271
Lebensmittel@@ 271
digit@@ 270
Bewe@@ 270
Ameri@@ 270
punkte 270
sinken 270
verstärk@@ 270
Moderni@@ 270
bevorzu@@ 270
lück 270
Gest@@ 270
stabili@@ 270
zuletzt 270
Arti@@ 270
wettbewerbs@@ 270
geringer 270
Gründung 270
Fl@@ 270
ine@@ 270
ass 270
schriften 270
extrem 269
offenbar 269
pan@@ 269
Franz@@ 269
religiöse 269
ritt 269
weitgehend 269
Studenten 269
industrie 269
sl@@ 269
Forderung 269
nehmer 269
Arbeit@@ 269
plat@@ 269
Zusti@@ 269
hilf@@ 269
bur@@ 269
perat@@ 269
chtung 269
syrischen 268
tal 268
Tu@@ 268
wenigen 268
reform 268
positive 268
üp@@ 268
agt 268
dio@@ 268
vereinbar@@ 268
Klein@@ 268
kum@@ 268
satz@@ 268
ings 267
block@@ 267
ed 267
Haf@@ 267
Tem@@ 267
bren@@ 267
Pen@@ 266
bewus@@ 266
orie 266
Phi@@ 266
д@@ 266
18 265
reformen 265
aktu@@ 265
tiv@@ 264
dopp@@ 264
bul@@ 264
Gewal@@ 264
kern 264
pres@@ 264
Stagnation 264
Pe@@ 264
were 263
ble@@ 263
Fra@@ 263
merk@@ 263
Ken@@ 262
US@@ 262
Eis@@ 262
dri@@ 262
spruch 262
é@@ 261
verab@@ 261
zip@@ 261
Milit@@ 261
Verpflich@@ 261
Ku@@ 261
ator 260
yn@@ 260
Tro@@ 260
Feh@@ 260
fizit 260
1999 260
mög@@ 260
Lab@@ 260
Politi@@ 260
Ret@@ 260
Verb@@ 260
progno@@ 259
stand@@ 259
Tru@@ 259
Diskus@@ 259
trans@@ 259
wal@@ 259
emis@@ 259
200 258
Milliar@@ 258
bestimm@@ 258
Power 258
Frieden@@ 258
poli@@ 257
Jo@@ 257
derar@@ 257
Plat@@ 257
ta 257
intensi@@ 257
OECD 257
AR@@ 257
thi@@ 256
minist@@ 256
April 256
kle@@ 256
dre@@ 256
kungen 255
klear@@ 255
intel@@ 255
Bedroh@@ 255
Gebi@@ 255
did@@ 255
Konjun@@ 255
Si@@ 254
winn@@ 254
zen@@ 254
kar@@ 254
rates 254
Infra@@ 253
wichtig@@ 253
4,@@ 253
Emis@@ 253
engen 253
Herr@@ 253
inge 253
chine@@ 253
lah 253
sah 252
gesam@@ 252
Est@@ 252
eins 252
the 252
Bot@@ 252
Partner@@ 252
dan@@ 252
ce 252
Merk@@ 252
demo@@ 252
Kl@@ 251
qui@@ 251
ore 251
bein@@ 251
Q@@ 251
Kenn@@ 251
1990 251
öß@@ 250
kong 250
versi@@ 250
organis@@ 250
Provin@@ 250
ia 250
bene 249
teure 249
ffek@@ 249
drin@@ 249
urop@@ 249
mals 249
Mal@@ 248
vo@@ 248
gesell@@ 248
Fak@@ 248
Altern@@ 248
� 248
Ser@@ 248
schlä@@ 248
form 248
age 248
wirtschaft@@ 248
14 247
droht 247
Milli@@ 247
anj@@ 247
á@@ 247
Singap@@ 247
Mul@@ 247
lok@@ 247
ration@@ 246
La@@ 246
eht 246
obil@@ 246
bollah 246
Hoff@@ 245
rise 245
standards 245
August 245
fron@@ 245
stands 245
atischen 245
Ministerprä@@ 245
arm@@ 245
problem 244
Mc@@ 244
Gläubi@@ 244
wu@@ 244
staun@@ 244
kat@@ 244
onom@@ 243
Fir@@ 243
1997 243
ferenz 243
Haup@@ 243
Pop@@ 243
formation 243
Fami@@ 242
Mitglied@@ 242
ast 242
и 242
Flüchtlin@@ 242
mensch@@ 242
ire 241
atori@@ 241
Ben@@ 241
ves 241
Syri@@ 241
aggres@@ 241
Krank@@ 241
ka@@ 241
equ@@ 241
struktur 241
England 241
Hil@@ 241
Gipf@@ 241
Ägyp@@ 241
Inv@@ 240
lli@@ 240
Taiwan 240
chen@@ 240
ration 240
Fran@@ 240
sach@@ 240
lk@@ 240
ump@@ 239
stör@@ 239
eigerung 239
beeinflus@@ 239
wiederhol@@ 238
gkeiten 238
Mas@@ 238
pak@@ 238
Unternehmen@@ 238
endum 238
tur 238
popul@@ 237
ächen 237
Kim 237
dex 237
go 237
ke@@ 236
Verbess@@ 236
Ita@@ 236
Gesprä@@ 236
ünf@@ 236
Präsident@@ 236
emo@@ 236
mod@@ 236
rot@@ 236
Mich@@ 235
Dra@@ 235
mani@@ 235
vention 235
san@@ 235
drän@@ 235
bst@@ 235
langfristi@@ 235
fik@@ 235
Oper@@ 234
under 234
dens 234
abri@@ 234
ст@@ 234
standard 234
welt 234
openhagen 233
DC 233
ever@@ 233
ume 233
konf@@ 233
Fun@@ 233
kos 233
une@@ 232
17 232
schnit@@ 232
Grün@@ 232
komple@@ 232
Kra@@ 232
1998 232
agement 231
Erei@@ 231
omin@@ 231
han@@ 231
weden 231
David 231
Sicher@@ 231
Inte@@ 231
Nigeria 230
ffer@@ 230
ve 230
cs 230
erklär@@ 230
abli@@ 230
muslimi@@ 230
Gi@@ 230
ests 229
Gri@@ 229
Bud@@ 229
beson@@ 229
hab@@ 228
gun@@ 228
neg@@ 228
tur@@ 228
Beh@@ 228
ermög@@ 228
Nah@@ 228
Gü@@ 228
igten 228
35 228
elt@@ 227
о 227
Fortsch@@ 227
kel@@ 227
Febru@@ 227
sichtlich 227
negative 227
Bas@@ 227
revolution@@ 227
Hit@@ 227
international 227
insen 227
automati@@ 226
spru@@ 226
2030 226
arbeit 226
Wirk@@ 226
Jahrzeh@@ 226
enge 225
bre@@ 225
blick 225
sten@@ 225
stag@@ 225
dul@@ 225
Vermö@@ 225
il 225
ausländi@@ 224
Reguli@@ 224
BR@@ 224
bot@@ 223
gelt 223
Glob@@ 223
mil@@ 223
Cameron 222
flation@@ 222
samm@@ 222
Ale@@ 222
by@@ 222
Pun@@ 222
its 222
1989 222
Abbas 221
theo@@ 221
Wi@@ 221
schied 220
Uni@@ 220
genann@@ 220
guli@@ 219
Portugal 219
region@@ 219
syri@@ 219
mal@@ 219
mach@@ 219
Refor@@ 219
spiri@@ 219
tend 219
air@@ 219
Risi@@ 218
Jahrhunder@@ 218
kämpfung 218
Sta@@ 218
ktu@@ 217
Sach@@ 217
kus 217
last 217
av@@ 217
gnisse 217
ll 217
Wettbewerbs@@ 216
16 216
General 216
pon@@ 216
agno@@ 216
amp 216
Pakist@@ 215
Zah@@ 215
Co@@ 215
treter 215
Por@@ 215
resul@@ 215
demon@@ 215
prote@@ 215
asion 214
Köni@@ 214
fürwor@@ 214
ück 214
di 214
art 214
terrori@@ 214
iti@@ 214
mus 213
13 213
Program@@ 213
wohl@@ 213
leist@@ 213
The@@ 213
Stre@@ 213
israeli@@ 213
ages 213
innov@@ 212
co@@ 212
Gra@@ 212
gehör@@ 212
fle@@ 212
solven@@ 211
Ki@@ 211
ame 211
Chi@@ 211
dustri@@ 211
ry 211
Zeit@@ 211
Rez@@ 210
Ges@@ 210
rein@@ 210
Hy@@ 210
Abe 210
é 210
kes 210
prin@@ 209
nit@@ 209
post@@ 209
Parl@@ 209
reif@@ 209
plant 209
gewicht 209
spä@@ 209
1.@@ 208
steigen@@ 208
Ahmadine@@ 207
ament 207
10@@ 207
Ba@@ 207
Donald 207
seits 207
Leu@@ 206
maßen 206
Leistungs@@ 206
ran@@ 206
ju@@ 206
Schlüs@@ 206
our 206
Projek@@ 206
uli@@ 205
ganis@@ 205
inst@@ 205
Keynes 205
Paul 205
1991 205
Gewin@@ 205
hom@@ 205
entr@@ 205
typi@@ 205
erzi@@ 205
Ac@@ 204
ami@@ 204
Lag@@ 204
FS@@ 204
prochen 204
kan 204
Resol@@ 204
senti@@ 204
ade 203
Sal@@ 203
funden 203
wan@@ 203
2016 203
milit@@ 203
muli@@ 203
Proto@@ 203
alle@@ 203
atisti@@ 203
tho@@ 202
obs 202
Erklär@@ 202
quantit@@ 202
signi@@ 202
Debat@@ 202
Vietnam 202
ausreich@@ 202
chroni@@ 202
old 202
moment@@ 202
logi@@ 201
etzt 201
pr@@ 201
Unterstütz@@ 201
sist@@ 201
Cy@@ 201
losop@@ 201
ffizi@@ 201
Street 201
zone 201
identi@@ 201
medi@@ 201
300 200
steu@@ 200
serv@@ 200
75 200
Mad@@ 200
dis 200
transpar@@ 200
Gefüh@@ 200
inie 200
multi@@ 199
rati@@ 199
wid@@ 199
Des@@ 199
ina 199
wärmung 198
quo@@ 198
az@@ 198
hel@@ 198
Wo@@ 198
strä@@ 198
Blair 198
vention@@ 198
defini@@ 198
lig@@ 198
Wol@@ 196
impor@@ 196
ign@@ 196
11 196
ars 196
Ei@@ 196
loss 196
rö@@ 196
ski 196
Ad@@ 196
Moh@@ 196
ademi@@ 196
Angri@@ 196
dank@@ 195
fft 195
ai 195
til 195
opo@@ 195
Fin@@ 194
ärm@@ 194
üro@@ 194
ams 194
17@@ 194
л@@ 194
Tur@@ 194
apaz@@ 194
eth@@ 194
materi@@ 193
uti@@ 193
Bor@@ 193
rapi@@ 193
bio@@ 193
16@@ 192
Cor@@ 192
kin@@ 192
after 191
gro@@ 191
internation@@ 191
expan@@ 191
bom@@ 191
schieden 191
Venezuela 191
extreme 191
aliforni@@ 190
ahr@@ 190
ehmen@@ 190
daten 190
rief 190
fru@@ 190
Global 190
angem@@ 190
bor@@ 190
vidu@@ 189
Verbün@@ 189
mechanis@@ 189
ay@@ 189
proble@@ 189
zer 189
Wel@@ 188
stopp@@ 188
Hä@@ 188
began@@ 188
vö@@ 188
pun@@ 187
näch@@ 187
Sau@@ 187
hen@@ 187
asser@@ 187
assen 187
gl@@ 187
analy@@ 187
Tei@@ 187
sonen 187
mier@@ 187
ept@@ 186
Med@@ 186
mobili@@ 186
J 186
th 186
tor@@ 186
My@@ 186
kani@@ 185
Institute 185
Ph@@ 185
flations@@ 185
Wall 185
Diplom@@ 185
rus 185
ol 185
nation@@ 185
Pal@@ 185
ors 184
kaner 184
Ü@@ 184
un 184
2020 184
del@@ 184
angs@@ 184
Religi@@ 184
Holl@@ 183
ara 183
behaup@@ 183
Zwei@@ 183
risk@@ 182
Naz@@ 182
Millenni@@ 182
re 182
Palästinens@@ 182
mission 182
Bevölk@@ 181
ble 181
у@@ 181
ple@@ 181
fs@@ 180
Erspar@@ 180
oms 180
puli@@ 180
stin@@ 180
aw@@ 180
ey 180
sle@@ 179
sträger 179
fundament@@ 179
exi@@ 179
betei@@ 179
е 179
bran@@ 179
frag@@ 179
Ho@@ 179
Bür@@ 179
Os 179
ministeri@@ 178
Du@@ 178
The 178
drückt 178
ney 178
eich@@ 178
Strei@@ 178
eiten 178
besondere 177
id 177
uba 177
NA@@ 177
tom@@ 177
perf@@ 177
kus@@ 177
lemma 177
avi@@ 176
systemi@@ 176
Gener@@ 176
ami 176
duk@@ 176
tschaft 176
enor@@ 176
Regierung@@ 176
schütz@@ 176
Asi@@ 176
problemati@@ 175
schränkungen 175
ateg@@ 175
tz 175
cker 175
Argum@@ 174
Angela 174
destabili@@ 174
National 174
Chávez 174
risiko 174
imp@@ 174
ministers 174
ells 174
for 173
pu@@ 173
Pre@@ 173
Minister 173
App@@ 173
fair@@ 173
ämp@@ 173
Philipp@@ 172
utzen 172
Legi@@ 172
Jun@@ 171
dürf@@ 171
Chile 171
H 171
biet@@ 171
Frie@@ 171
sourc@@ 171
relev@@ 171
Forsch@@ 171
Berlin 170
ail@@ 170
ir 170
text 170
ow 170
jek@@ 170
Schei@@ 170
chil@@ 170
therap@@ 170
timi@@ 170
tenden@@ 170
wick@@ 169
Sel@@ 169
Premier@@ 169
г@@ 169
bir@@ 169
formi@@ 169
bedingt 169
Le 169
Jer@@ 168
UN@@ 168
sili@@ 168
wachst@@ 168
Verhäl@@ 168
Govern@@ 168
Krä@@ 167
rigi@@ 167
Dru@@ 167
1980 167
Wettbewer@@ 167
atholi@@ 167
2.@@ 167
later@@ 166
sych@@ 166
stal@@ 166
Arbeitn@@ 166
ads 166
stration 166
Sun@@ 166
ade@@ 166
si 166
ASEAN 166
Behand@@ 166
Col@@ 165
mechan@@ 165
religi@@ 165
bal@@ 165
ahu 165
sweise 165
Japan@@ 165
blu@@ 165
Geschäf@@ 165
lands 165
alli@@ 165
ani 165
Robert 164
15@@ 164
ehemali@@ 164
servative 164
wis@@ 164
aro@@ 164
thodo@@ 164
fini@@ 164
pel@@ 164
llig 164
hist@@ 164
sident 164
regul@@ 163
verständlich 163
amerika 163
Medikam@@ 163
Ann@@ 163
intelli@@ 163
ders 163
Frank@@ 163
bro@@ 163
do 162
anda 162
eindeu@@ 162
wirtschaften 162
Latein@@ 162
bilanz@@ 162
24 162
ra 162
quantitative 162
Bill 162
graphi@@ 161
revolution 161
lam@@ 161
ui@@ 161
Dem@@ 161
Eini@@ 161
keiten 161
apital 160
racht 160
jem@@ 160
Bur@@ 160
ws 160
territori@@ 160
м@@ 160
Ji@@ 160
Konkur@@ 160
konzentri@@ 159
2050 159
Ausma@@ 159
Beobach@@ 159
EC 159
22 159
tent@@ 159
Sah@@ 159
situation 159
ater@@ 159
asser 159
interpre@@ 158
optimi@@ 158
Brasi@@ 158
Tim@@ 158
komm@@ 158
IP@@ 158
&#93; 158
&#91; 158
Mil@@ 158
mati@@ 158
yp@@ 157
Bern@@ 157
IS@@ 157
ution 157
line 157
allgem@@ 157
ath@@ 157
Billi@@ 156
robu@@ 156
NG@@ 156
sur@@ 156
deb@@ 156
NA 156
ash@@ 156
Gro@@ 156
siden@@ 155
uro@@ 155
Argent@@ 155
bish@@ 155
Gem@@ 155
reti@@ 155
tan@@ 155
able 154
explo@@ 154
basis 154
mes 154
blich 154
ford 154
Berlusconi 154
örderung 154
ч@@ 154
char@@ 154
21 153
Stad@@ 153
Mubarak 153
holung 153
PP 153
prof@@ 153
tika 153
з@@ 152
ub@@ 152
DP 152
Ren@@ 152
rest@@ 152
1992 152
fur@@ 152
systemati@@ 152
Beschäf@@ 152
Bemüh@@ 152
nomin@@ 152
Hu@@ 152
bewäl@@ 152
plan 151
Identi@@ 151
gener@@ 151
eingesch@@ 151
va 151
V 151
ßen@@ 151
uri@@ 151
management 151
Kyoto 151
nali@@ 151
bew@@ 150
Greensp@@ 150
chemi@@ 150
gosla@@ 150
Banglades@@ 150
del 150
pragmati@@ 150
ventionen 150
Ergeb@@ 150
moni@@ 150
bis@@ 150
.. 150
j 150
Republi@@ 150
45 150
multin@@ 149
1994 149
franzö@@ 149
tot@@ 149
Kö@@ 149
Korea 149
Innov@@ 149
bes 149
run@@ 149
bemer@@ 148
wa 148
fo@@ 148
gh 148
Del@@ 148
verring@@ 148
fair 148
etri@@ 148
enh@@ 148
ordin@@ 147
amin 147
yne@@ 147
aff@@ 147
Vö@@ 147
ji@@ 147
schri@@ 147
sin 147
entwick@@ 147
transatlanti@@ 147
Exper@@ 146
Antwor@@ 146
mus@@ 146
paganda 146
Partn@@ 145
Hung@@ 145
Bosni@@ 145
Ebola 145
Joh@@ 145
volution@@ 145
Milosevi@@ 145
öhne 145
gas 145
ue 145
rat@@ 145
hu@@ 144
Thailand 144
ständen 144
Shar@@ 144
Musharraf 144
Chira@@ 144
essi@@ 144
27 144
Syst@@ 144
phi@@ 144
entlich 143
arm 143
immen@@ 143
tigungs@@ 143
Ste@@ 143
shi@@ 143
quo 143
Wir@@ 143
Fatah 143
swerte 143
wickl@@ 142
That@@ 142
Pau@@ 142
Sudan 142
gg@@ 142
enter@@ 142
gin@@ 142
Tats@@ 142
fund 142
verfü@@ 142
Goog@@ 141
Princeton 141
201@@ 141
gesellschaft 141
Sad@@ 141
Z 141
ы@@ 140
1995 140
65 140
sport 140
ca@@ 140
Ang@@ 139
Malaysia 139
getragen 139
University 139
prim@@ 139
enst@@ 138
interven@@ 138
Jean 138
relevant 138
ES@@ 138
diagno@@ 138
exp@@ 138
lus@@ 138
Thak@@ 137
tan 137
skepti@@ 137
Flü@@ 137
fir@@ 137
Ra@@ 137
Bre@@ 137
HA@@ 137
Ah@@ 137
Mosk@@ 137
exist@@ 137
Minist@@ 137
Größ@@ 137
Reagan 137
Kommun@@ 136
Forum 136
ala 136
Hillary 136
anta@@ 136
aben 136
thei@@ 136
Party 136
Com@@ 136
19 136
migr@@ 136
Nicol@@ 136
onds 136
Mexi@@ 135
let@@ 135
Sowjet@@ 135
FT@@ 135
sourcen 135
real 135
König@@ 135
Dec@@ 135
quali@@ 134
ruppen 134
CI@@ 134
phy@@ 134
Konz@@ 134
omi@@ 134
global 134
я 134
ki 133
bet 133
streng@@ 133
dur@@ 133
Zivil@@ 133
abhängi@@ 133
not@@ 133
zierung 133
Europ@@ 133
Tür@@ 133
are@@ 133
shment 133
bens@@ 132
Eng@@ 132
tran@@ 132
0 132
facto 132
läs@@ 132
Hollande 132
besti@@ 132
ен@@ 132
imperi@@ 132
Verbin@@ 131
28 131
Xi 131
AI@@ 131
gangen@@ 131
appar@@ 131
Th@@ 131
ring@@ 131
ony 131
dien 131
hi 131
ref@@ 130
cau@@ 130
б@@ 130
WTO 130
onal@@ 130
Musli@@ 130
enei 130
ev@@ 130
niem@@ 130
exper@@ 130
Technologi@@ 129
ergi@@ 129
ado@@ 129
symboli@@ 129
xon 128
International 128
hö@@ 128
anni@@ 128
low@@ 128
Währ@@ 128
alternative 128
foli@@ 128
Erwar@@ 128
Hussein 128
Tre@@ 128
addafi 128
andel 127
od 127
Atlanti@@ 127
traum 126
stor@@ 126
zz@@ 126
tik 126
atast@@ 126
pul@@ 126
rem 126
ain 126
arr@@ 126
lob@@ 125
Nahr@@ 125
stärkt 125
ill@@ 125
ellen@@ 125
Erdoğan 125
minim@@ 125
Put@@ 124
ail 124
ruppe 124
ak 124
olle 124
fat 124
sequ@@ 124
etz 124
Mao 123
position 123
plau@@ 123
23 123
hang 123
agne 123
enzi@@ 123
fig@@ 123
Myanmar 123
esp@@ 122
ss 122
innovative 122
а 122
ese 122
deta@@ 122
Opf@@ 122
vergangen@@ 122
rek@@ 122
Wissenschaft@@ 122
bun@@ 121
jap@@ 121
änder 121
dy 121
view 121
entral@@ 121
diversi@@ 120
zwi@@ 120
provo@@ 120
Behör@@ 120
ession@@ 120
ri 119
ate@@ 119
radi@@ 119
äi@@ 119
wn 119
bat@@ 119
cy 119
Wert@@ 118
alo@@ 118
wirkungen 118
car@@ 118
dung@@ 118
ral 118
stem 118
Rent@@ 118
Organis@@ 118
felt 118
ps 118
mess@@ 118
tar@@ 118
ihr@@ 117
test 117
Vertei@@ 117
Clin@@ 117
Spr@@ 117
verän@@ 117
ffs 117
sag@@ 116
bab@@ 116
Chur@@ 116
ack 116
ot 116
prot@@ 116
rid 116
breitung 116
anze 115
univers@@ 115
Cent@@ 115
tem@@ 115
profession@@ 115
pass@@ 115
Olympi@@ 115
nie@@ 115
ь@@ 114
mut 114
ose 114
läubi@@ 114
ama 114
anleihen 114
vir@@ 114
II 114
ating 113
Komm@@ 113
ther@@ 113
Bli@@ 113
toler@@ 113
Lon@@ 113
Verlu@@ 113
ball 113
briti@@ 113
atlanti@@ 113
reichs 112
we 112
schlim@@ 112
orit@@ 112
resist@@ 112
Kop@@ 112
Europä@@ 112
City 112
tet@@ 112
Entwickl@@ 111
urs 111
ys@@ 111
ods 111
boom 111
bol@@ 110
Liby@@ 110
fami@@ 110
achst@@ 110
wandel 110
thers 110
gmati@@ 110
promin@@ 110
q@@ 110
sou@@ 110
tional 110
acqu@@ 110
bedeu@@ 109
cks@@ 109
lers 109
kei@@ 109
geprä@@ 109
dic@@ 109
ya 109
200@@ 109
progres@@ 108
simi@@ 108
aria 108
tex@@ 108
get 107
enab@@ 107
ay 107
ham@@ 107
fragi@@ 107
Unabhängi@@ 107
Überwach@@ 107
ement 107
physi@@ 106
gleichzei@@ 106
gre@@ 106
ehem@@ 106
Brü@@ 106
Cha@@ 106
Jour@@ 105
fil@@ 105
CE@@ 105
asy@@ 105
sph@@ 105
ücksich@@ 105
flo@@ 105
ands 105
ç@@ 105
Burma 105
Development 105
aps 104
zini@@ 104
don@@ 104
überwie@@ 104
ambi@@ 104
atri@@ 104
zeh@@ 104
ga 104
й 104
asi 104
gor@@ 104
ini 103
cro@@ 103
prime 103
vitäten 103
uan 103
syn@@ 103
ends 103
zel@@ 102
fang 102
Sin@@ 102
mali@@ 102
Schu@@ 102
relative 102
Bra@@ 102
entwickl@@ 102
inet@@ 102
unilater@@ 102
initi@@ 102
nat@@ 102
cha@@ 102
ept 101
big 101
sh 101
eim@@ 101
м 101
Verfü@@ 101
renn@@ 101
inta@@ 101
co 101
verse 101
arti@@ 100
Besti@@ 100
я@@ 100
Sarkoz@@ 100
K 100
atten@@ 100
lief 100
Fe@@ 100
ino@@ 100
blin@@ 100
Nu@@ 100
ames 99
perman@@ 99
parado@@ 99
World 99
moderni@@ 99
avo@@ 99
в 99
zip 99
rän@@ 99
Sow@@ 99
repres@@ 99
onald 99
Econ@@ 98
Proble@@ 98
Georgi@@ 98
arabi@@ 98
pla@@ 98
Tai@@ 97
propor@@ 97
then 97
half 97
gewöh@@ 97
dan 97
aches 97
yi@@ 97
eld 97
Afghani@@ 97
aly@@ 97
ro 97
Kli@@ 97
Rus@@ 97
IP 97
digungs@@ 96
amen 96
auto@@ 96
ly 96
met 96
volution 96
mmungen 96
Nigeri@@ 96
bevölk@@ 96
ails 95
ago 95
aggressive 95
ре@@ 95
Anhän@@ 95
Krem@@ 95
ous@@ 95
modi@@ 95
Gele@@ 95
imm@@ 95
letzt 94
la 94
alist 94
spi@@ 94
essor 94
time 94
ж@@ 94
Sei@@ 94
agenda 94
margin@@ 94
ó@@ 94
niti@@ 93
rop@@ 93
tol@@ 93
anktionen 93
vili@@ 93
dd@@ 93
abil@@ 93
mittler@@ 92
xim@@ 92
ula 92
wit@@ 92
lkamp@@ 92
Go@@ 92
regime 92
che@@ 92
Def@@ 91
Pati@@ 91
ander 91
gelö@@ 91
ond 91
had 91
out 91
Tha@@ 91
kam@@ 91
ness 91
up 91
dam 91
sts 91
met@@ 91
ana 90
− 90
if 90
patri@@ 90
anti 90
epti@@ 90
eme 90
aller@@ 89
rational 89
Financial 89
DS 89
ones 89
vari@@ 89
phen@@ 89
status 89
х 89
ines 89
spit@@ 88
Yu@@ 88
ther 88
amerikani@@ 88
Prin@@ 88
oud 87
fers 87
Engli@@ 87
demographi@@ 87
entfern@@ 87
plus 87
Jahr@@ 87
Hus@@ 87
W 87
kultu@@ 87
EA@@ 87
eh 87
migration 87
ni 86
manipul@@ 86
edi@@ 86
religiö@@ 86
rupt 86
gan 85
die@@ 85
jun@@ 85
ker@@ 85
Demo@@ 85
Arme@@ 85
Moder@@ 85
Län@@ 85
Bem@@ 85
lic@@ 84
absolute 84
schefs 84
Gesell@@ 84
Enga@@ 84
extremi@@ 84
sensi@@ 84
mans 84
Angel@@ 83
wirtschaf@@ 83
erb@@ 83
Stär@@ 83
manch@@ 83
tw@@ 83
separ@@ 83
jähr@@ 83
Ke@@ 83
Shi@@ 83
Rec@@ 82
steig@@ 82
Entscheidung@@ 82
differ@@ 82
vil@@ 81
by 81
Beding@@ 81
verhin@@ 81
lie 81
tech@@ 81
que 81
sla@@ 81
jet@@ 81
stro@@ 80
Yor@@ 80
AS@@ 80
sky 80
event@@ 80
rou@@ 80
richt 80
instru@@ 80
Verfass@@ 80
stream 80
tives 80
он@@ 80
than 79
ь 79
ktur@@ 79
loy@@ 79
hat@@ 79
see 79
ty 79
Janu@@ 78
Af@@ 78
soft 78
tom 78
ence 78
wei 78
privati@@ 78
American 78
Drit@@ 78
emi@@ 78
iland 78
bring@@ 78
ktat@@ 77
sal@@ 77
inten@@ 77
Schwieri@@ 77
Y 77
för@@ 76
barri@@ 76
essive 76
experi@@ 76
usi@@ 76
atives 76
pal@@ 76
--@@ 76
ress 76
eli@@ 76
gner 76
QE 75
intensive 75
bak@@ 75
ling@@ 75
Gesund@@ 75
evi@@ 75
tac@@ 75
volati@@ 75
wieri@@ 74
ер@@ 74
ata 74
sama 74
domin@@ 74
reser@@ 73
od@@ 73
ел@@ 73
schleuni@@ 73
sc@@ 72
27@@ 72
ow@@ 72
hor@@ 72
L 72
philosop@@ 72
leger 72
ächlich 72
person@@ 72
lied 71
zeichen 71
Mom@@ 71
era 71
sil@@ 71
1970 71
cal 70
ity 70
ritte 70
Sor@@ 70
Agen@@ 70
ech 70
illegal 70
graben 70
cu@@ 70
gets 70
Stat@@ 70
pe 70
Hypo@@ 70
Kore@@ 69
back 69
+ 68
zugr@@ 68
denti@@ 68
stär@@ 68
arch 68
Cri@@ 68
ц@@ 68
€ 68
Ol@@ 68
pat@@ 68
likt 68
zwungen 68
vez 68
ep 68
apit@@ 68
set@@ 68
läne 68
plu@@ 67
Jan@@ 67
beha@@ 67
ruhi@@ 67
promis@@ 67
í@@ 67
Chin@@ 67
т 67
tra 67
asses 67
Solidar@@ 67
inte@@ 66
simp@@ 66
umul@@ 66
region 66
ul 66
han 66
val@@ 66
not 66
pression 65
selb@@ 65
äd@@ 65
Mubar@@ 65
ward 64
situ@@ 64
utive 64
wind 64
addaf@@ 64
thro@@ 64
SD@@ 64
ty@@ 64
Lös@@ 64
Chanc@@ 64
thek@@ 64
ultim@@ 64
wich@@ 64
ständnis 64
bas@@ 64
Kriti@@ 63
cir@@ 63
ems 63
mot@@ 63
ärkte 63
vit@@ 63
revi@@ 63
Terr@@ 63
rest 63
anzö@@ 63
ret 63
win 62
fit 62
bai@@ 62
sensus 62
bert 62
CO@@ 62
Bang@@ 62
eil 62
tage 62
West 62
ол@@ 62
valent 61
ш@@ 61
ces 61
geg@@ 61
depen@@ 61
administ@@ 61
ding 61
derungen 61
eicht 61
° 61
ан@@ 61
sup@@ 61
online 60
ат@@ 60
normal 60
ante@@ 60
slow@@ 60
Konsequ@@ 60
keit 60
Ord@@ 60
Wechsel@@ 60
vel@@ 60
efs 60
done@@ 59
poten@@ 59
bonds 59
hard 59
Copenhagen 59
book 59
ding@@ 59
inf@@ 59
typ@@ 59
bia 59
Progra@@ 59
ffer 59
lätz@@ 58
э@@ 58
pag@@ 58
cre@@ 58
ю@@ 58
dap@@ 58
ye@@ 58
Viet@@ 58
smo@@ 58
Sing@@ 58
Bla@@ 58
sign@@ 58
zentri@@ 57
ausforder@@ 57
sour@@ 57
ations 57
seri@@ 57
kers 57
part 57
ania 57
pes@@ 57
tat@@ 57
zipien 57
tempor@@ 57
zusam@@ 57
sens 57
Economic 57
these 57
Mär@@ 56
Zwi@@ 56
Je@@ 56
ory 56
ua 56
quar@@ 56
cc@@ 56
Berluscon@@ 56
out@@ 56
bark@@ 55
bi 55
ал@@ 55
pli@@ 55
thy 55
my@@ 55
Bedeut@@ 55
but 55
cing 55
Finan@@ 55
sni@@ 55
folge@@ 55
Sec@@ 54
version 54
ators 54
dest@@ 54
pflich@@ 54
flation 54
atin 54
eting 54
 54
Ant@@ 54
Erdoğ@@ 54
autonom@@ 54
wait 53
überwin@@ 53
opposi@@ 53
normal@@ 53
inflation 53
yer 53
sible 53
Camer@@ 53
lebi@@ 53
Ukra@@ 53
abe 53
off 53
tain@@ 52
ong@@ 52
iness 52
ahme 52
soci@@ 52
та@@ 52
sym@@ 52
autom@@ 52
щ@@ 52
höhung 52
ärkten 52
Dur@@ 52
sels 52
Indone@@ 52
ants 52
sigkeit 52
budget 52
ew 51
Them@@ 51
atastrophe 51
Minister@@ 51
ear@@ 51
America 51
milli@@ 51
у 51
Verbrau@@ 51
tests 51
lipp@@ 51
Wech@@ 51
è@@ 51
transfers 50
ek 50
harm@@ 50
simple 50
moral 50
pra@@ 50
Millen@@ 50
mmen 50
terr@@ 50
budgets 50
Strategi@@ 50
ath 50
tions 50
ners 50
ethi@@ 50
ú@@ 49
eff@@ 49
älfte 49
deri@@ 49
Gs 49
national 49
how 49
alition 49
Trade 49
som@@ 49
ering 49
klang 48
absor@@ 48
Potenzi@@ 48
ession 48
fel 48
row 48
ena 48
vitäts@@ 47
Schicks@@ 47
Erdo@@ 47
well 47
him 47
ń@@ 47
ernsth@@ 47
Spann@@ 47
ffi@@ 47
ero@@ 47
ympi@@ 47
haupt 47
aut@@ 47
Gul@@ 47
rich 47
nahe@@ 47
cho@@ 47
à 47
Comm@@ 46
Betei@@ 46
gestie@@ 46
ñ@@ 46
bers 46
statisti@@ 46
ме@@ 46
gin 46
dür@@ 46
material 46
ils 46
cial 46
Musharra@@ 46
ы 46
alis@@ 46
lüs@@ 46
belief 45
bat 45
formal 45
epide@@ 45
riti@@ 45
utz 45
stan 45
jo@@ 45
EC@@ 45
now 45
Pot@@ 45
ary 45
auth@@ 45
Council 44
3.@@ 44
sent@@ 44
human@@ 44
gration 44
sent 44
ee@@ 44
ject 44
moderate 44
start 44
Qaeda 44
Abhängi@@ 44
denten 44
Washing@@ 44
fem@@ 44
weiterung 44
universi@@ 44
rec@@ 43
ault 43
relati@@ 43
extrem@@ 43
alth 43
inist@@ 43
inc@@ 43
publi@@ 43
Security 43
ght 43
no 43
ene@@ 43
vo 43
mar 43
aci@@ 43
rative 43
invol@@ 43
spap@@ 42
vers 42
wettbewer@@ 42
vision 42
liberal 42
favor@@ 42
source 42
beit 42
wat@@ 42
generation 42
ih@@ 42
Economi@@ 41
Klu@@ 41
sters 41
IMF 41
isla@@ 41
ffent@@ 41
limate 41
ю 41
post 41
such 41
Venezuel@@ 41
ladi@@ 41
Fund 41
ace 41
int 41
Commission 40
ärk@@ 40
Can@@ 40
q 40
lec@@ 40
spre@@ 40
integr@@ 40
sident@@ 40
twen@@ 40
gegenwär@@ 40
Herausforder@@ 40
ас@@ 40
Turk@@ 40
‑ 40
group 39
abor@@ 39
Sou@@ 39
provin@@ 39
Muslim 39
völk@@ 39
gress 39
ban 39
uns@@ 39
cla@@ 39
set 39
Malay@@ 39
problems 39
Mög@@ 39
fis@@ 38
tschaf@@ 38
Kul@@ 38
Souverän@@ 38
Committee 38
dent 38
space 38
illu@@ 38
still 38
pati@@ 38
Fat@@ 38
inv@@ 37
figu@@ 37
lia 37
Transpar@@ 37
dings 37
ар@@ 37
ols 37
bles 37
views 37
ld@@ 37
rhetori@@ 37
yo@@ 36
WF 36
sell 36
partner 36
itäten 36
Afgh@@ 36
usam@@ 36
ć 36
lea@@ 36
can@@ 36
gul@@ 36
lemm@@ 35
4.@@ 35
ports 35
ots 35
ehi@@ 35
trotz@@ 35
Koso@@ 35
Isla@@ 35
Lock@@ 35
boli@@ 35
Notwen@@ 35
ce@@ 35
aya 35
my 35
legal 35
Fäl@@ 34
К@@ 34
het@@ 34
angel 34
bon@@ 34
ening 34
argument 34
pack@@ 34
undes@@ 34
sibi@@ 34
selbe 34
aid 34
Ok@@ 34
nation 34
unds 34
IV 33
gence 33
Mitglie@@ 33
aga@@ 33
pos@@ 33
down 33
vin@@ 33
dal@@ 33
cking 33
ning 33
invest@@ 33
front 33
United 33
quanti@@ 33
num@@ 33
Immobili@@ 33
ahe 33
X 33
ting@@ 32
diver@@ 32
our@@ 32
Cam@@ 32
kin 32
lab@@ 32
sign 32
France 32
med 32
duc@@ 32
ã@@ 32
legisl@@ 32
over@@ 32
eils 32
weni@@ 32
sever@@ 31
ting 31
abo@@ 31
wan 31
konfron@@ 31
sus 31
prob@@ 31
sem@@ 31
manu@@ 31
vice 31
• 31
parti@@ 31
justi@@ 31
provi@@ 31
got@@ 31
non@@ 31
ship 31
Tag@@ 31
extra@@ 30
Nov@@ 30
right 30
0.@@ 30
tures 30
ining 30
use 30
struktu@@ 30
May 30
pap@@ 30
merz@@ 30
off@@ 30
any 30
reli@@ 30
boo@@ 30
krä@@ 30
modern 29
work 29
compu@@ 29
openha@@ 29
mili@@ 29
Zun@@ 29
Migr@@ 29
UK 29
liquidi@@ 29
Ökonom@@ 29
Lat@@ 29
stak@@ 29
kil@@ 29
any@@ 29
mität 29
cra@@ 29
Wahrschein@@ 29
OR@@ 29
urities 29
ability 28
kes@@ 28
х@@ 28
syst@@ 28
ghts 28
new 28
Great 28
ähri@@ 28
tari@@ 28
dge 28
cle@@ 28
institu@@ 28
oft@@ 28
regimes 28
ž@@ 28
mem@@ 28
cot@@ 28
edri@@ 28
low 28
Europäi@@ 27
own 27
ving 27
via 27
ф@@ 27
ential 27
amas 27
Öffent@@ 27
Green@@ 27
gemä@@ 27
xit 27
Christi@@ 27
strengungen 27
intervention 27
personal 27
divi@@ 27
Brüs@@ 27
team 27
House 27
ap 27
Briti@@ 27
con@@ 27
tell 26
ases 26
bon 26
º@@ 26
dom 26
deflation 26
lose@@ 26
mand@@ 26
permanent 26
regional 26
roni@@ 26
indu@@ 26
Regier@@ 26
Vladimir 26
Stag@@ 26
Myan@@ 26
this 26
_ 26
dou@@ 25
tum@@ 25
Legiti@@ 25
к 25
desi@@ 25
tg@@ 25
terror@@ 25
thin@@ 25
outs 25
help@@ 25
change 25
ess 25
Vene@@ 25
air 25
ima@@ 25
haupts@@ 25
prosp@@ 25
º 25
fund@@ 25
Jap@@ 25
Coun@@ 24
king 24
just 24
vis@@ 24
sional 24
jobs 24
Terrori@@ 24
spo@@ 24
expansion 24
ople 24
ok 24
mental 24
lev@@ 24
bad 24
over 24
affen 24
das@@ 23
liter@@ 23
defen@@ 23
partner@@ 23
Africa 23
dialo@@ 23
funding 23
Gerech@@ 23
opport@@ 23
British 23
oblig@@ 23
haup@@ 23
utan 23
ety 23
С@@ 23
Flücht@@ 23
European 23
limi@@ 23
integration 23
sing@@ 23
formance 23
States 22
­ 22
usual 22
option 22
East 22
ague 22
infra@@ 22
oz@@ 22
def@@ 22
vul@@ 22
lar 22
rea 22
ority 21
red 21
ally 21
ake 21
agan 21
hon@@ 21
emy 21
uli 21
lian 21
oun@@ 21
Produkti@@ 21
dari 21
sichts 21
ł@@ 21
sth@@ 21
eign 21
Q 21
TO 21
elit@@ 21
Konf@@ 21
servi@@ 21
aig@@ 20
sav@@ 20
ай@@ 20
unity 20
Entschei@@ 20
let 20
ädchen 20
wandels 20
Erfahr@@ 20
sho@@ 20
cor@@ 20
sions 20
fac@@ 20
bas 20
\ 20
don 20
enorm@@ 20
bwür@@ 19
shor@@ 19
stage 19
Beijing 19
col@@ 19
nar@@ 19
ths 19
journali@@ 19
ples 19
cer@@ 19
aup@@ 19
shing 19
nology 19
agen@@ 19
fig 19
hum@@ 19
gran@@ 19
cr@@ 19
Atl@@ 19
É@@ 19
thern 19
va@@ 19
sistance 19
ular 18
origin@@ 18
val 18
strate@@ 18
isol@@ 18
banon 18
dine@@ 18
referendum 18
plans 18
business 18
adap@@ 18
yang 18
aim@@ 18
ming 18
dependence 18
Anerken@@ 18
Portu@@ 18
Ü 18
Rah@@ 18
ader 18
nam 18
State 18
Asia 18
clear 18
initiative 18
IM@@ 18
law 18
his 17
Europe 17
export 17
euro 17
ops 17
nec@@ 17
ror 17
put 17
Я@@ 17
ô@@ 17
Ahma@@ 17
ßnahmen 17
ences 17
Griechen@@ 17
ense 17
bud@@ 17
mul@@ 17
Industriel@@ 17
usammen@@ 17
ui 17
behör@@ 17
ency 17
play 17
tou@@ 17
mark 17
pens@@ 17
kita 17
say 16
poll@@ 16
power 16
strong 16
weitung 16
Augu@@ 16
stock 16
non 16
banking 16
look 16
zens 16
Soli@@ 16
valu@@ 16
Fis@@ 16
lier 16
itable 16
lot 16
ush@@ 16
ynami@@ 16
anks 16
Initi@@ 16
с 16
ş@@ 16
ita 16
more 16
Kombin@@ 15
Middle 15
gun 15
annu@@ 15
Was@@ 15
saf@@ 15
viron@@ 15
ähi@@ 15
quidi@@ 15
super@@ 15
too 15
dom@@ 15
Veränder@@ 15
lain 15
dep@@ 15
ups 15
South 15
dollars 15
strie@@ 15
stimul@@ 15
sus@@ 15
person 15
ledig@@ 15
sex@@ 15
utions 15
Treasury 15
African 15
com@@ 15
that 15
ual 15
soll@@ 14
й@@ 14
jour@@ 14
ple 14
nee@@ 14
chan@@ 14
ures 14
day 14
tradi@@ 14
wh@@ 14
ruption 14
könn@@ 14
gy 14
peace 14
lac@@ 14
cle 14
yle 14
ction 14
Städ@@ 14
Verring@@ 14
zation 14
rep@@ 14
uro 14
kem@@ 14
inst 14
dollar 13
desig@@ 13
deter@@ 13
respon@@ 13
ice 13
ior 13
hät@@ 13
times 13
cat@@ 13
Dynami@@ 13
auß@@ 13
multi 13
read@@ 13
resol@@ 13
cul@@ 13
neighb@@ 13
kind 13
ded 13
squ@@ 13
nov@@ 13
üng@@ 13
Aufmerk@@ 13
can 13
asing 13
ous 13
ury 13
Leist@@ 13
ories 13
anders@@ 13
cut 13
Redu@@ 13
atan 13
Mech@@ 13
acks 13
ality 13
insu@@ 13
ection 13
tribu@@ 13
ym@@ 13
bit 13
addi@@ 13
lines 12
Â 12
Á@@ 12
vermut@@ 12
lity 12
cti@@ 12
outh 12
alization 12
ances 12
fail 12
coun@@ 12
potential 12
North 12
dence 12
н 12
sition 12
imple@@ 12
Unterschie@@ 12
weile 12
Monetary 12
mur@@ 12
tics 12
ignor@@ 12
wealth 12
dow@@ 12
solidar@@ 12
adi 12
gement 12
supp@@ 12
week 12
dable 12
water 12
gradu@@ 12
first 12
unist 12
visi@@ 12
eci@@ 12
ligi@@ 12
bus@@ 12
ough 12
ying 11
ues 11
Glaubwür@@ 11
building 11
Ч@@ 11
aki@@ 11
ategi@@ 11
ask 11
deli@@ 11
police 11
progra@@ 11
equi@@ 11
uk 11
top 11
verage 11
Arbeitsp@@ 11
zations 11
from 11
ct@@ 11
way 11
Л@@ 11
л 11
Geor@@ 11
India 11
eing 11
ect 11
sing 11
kno@@ 11
gue 11
batt@@ 11
exten@@ 11
cl@@ 11
dren 11
ć@@ 11
cas@@ 11
wards 11
damp@@ 11
fare 11
Mexico 11
vie@@ 11
kat 11
ies 11
job 11
city 10
¥ 10
鋘@@ 10
life 10
ated 10
acked 10
cal@@ 10
vot@@ 10
unt@@ 10
hap@@ 10
ture 10
mom@@ 10
gno@@ 10
ith 10
eler@@ 10
labor 10
chang@@ 10
eign@@ 10
Central 10
very 10
з 10
dest 10
Davi@@ 10
power@@ 10
op 10
willing@@ 10
German 10
innovation 10
Gren@@ 10
Д@@ 10
● 10
law@@ 10
shar@@ 10
show 10
bang 10
elite 10
ways 10
alized 10
Lib@@ 10
ted 10
Bezieh@@ 10
Vergangen@@ 10
other@@ 9
trade 9
general 9
² 9
Sark@@ 9
д 9
bilateral 9
ZB 9
oc@@ 9
state 9
sid@@ 9
á 9
unic@@ 9
exchange 9
coura@@ 9
ae@@ 9
А@@ 9
Org@@ 9
fundamental 9
name 9
value 9
Metho@@ 9
Т@@ 9
come 9
high 9
structure 9
leader 9
Tali@@ 9
riech@@ 9
with 9
нд@@ 9
,000 9
М@@ 9
Bangla@@ 9
Hong 9
balance 9
Court 9
ise 9
tic 9
information 9
story 9
acro@@ 8
camp@@ 8
ties 8
insi@@ 8
Wis@@ 8
Chinese 8
exc@@ 8
finan@@ 8
cent@@ 8
kep@@ 8
pur@@ 8
ian 8
hing@@ 8
bang@@ 8
govern@@ 8
hetorik 8
partn@@ 8
aged 8
minde@@ 8
struction 8
tent 8
green 8
eli 8
live 8
motiv@@ 8
ements 8
Bush@@ 8
ush 8
Г@@ 8
hängi@@ 8
through 8
nut@@ 8
you 8
rever@@ 8
Russ@@ 8
š@@ 8
gum@@ 8
wle@@ 8
she 8
wers 8
thus 8
anced 8
quick@@ 8
ural 8
atory 8
thing 8
ï@@ 8
actions 8
substanti@@ 8
ê@@ 8
least 8
р 8
your 8
devi@@ 8
= 8
transfer 8
cy@@ 7
economi@@ 7
argum@@ 7
temp@@ 7
vels 7
П@@ 7
@ 7
tee 7
exit 7
asp@@ 7
astern 7
0,000 7
£ 7
ational 7
disp@@ 7
fic@@ 7
offi@@ 7
cultural 7
maj@@ 7
cracy 7
wing 7
gain 7
schlie@@ 7
adop@@ 7
ism 7
Sept@@ 7
thir@@ 7
lack 7
˚ 7
news 7
Indian 7
ouse 7
Democratic 7
table 7
she@@ 7
has 7
cuts 7
ology 7
cies 7
鋜@@ 7
brit@@ 7
total 7
ill 7
pread 7
economy 7
Organization 7
eking 7
tual 7
ful 7
鋓@@ 7
Western 7
ыл@@ 7
Е@@ 7
senschaft@@ 7
have 7
dist@@ 7
exports 7
hur@@ 7
tle 7
press 7
bag@@ 7
Dez@@ 7
add@@ 7
laun@@ 7
ic 7
uture 6
service 6
Deutsch@@ 6
usti@@ 6
economic 6
diplom@@ 6
side 6
forman@@ 6
Stärk@@ 6
liferation 6
trends 6
rement 6
Georgia 6
sia 6
ğ@@ 6
sibility 6
sad 6
uses 6
Oc@@ 6
sang@@ 6
cans 6
Indu@@ 6
Eig@@ 6
light 6
mid 6
atl@@ 6
field 6
elec@@ 6
Mushar@@ 6
Gegent@@ 6
rupp@@ 6
asion@@ 6
held 6
₂ 6
arrangements 6
ö 6
made 6
school 6
hop@@ 6
Asian 6
ground 6
stic 6
limits 6
consi@@ 6
Arab 6
led 6
isra@@ 6
cap@@ 6
long@@ 6
bub@@ 6
wledge 6
human 6
rene@@ 6
frequ@@ 6
shows 6
š 6
kei 6
lies 6
alien@@ 6
Congress 5
force 5
ried 5
elds 5
黚@@ 5
titu@@ 5
Nations 5
commun@@ 5
 5
stry 5
bond 5
order 5
would 5
act 5
genu@@ 5
road 5
solution 5
positions 5
yers 5
gap 5
И 5
which 5
gate 5
long 5
try 5
lear@@ 5
spe@@ 5
* 5
sha@@ 5
should 5
spec@@ 5
fic 5
elleicht 5
changes 5
him@@ 5
good 5
xed 5
oring 5
signs 5
ish 5
there 5
tability 5
step@@ 5
eption 5
appreci@@ 5
Iraq 5
make 5
sud@@ 5
religion 5
missi@@ 5
Princ@@ 5
autor@@ 5
science 5
tries 5
Kong 5
Kingdom 5
offer 5
they 5
ending 5
engine@@ 5
population 5
arly 5
some 5
lost 5
multilateral 5
universal 5
requ@@ 5
buil@@ 5
ever 5
jects 5
institution 5
oil 5
Arbeitslo@@ 5
vement 5
č@@ 5
pay 4
Fren@@ 4
open 4
into 4
know 4
sco@@ 4
party 4
sharing 4
based 4
gency 4
Ö 4
been 4
ø@@ 4
lling 4
bing 4
raising 4
ä 4
ships 4
explan@@ 4
hold 4
eth 4
dership 4
Н@@ 4
affen@@ 4
like 4
黨@@ 4
did 4
ned 4
Germany 4
investment 4
stimulus 4
core 4
acy 4
wide 4
court 4
billion 4
may 4
yes 4
ын@@ 4
aan 4
Nobel 4
akan 4
Australia 4
ε@@ 4
xt 4
遝@@ 4
tial 4
tment 4
鋝@@ 4
new@@ 4
tats@@ 4
ан 4
aging 4
ötz@@ 4
è 4
self 4
mise 4
clo@@ 4
Isra@@ 4
trou@@ 4
trust 4
rema@@ 4
against 4
agri@@ 4
ц 4
bound 4
market 4
鋍@@ 4
arian 4
eed 4
rais@@ 4
lead 4
bac@@ 4
deal 4
sist 4
ween 4
Cour@@ 4
Russia 4
import@@ 4
exac@@ 4
uries 4
î@@ 4
sight 4
deral 4
serve 4
food 4
viol@@ 4
cles 4
years 4
nationalist 4
appe@@ 4
jing 4
ś@@ 4
gal 4
Israeli 4
people 4
area 4
promo@@ 4
resolution 4
В@@ 4
imag@@ 4
subst@@ 4
ected 4
ference 4
trac@@ 3
öri@@ 3
fici@@ 3
seem@@ 3
turing 3
Ш@@ 3
regulatory 3
monetary 3
sting 3
diffi@@ 3
Muslims 3
much 3
signed 3
while 3
dec@@ 3
ques@@ 3
million 3
former 3
zumin@@ 3
dependent 3
defense 3
conven@@ 3
iting 3
alism 3
cally 3
board 3
anding 3
foreign 3
who 3
senior 3
about 3
Н 3
governance 3
immigration 3
uation 3
dah 3
wars 3
main@@ 3
Schaff@@ 3
sed 3
currency 3
growth 3
may@@ 3
other 3
gi 3
Treas@@ 3
head@@ 3
ared 3
Х@@ 3
sian 3
hood 3
calcul@@ 3
ü 3
Р@@ 3
hund@@ 3
orities 3
eas@@ 3
cli@@ 3
model 3
groups 3
President 3
products 3
bubble 3
鋒@@ 3
major 3
黵 3
past 3
run 3
britanni@@ 3
War 3
certain 3
hal 3
goal 3
tiveness 3
ould 3
ring 3
bankers 3
effect 3
urity 3
黵@@ 3
bring 3
each 3
agre@@ 3
sector 3
fire 3
condi@@ 3
müs@@ 3
soon 3
upon 3
center 3
distri@@ 3
gui@@ 3
Shia 3
culture 3
stead 3
quality 3
ō@@ 3
erhalb 3
voc@@ 3
Fähi@@ 3
terror 3
care@@ 3
鰊@@ 3
pover@@ 3
О@@ 3
domesti@@ 3
ahe@@ 3
ş 3
cri@@ 3
Syria 3
wri@@ 3
decade 3
ices 3
meng@@ 3
yet 3
É 3
unities 3
resu@@ 3
Japanese 3
seen 3
alone 3
sec@@ 3
better 3
Islamist 3
zing 3
even 3
produce 3
opposition 3
refer@@ 3
argu@@ 3
Griech@@ 3
tain 3
sci@@ 3
Š@@ 3
things 3
open@@ 3
appro@@ 3
cen@@ 3
œ@@ 3
French 3
list 3
events 2
tian 2
worth 2
supposed 2
without 2
anim@@ 2
fulfi@@ 2
take 2
tools 2
bureau@@ 2
å 2
Eastern 2
ynes 2
limit 2
forward 2
never 2
beginning 2
‎ 2
¼ 2
period 2
anian 2
here 2
Э@@ 2
trend 2
temporary 2
hasi@@ 2
figh@@ 2
õ 2
assu@@ 2
recession 2
Apri@@ 2
Î@@ 2
ğ 2
previous 2
б 2
macroeconomic 2
direct 2
pre 2
tax 2
government 2
leading 2
cent 2
± 2
anya 2
less 2
anno@@ 2
moment 2
care 2
because 2
Ó@@ 2
only 2
wage 2
think 2
down@@ 2
ā@@ 2
ieder@@ 2
spending 2
鰃@@ 2
country 2
along 2
palästin@@ 2
push@@ 2
legitim@@ 2
ancing 2
п 2
ensure 2
crow@@ 2
born 2
eks 2
between 2
dly 2
head 2
ological 2
З@@ 2
goes 2
proposed 2
project 2
ж 2
alah 2
GDP 2
lifer@@ 2
stric@@ 2
æ@@ 2
surplus 2
asan 2
parts 2
sprüng@@ 2
ternal 2
issue 2
Latin 2
ó 2
access 2
deser@@ 2
short 2
house 2
intro@@ 2
č 2
Cold 2
true 2
ē 2
imports 2
finance 2
possible 2
ching 2
comp@@ 2
income 2
fied 2
И@@ 2
tax@@ 2
ful@@ 2
nologi@@ 2
ł 2
ș@@ 2
chance 2
cross 2
days 2
achieved 2
cour@@ 2
practice 2
tations 2
ekonom@@ 2
鋖@@ 2
asset 2
dents 2
tah@@ 2
want 2
argued 2
determin@@ 2
ò 2
Korean 2
Ireland 2
Argentina 2
eping 2
enting 2
level 2
thinking 2
double 2
drive 2
funds 2
genuine 2
might 2
sow@@ 2
shed 2
untu@@ 2
standing 2
thought 2
pped 2
quot@@ 2
could 2
lower 2
comm@@ 2
offers 2
later 2
talk 2
flow 2
mean@@ 2
Treaty 2
黡@@ 2
four 2
bly 2
estim@@ 2
year 2
Islamic 2
economics 2
cide 2
鰄@@ 2
â@@ 2
doub@@ 2
doing 2
Secretary 2
angan 2
å@@ 2
gether 2
jec@@ 2
when 2
mandate 2
external 2
likely 2
late 2
cism 2
Libya 2
ved 2
atie 2
ę@@ 2
taking 2
ē@@ 2
during 2
mp 2
nings 2
Constitu@@ 2
buy 2
stop 2
ented 2
stac@@ 2
ı@@ 2
ì@@ 2
behavi@@ 2
practices 2
gyp@@ 2
office 2
role 2
thre@@ 2
less@@ 2
common 2
assets 2
point 2
Palestine 2
obach@@ 2
crime 2
Č@@ 1
gian 1
Großbritanni@@ 1
employment 1
connec@@ 1
elling 1
capitalism 1
urg@@ 1
Democrats 1
atis@@ 1
predic@@ 1
deep 1
Kyo@@ 1
ries 1
鰀@@ 1
pose 1
aran 1
those 1
鋑@@ 1
parties 1
ī@@ 1
improving 1
beyond 1
鋟@@ 1
case 1
rapid 1
confidence 1
matters 1
warming 1
forming 1
knowledge 1
policies 1
Chá@@ 1
reason 1
fication 1
grow 1
thereby 1
expectations 1
place 1
unlikely 1
lying 1
technologies 1
hope 1
expect 1
history 1
find 1
capacity 1
adjustment 1
question 1
colle@@ 1
protection@@ 1
combination 1
fight 1
why 1
happen 1
aled 1
response 1
ō 1
arrange@@ 1
terms 1
world 1
aries 1
slow 1
balanced 1
convinc@@ 1
dless 1
political 1
menj@@ 1
must 1
protec@@ 1
industry 1
ddle 1
whom 1
repe@@ 1
anan 1
become 1
degree 1
ettbewer@@ 1
È@@ 1
measures 1
remain 1
enough 1
Republic 1
adju@@ 1
continued 1
matter 1
natural 1
vered 1
underlying 1
nature 1
little 1
Б@@ 1
traditional 1
Sunni 1
conc@@ 1
erous 1
enterpri@@ 1
estimates 1
鋞@@ 1
security 1
expensive 1
aeda 1
̈ 1
giving 1
intelligence 1
Italian 1
黷@@ 1
corporate 1
Brazi@@ 1
灾@@ 1
placed 1
reduc@@ 1
none 1
ficits 1
determine 1
found@@ 1
acts 1
agricultural 1
 1
bail@@ 1
tured 1
uring 1
regard 1
discus@@ 1
profits 1
crimin@@ 1
ective 1
Russian 1
officials 1
scale 1
pher@@ 1
À 1
two 1
äri@@ 1
Israeli@@ 1
mism 1
forec@@ 1
deficit 1
popular 1
demand 1
lows 1
imbalances 1
ited 1
⅞ 1
actually 1
Jewish 1
finally 1
official 1
cities 1
surpri@@ 1
trig@@ 1
seem 1
months 1
today 1
easing 1
energy 1
鰎@@ 1
economist 1
ply 1
insgesam@@ 1
build 1
ought 1
ects 1
OEC@@ 1
society 1
growing 1
best 1
fying 1
highly 1
aggregate 1
yed 1
~ 1
mption 1
reducing 1
eful 1
setting 1
cutting 1
Å@@ 1
where 1
pressing 1
neighbors 1
sm 1
productivity 1
probably 1
next 1
diseases 1
Prime 1
room 1
investments 1
twi@@ 1
argue 1
evidence 1
appoin@@ 1
prehen@@ 1
collapse 1
kuti@@ 1
躍@@ 1
sphere 1
toward 1
March 1
another 1
黮@@ 1
commit@@ 1
immigrants 1
trilli@@ 1
gument 1
г 1
known 1
represent@@ 1
being 1
Britain 1
plac@@ 1
differences 1
faces 1
国@@ 1
幸@@ 1
stly 1
huge 1
uh 1
reta@@ 1
after@@ 1
tered 1
data 1
democracies 1
puni@@ 1
since 1
去@@ 1
peripher@@ 1
Lebanon 1
anything 1
companies 1
linked 1
risks 1
greatest 1
demonstr@@ 1
enth 1
pem@@ 1
target 1
acc@@ 1
spend 1
elimin@@ 1
apa 1
ints 1
social 1
policy 1
ligh@@ 1
utin 1
always 1
judi@@ 1
medium 1
0s 1
consensus 1
bene@@ 1
projects 1
risk 1
rather 1
ë@@ 1
vote 1
乐@@ 1
influ@@ 1
caus@@ 1
conduc@@ 1
ã 1
rese@@ 1
others 1
options 1
遝 1
fell 1
before 1
range 1
eventually 1
equal 1
aman 1
rising 1
medic@@ 1
chie@@ 1
³ 1
decades 1
similar 1
ght@@ 1
bottom 1
Iraq@@ 1
Soviet 1
used 1
became 1
manufac@@ 1
struggle 1
services 1
reforms 1
grown 1
ordinary 1
oning 1
institutional 1
≤ 1
share@@ 1
development 1
sure 1
final 1
acted 1
away 1
deni@@ 1
turn 1
free 1
gewäh@@ 1
pay@@ 1
 1
meth@@ 1
markets 1
malaria 1
sug@@ 1
tural 1
ú 1
housing 1
farm@@ 1
host 1
expla@@ 1
ﬂ@@ 1
clos@@ 1
鰈@@ 1
А 1
what 1
antly 1
Nig@@ 1
fore@@ 1
lities 1
sanc@@ 1
fif@@ 1
arms 1
ged 1
added 1
yak 1
members 1
Palestinian 1
poor 1
willing 1
capit@@ 1
onger 1
Syrian 1
entives 1
sustain@@ 1
Egyp@@ 1
† 1
cratic 1
ously 1
desper@@ 1
depends 1
austerity 1
cil 1
agree 1
allow@@ 1
ffici@@ 1
祸 1
謑 1
gains 1
sidents 1
citizens 1
models 1
with@@ 1
far 1
ently 1
Republican 1
enced 1
inclu@@ 1
fossil 1
obser@@ 1
鲞@@ 1
targe@@ 1
rought 1
terrorism 1
emer@@ 1
efficiency 1
fy 1
inher@@ 1
cou@@ 1
ined 1
skil@@ 1
poses 1
produc@@ 1
‒ 1
back@@ 1
contrac@@ 1
cur@@ 1
negotiations 1
faster 1
restore 1
bed 1
unia 1
eling 1
tory 1
usually 1
cement 1
ð@@ 1
sought 1
progress 1
nor 1
disin@@ 1
Spain 1
mass 1
programs 1
tious 1
proved 1
zureich@@ 1
takes 1
regulation 1
fam@@ 1
Ô 1
cum@@ 1
遪@@ 1
konom@@ 1
larg@@ 1
ghten@@ 1
control 1
carbon 1
unan 1
attemp@@ 1
aring 1
seems 1
Greek 1
preced@@ 1
anyone 1
ungefäh@@ 1
solid@@ 1
wr@@ 1
aim 1
break@@ 1
three 1
certain@@ 1
compli@@ 1
遲 1
loo@@ 1
issu@@ 1
economies 1
establi@@ 1
rights 1
Ž@@ 1
term 1
working 1
promot@@ 1
failed 1
technological 1
pun 1
sted 1
Turkey 1
December 1
言 1
poin@@ 1
community 1
excessive 1
accept 1
jud@@ 1
İ@@ 1
everyone 1
particular 1
chief 1
ъ@@ 1
宣@@ 1
prove 1
few 1
due 1
cost 1
universities 1
謑@@ 1
associ@@ 1
easy 1
active 1
most 1
does 1
entire 1
making 1
struc@@ 1
hit 1
welfare 1
excess 1
summit 1
Develop@@ 1
Œ@@ 1
vital 1
